{
  "version": "1.0",
  "truncation": null,
  "padding": null,
  "added_tokens": [
    {
      "id": 0,
      "content": "<unk>",
      "single_word": false,
      "lstrip": false,
      "rstrip": false,
      "normalized": false,
      "special": true
    },
    {
      "id": 1,
      "content": "</s>",
      "single_word": false,
      "lstrip": false,
      "rstrip": false,
      "normalized": false,
      "special": true
    },
    {
      "id": 2,
      "content": "<pad>",
      "single_word": false,
      "lstrip": false,
      "rstrip": false,
      "normalized": false,
      "special": true
    },
    {
      "id": 3,
      "content": "<en>",
      "single_word": false,
      "lstrip": false,
      "rstrip": false,
      "normalized": false,
      "special": true
    },
    {
      "id": 4,
      "content": "<ja>",
      "single_word": false,
      "lstrip": false,
      "rstrip": false,
      "normalized": false,
      "special": true
    }
  ],
  "normalizer": null,
  "pre_tokenizer": {
    "type": "Whitespace"
  },
  "post_processor": null,
  "decoder": null,
  "model": {
    "type": "BPE",
    "dropout": null,
    "unk_token": "<unk>",
    "continuing_subword_prefix": null,
    "end_of_word_suffix": null,
    "fuse_unk": false,
    "byte_fallback": false,
    "ignore_merges": false,
    "vocab": {
      "<unk>": 0,
      "</s>": 1,
      "<pad>": 2,
      "<en>": 3,
      "<ja>": 4,
      "!": 5,
      "\"": 6,
      "$": 7,
      "%": 8,
      "&": 9,
      "'": 10,
      "(": 11,
      ")": 12,
      ",": 13,
      "-": 14,
      ".": 15,
      "/": 16,
      "0": 17,
      "1": 18,
      "2": 19,
      "3": 20,
      "4": 21,
      "5": 22,
      "6": 23,
      "7": 24,
      "8": 25,
      "9": 26,
      ":": 27,
      ";": 28,
      "?": 29,
      "@": 30,
      "A": 31,
      "B": 32,
      "C": 33,
      "D": 34,
      "E": 35,
      "F": 36,
      "G": 37,
      "H": 38,
      "I": 39,
      "J": 40,
      "K": 41,
      "L": 42,
      "M": 43,
      "N": 44,
      "O": 45,
      "P": 46,
      "Q": 47,
      "R": 48,
      "S": 49,
      "T": 50,
      "U": 51,
      "V": 52,
      "W": 53,
      "X": 54,
      "Y": 55,
      "Z": 56,
      "a": 57,
      "b": 58,
      "c": 59,
      "d": 60,
      "e": 61,
      "f": 62,
      "g": 63,
      "h": 64,
      "i": 65,
      "j": 66,
      "k": 67,
      "l": 68,
      "m": 69,
      "n": 70,
      "o": 71,
      "p": 72,
      "q": 73,
      "r": 74,
      "s": 75,
      "t": 76,
      "u": 77,
      "v": 78,
      "w": 79,
      "x": 80,
      "y": 81,
      "z": 82,
      "×": 83,
      "à": 84,
      "é": 85,
      "―": 86,
      "‘": 87,
      "’": 88,
      "“": 89,
      "”": 90,
      "…": 91,
      "′": 92,
      "℃": 93,
      "、": 94,
      "。": 95,
      "々": 96,
      "「": 97,
      "」": 98,
      "ぁ": 99,
      "あ": 100,
      "い": 101,
      "う": 102,
      "ぇ": 103,
      "え": 104,
      "ぉ": 105,
      "お": 106,
      "か": 107,
      "が": 108,
      "き": 109,
      "ぎ": 110,
      "く": 111,
      "ぐ": 112,
      "け": 113,
      "げ": 114,
      "こ": 115,
      "ご": 116,
      "さ": 117,
      "ざ": 118,
      "し": 119,
      "じ": 120,
      "す": 121,
      "ず": 122,
      "せ": 123,
      "ぜ": 124,
      "そ": 125,
      "ぞ": 126,
      "た": 127,
      "だ": 128,
      "ち": 129,
      "っ": 130,
      "つ": 131,
      "づ": 132,
      "て": 133,
      "で": 134,
      "と": 135,
      "ど": 136,
      "な": 137,
      "に": 138,
      "ぬ": 139,
      "ね": 140,
      "の": 141,
      "は": 142,
      "ば": 143,
      "ぱ": 144,
      "ひ": 145,
      "び": 146,
      "ぴ": 147,
      "ふ": 148,
      "ぶ": 149,
      "ぷ": 150,
      "へ": 151,
      "べ": 152,
      "ぺ": 153,
      "ほ": 154,
      "ぼ": 155,
      "ぽ": 156,
      "ま": 157,
      "み": 158,
      "む": 159,
      "め": 160,
      "も": 161,
      "ゃ": 162,
      "や": 163,
      "ゅ": 164,
      "ゆ": 165,
      "ょ": 166,
      "よ": 167,
      "ら": 168,
      "り": 169,
      "る": 170,
      "れ": 171,
      "ろ": 172,
      "わ": 173,
      "を": 174,
      "ん": 175,
      "ァ": 176,
      "ア": 177,
      "ィ": 178,
      "イ": 179,
      "ゥ": 180,
      "ウ": 181,
      "ェ": 182,
      "エ": 183,
      "ォ": 184,
      "オ": 185,
      "カ": 186,
      "ガ": 187,
      "キ": 188,
      "ギ": 189,
      "ク": 190,
      "グ": 191,
      "ケ": 192,
      "ゲ": 193,
      "コ": 194,
      "ゴ": 195,
      "サ": 196,
      "ザ": 197,
      "シ": 198,
      "ジ": 199,
      "ス": 200,
      "ズ": 201,
      "セ": 202,
      "ゼ": 203,
      "ソ": 204,
      "ゾ": 205,
      "タ": 206,
      "ダ": 207,
      "チ": 208,
      "ッ": 209,
      "ツ": 210,
      "テ": 211,
      "デ": 212,
      "ト": 213,
      "ド": 214,
      "ナ": 215,
      "ニ": 216,
      "ヌ": 217,
      "ネ": 218,
      "ノ": 219,
      "ハ": 220,
      "バ": 221,
      "パ": 222,
      "ヒ": 223,
      "ビ": 224,
      "ピ": 225,
      "フ": 226,
      "ブ": 227,
      "プ": 228,
      "ヘ": 229,
      "ベ": 230,
      "ペ": 231,
      "ホ": 232,
      "ボ": 233,
      "ポ": 234,
      "マ": 235,
      "ミ": 236,
      "ム": 237,
      "メ": 238,
      "モ": 239,
      "ャ": 240,
      "ヤ": 241,
      "ュ": 242,
      "ユ": 243,
      "ョ": 244,
      "ヨ": 245,
      "ラ": 246,
      "リ": 247,
      "ル": 248,
      "レ": 249,
      "ロ": 250,
      "ワ": 251,
      "ン": 252,
      "ヴ": 253,
      "ヵ": 254,
      "ヶ": 255,
      "・": 256,
      "ー": 257,
      "一": 258,
      "丁": 259,
      "万": 260,
      "丈": 261,
      "三": 262,
      "上": 263,
      "下": 264,
      "不": 265,
      "与": 266,
      "世": 267,
      "丘": 268,
      "両": 269,
      "並": 270,
      "中": 271,
      "串": 272,
      "丸": 273,
      "主": 274,
      "丼": 275,
      "久": 276,
      "之": 277,
      "乗": 278,
      "乙": 279,
      "九": 280,
      "也": 281,
      "乱": 282,
      "乳": 283,
      "乾": 284,
      "了": 285,
      "予": 286,
      "争": 287,
      "事": 288,
      "二": 289,
      "互": 290,
      "五": 291,
      "井": 292,
      "亘": 293,
      "些": 294,
      "亡": 295,
      "交": 296,
      "京": 297,
      "亭": 298,
      "亮": 299,
      "人": 300,
      "仁": 301,
      "今": 302,
      "介": 303,
      "仕": 304,
      "他": 305,
      "付": 306,
      "代": 307,
      "令": 308,
      "以": 309,
      "仮": 310,
      "仰": 311,
      "仲": 312,
      "件": 313,
      "任": 314,
      "企": 315,
      "伊": 316,
      "伐": 317,
      "休": 318,
      "会": 319,
      "伝": 320,
      "伯": 321,
      "伴": 322,
      "伸": 323,
      "伺": 324,
      "似": 325,
      "但": 326,
      "位": 327,
      "低": 328,
      "住": 329,
      "佐": 330,
      "体": 331,
      "何": 332,
      "余": 333,
      "作": 334,
      "併": 335,
      "使": 336,
      "例": 337,
      "供": 338,
      "依": 339,
      "価": 340,
      "侵": 341,
      "便": 342,
      "係": 343,
      "促": 344,
      "俗": 345,
      "保": 346,
      "信": 347,
      "修": 348,
      "俸": 349,
      "俺": 350,
      "倉": 351,
      "個": 352,
      "倍": 353,
      "倒": 354,
      "候": 355,
      "借": 356,
      "値": 357,
      "倫": 358,
      "偉": 359,
      "偏": 360,
      "停": 361,
      "健": 362,
      "側": 363,
      "偶": 364,
      "偽": 365,
      "傑": 366,
      "傘": 367,
      "備": 368,
      "催": 369,
      "傲": 370,
      "債": 371,
      "傷": 372,
      "傾": 373,
      "働": 374,
      "像": 375,
      "僕": 376,
      "僚": 377,
      "儀": 378,
      "億": 379,
      "償": 380,
      "優": 381,
      "儲": 382,
      "元": 383,
      "兄": 384,
      "充": 385,
      "兆": 386,
      "先": 387,
      "光": 388,
      "免": 389,
      "児": 390,
      "入": 391,
      "全": 392,
      "八": 393,
      "公": 394,
      "六": 395,
      "共": 396,
      "兵": 397,
      "具": 398,
      "典": 399,
      "兼": 400,
      "内": 401,
      "円": 402,
      "冊": 403,
      "再": 404,
      "冗": 405,
      "写": 406,
      "冬": 407,
      "冷": 408,
      "凄": 409,
      "凌": 410,
      "凍": 411,
      "凝": 412,
      "几": 413,
      "処": 414,
      "凶": 415,
      "凹": 416,
      "出": 417,
      "刀": 418,
      "分": 419,
      "切": 420,
      "刊": 421,
      "列": 422,
      "初": 423,
      "判": 424,
      "別": 425,
      "利": 426,
      "到": 427,
      "制": 428,
      "刷": 429,
      "券": 430,
      "刺": 431,
      "刻": 432,
      "則": 433,
      "削": 434,
      "前": 435,
      "剣": 436,
      "剤": 437,
      "剥": 438,
      "副": 439,
      "剰": 440,
      "割": 441,
      "創": 442,
      "力": 443,
      "功": 444,
      "加": 445,
      "助": 446,
      "努": 447,
      "励": 448,
      "労": 449,
      "効": 450,
      "勇": 451,
      "勉": 452,
      "動": 453,
      "勘": 454,
      "務": 455,
      "勝": 456,
      "募": 457,
      "勢": 458,
      "勤": 459,
      "勧": 460,
      "勿": 461,
      "匂": 462,
      "包": 463,
      "化": 464,
      "北": 465,
      "匹": 466,
      "区": 467,
      "医": 468,
      "匿": 469,
      "十": 470,
      "千": 471,
      "午": 472,
      "半": 473,
      "卒": 474,
      "卓": 475,
      "協": 476,
      "南": 477,
      "単": 478,
      "博": 479,
      "占": 480,
      "印": 481,
      "危": 482,
      "即": 483,
      "却": 484,
      "卵": 485,
      "卸": 486,
      "厄": 487,
      "厚": 488,
      "原": 489,
      "厳": 490,
      "去": 491,
      "参": 492,
      "又": 493,
      "及": 494,
      "友": 495,
      "反": 496,
      "収": 497,
      "叔": 498,
      "取": 499,
      "受": 500,
      "口": 501,
      "古": 502,
      "句": 503,
      "叩": 504,
      "只": 505,
      "叫": 506,
      "召": 507,
      "可": 508,
      "台": 509,
      "叱": 510,
      "史": 511,
      "右": 512,
      "号": 513,
      "司": 514,
      "各": 515,
      "合": 516,
      "吉": 517,
      "同": 518,
      "名": 519,
      "吐": 520,
      "向": 521,
      "君": 522,
      "吟": 523,
      "吠": 524,
      "否": 525,
      "含": 526,
      "吸": 527,
      "吹": 528,
      "呂": 529,
      "呆": 530,
      "告": 531,
      "周": 532,
      "味": 533,
      "呼": 534,
      "命": 535,
      "和": 536,
      "咲": 537,
      "咳": 538,
      "咽": 539,
      "哀": 540,
      "品": 541,
      "員": 542,
      "唐": 543,
      "唯": 544,
      "唱": 545,
      "商": 546,
      "問": 547,
      "善": 548,
      "喉": 549,
      "喋": 550,
      "喚": 551,
      "喜": 552,
      "喧": 553,
      "喫": 554,
      "営": 555,
      "嗅": 556,
      "嗜": 557,
      "嘔": 558,
      "嘘": 559,
      "嘩": 560,
      "噂": 561,
      "噌": 562,
      "噛": 563,
      "器": 564,
      "嚢": 565,
      "囚": 566,
      "四": 567,
      "回": 568,
      "因": 569,
      "団": 570,
      "困": 571,
      "囲": 572,
      "図": 573,
      "固": 574,
      "国": 575,
      "圏": 576,
      "園": 577,
      "土": 578,
      "圧": 579,
      "在": 580,
      "地": 581,
      "坂": 582,
      "均": 583,
      "坊": 584,
      "坑": 585,
      "坪": 586,
      "型": 587,
      "垣": 588,
      "埃": 589,
      "埋": 590,
      "城": 591,
      "域": 592,
      "執": 593,
      "基": 594,
      "埼": 595,
      "堂": 596,
      "堅": 597,
      "堪": 598,
      "報": 599,
      "場": 600,
      "塚": 601,
      "塩": 602,
      "塾": 603,
      "境": 604,
      "墓": 605,
      "増": 606,
      "壁": 607,
      "壇": 608,
      "壊": 609,
      "士": 610,
      "声": 611,
      "売": 612,
      "変": 613,
      "夏": 614,
      "夕": 615,
      "外": 616,
      "多": 617,
      "夜": 618,
      "夢": 619,
      "大": 620,
      "天": 621,
      "太": 622,
      "夫": 623,
      "央": 624,
      "失": 625,
      "奈": 626,
      "奏": 627,
      "契": 628,
      "奢": 629,
      "奥": 630,
      "奨": 631,
      "奪": 632,
      "奮": 633,
      "女": 634,
      "奴": 635,
      "好": 636,
      "如": 637,
      "妊": 638,
      "妙": 639,
      "妥": 640,
      "妨": 641,
      "妹": 642,
      "妻": 643,
      "姉": 644,
      "始": 645,
      "委": 646,
      "姿": 647,
      "威": 648,
      "娘": 649,
      "娠": 650,
      "婚": 651,
      "婦": 652,
      "媒": 653,
      "嫁": 654,
      "嫌": 655,
      "嬉": 656,
      "嬢": 657,
      "子": 658,
      "字": 659,
      "存": 660,
      "孝": 661,
      "季": 662,
      "学": 663,
      "孫": 664,
      "宅": 665,
      "宇": 666,
      "守": 667,
      "安": 668,
      "完": 669,
      "宏": 670,
      "宗": 671,
      "官": 672,
      "宙": 673,
      "定": 674,
      "宛": 675,
      "宜": 676,
      "宝": 677,
      "実": 678,
      "客": 679,
      "宣": 680,
      "室": 681,
      "宮": 682,
      "害": 683,
      "宴": 684,
      "家": 685,
      "容": 686,
      "宿": 687,
      "寂": 688,
      "寄": 689,
      "密": 690,
      "富": 691,
      "寒": 692,
      "寝": 693,
      "察": 694,
      "寡": 695,
      "寧": 696,
      "審": 697,
      "寸": 698,
      "寺": 699,
      "対": 700,
      "寿": 701,
      "封": 702,
      "専": 703,
      "射": 704,
      "将": 705,
      "尊": 706,
      "尋": 707,
      "導": 708,
      "小": 709,
      "少": 710,
      "尚": 711,
      "就": 712,
      "尻": 713,
      "尽": 714,
      "尾": 715,
      "尿": 716,
      "局": 717,
      "居": 718,
      "屈": 719,
      "届": 720,
      "屋": 721,
      "屓": 722,
      "展": 723,
      "属": 724,
      "層": 725,
      "履": 726,
      "山": 727,
      "岡": 728,
      "岩": 729,
      "岸": 730,
      "峰": 731,
      "島": 732,
      "崎": 733,
      "崩": 734,
      "嵐": 735,
      "嶋": 736,
      "川": 737,
      "州": 738,
      "巡": 739,
      "巣": 740,
      "工": 741,
      "左": 742,
      "巧": 743,
      "差": 744,
      "己": 745,
      "巻": 746,
      "巾": 747,
      "市": 748,
      "布": 749,
      "希": 750,
      "帝": 751,
      "師": 752,
      "席": 753,
      "帯": 754,
      "帰": 755,
      "帳": 756,
      "常": 757,
      "帽": 758,
      "幅": 759,
      "幕": 760,
      "干": 761,
      "平": 762,
      "年": 763,
      "幸": 764,
      "幹": 765,
      "幻": 766,
      "幼": 767,
      "幾": 768,
      "庁": 769,
      "広": 770,
      "床": 771,
      "序": 772,
      "底": 773,
      "店": 774,
      "府": 775,
      "度": 776,
      "座": 777,
      "庫": 778,
      "庭": 779,
      "庶": 780,
      "康": 781,
      "廃": 782,
      "廊": 783,
      "延": 784,
      "建": 785,
      "弁": 786,
      "弄": 787,
      "弊": 788,
      "式": 789,
      "引": 790,
      "弟": 791,
      "弱": 792,
      "張": 793,
      "強": 794,
      "弾": 795,
      "当": 796,
      "形": 797,
      "彩": 798,
      "彰": 799,
      "影": 800,
      "役": 801,
      "彼": 802,
      "往": 803,
      "待": 804,
      "律": 805,
      "後": 806,
      "徐": 807,
      "徒": 808,
      "従": 809,
      "得": 810,
      "御": 811,
      "復": 812,
      "微": 813,
      "徳": 814,
      "徴": 815,
      "徹": 816,
      "心": 817,
      "必": 818,
      "忌": 819,
      "忍": 820,
      "志": 821,
      "忘": 822,
      "忙": 823,
      "応": 824,
      "忠": 825,
      "快": 826,
      "念": 827,
      "怒": 828,
      "怖": 829,
      "思": 830,
      "怠": 831,
      "急": 832,
      "性": 833,
      "怪": 834,
      "恋": 835,
      "恐": 836,
      "恒": 837,
      "恥": 838,
      "恨": 839,
      "恩": 840,
      "息": 841,
      "恵": 842,
      "悔": 843,
      "悟": 844,
      "患": 845,
      "悩": 846,
      "悪": 847,
      "悲": 848,
      "情": 849,
      "惑": 850,
      "惜": 851,
      "惣": 852,
      "惨": 853,
      "想": 854,
      "意": 855,
      "愚": 856,
      "愛": 857,
      "感": 858,
      "慈": 859,
      "態": 860,
      "慌": 861,
      "慎": 862,
      "慢": 863,
      "慣": 864,
      "慮": 865,
      "慰": 866,
      "憂": 867,
      "憊": 868,
      "憚": 869,
      "憧": 870,
      "憩": 871,
      "憶": 872,
      "懇": 873,
      "懐": 874,
      "懸": 875,
      "成": 876,
      "我": 877,
      "戒": 878,
      "戚": 879,
      "戦": 880,
      "戴": 881,
      "戸": 882,
      "戻": 883,
      "房": 884,
      "所": 885,
      "扉": 886,
      "手": 887,
      "才": 888,
      "打": 889,
      "払": 890,
      "扱": 891,
      "批": 892,
      "承": 893,
      "技": 894,
      "把": 895,
      "抑": 896,
      "投": 897,
      "抗": 898,
      "折": 899,
      "抜": 900,
      "択": 901,
      "披": 902,
      "抱": 903,
      "抵": 904,
      "押": 905,
      "抽": 906,
      "担": 907,
      "拍": 908,
      "拒": 909,
      "拓": 910,
      "拘": 911,
      "招": 912,
      "拝": 913,
      "拠": 914,
      "拡": 915,
      "括": 916,
      "拭": 917,
      "拶": 918,
      "拾": 919,
      "持": 920,
      "指": 921,
      "挑": 922,
      "挙": 923,
      "挨": 924,
      "挫": 925,
      "振": 926,
      "挿": 927,
      "捉": 928,
      "捌": 929,
      "捕": 930,
      "捗": 931,
      "捜": 932,
      "捨": 933,
      "捺": 934,
      "捻": 935,
      "掃": 936,
      "授": 937,
      "排": 938,
      "掘": 939,
      "掛": 940,
      "採": 941,
      "探": 942,
      "接": 943,
      "控": 944,
      "推": 945,
      "措": 946,
      "掲": 947,
      "揃": 948,
      "揉": 949,
      "描": 950,
      "提": 951,
      "揚": 952,
      "換": 953,
      "握": 954,
      "揮": 955,
      "援": 956,
      "揺": 957,
      "損": 958,
      "搬": 959,
      "搭": 960,
      "携": 961,
      "摘": 962,
      "撃": 963,
      "撤": 964,
      "撮": 965,
      "撲": 966,
      "撼": 967,
      "擁": 968,
      "操": 969,
      "支": 970,
      "改": 971,
      "攻": 972,
      "放": 973,
      "政": 974,
      "故": 975,
      "敏": 976,
      "救": 977,
      "敗": 978,
      "教": 979,
      "敢": 980,
      "散": 981,
      "敬": 982,
      "数": 983,
      "整": 984,
      "敵": 985,
      "敷": 986,
      "文": 987,
      "斉": 988,
      "斎": 989,
      "斐": 990,
      "料": 991,
      "斜": 992,
      "斬": 993,
      "断": 994,
      "新": 995,
      "方": 996,
      "施": 997,
      "旅": 998,
      "族": 999,
      "旗": 1000,
      "既": 1001,
      "日": 1002,
      "旦": 1003,
      "旧": 1004,
      "旨": 1005,
      "早": 1006,
      "旬": 1007,
      "旭": 1008,
      "昇": 1009,
      "明": 1010,
      "易": 1011,
      "昔": 1012,
      "星": 1013,
      "映": 1014,
      "春": 1015,
      "昧": 1016,
      "昨": 1017,
      "是": 1018,
      "昼": 1019,
      "時": 1020,
      "晩": 1021,
      "普": 1022,
      "景": 1023,
      "晴": 1024,
      "暇": 1025,
      "暑": 1026,
      "暖": 1027,
      "暗": 1028,
      "暢": 1029,
      "暦": 1030,
      "暫": 1031,
      "暮": 1032,
      "暴": 1033,
      "曖": 1034,
      "曜": 1035,
      "曰": 1036,
      "更": 1037,
      "書": 1038,
      "替": 1039,
      "最": 1040,
      "月": 1041,
      "有": 1042,
      "服": 1043,
      "望": 1044,
      "朝": 1045,
      "期": 1046,
      "木": 1047,
      "未": 1048,
      "末": 1049,
      "本": 1050,
      "札": 1051,
      "机": 1052,
      "朽": 1053,
      "杉": 1054,
      "材": 1055,
      "村": 1056,
      "杖": 1057,
      "束": 1058,
      "条": 1059,
      "来": 1060,
      "杯": 1061,
      "東": 1062,
      "松": 1063,
      "板": 1064,
      "析": 1065,
      "林": 1066,
      "枚": 1067,
      "果": 1068,
      "枝": 1069,
      "枠": 1070,
      "枯": 1071,
      "架": 1072,
      "柄": 1073,
      "柏": 1074,
      "某": 1075,
      "染": 1076,
      "柔": 1077,
      "柴": 1078,
      "柵": 1079,
      "査": 1080,
      "栄": 1081,
      "栓": 1082,
      "栗": 1083,
      "校": 1084,
      "株": 1085,
      "根": 1086,
      "格": 1087,
      "桁": 1088,
      "案": 1089,
      "桑": 1090,
      "桶": 1091,
      "梅": 1092,
      "梨": 1093,
      "械": 1094,
      "梱": 1095,
      "梶": 1096,
      "棄": 1097,
      "棒": 1098,
      "棚": 1099,
      "棟": 1100,
      "棠": 1101,
      "森": 1102,
      "椅": 1103,
      "植": 1104,
      "検": 1105,
      "楊": 1106,
      "業": 1107,
      "極": 1108,
      "楽": 1109,
      "概": 1110,
      "構": 1111,
      "槌": 1112,
      "様": 1113,
      "槽": 1114,
      "標": 1115,
      "模": 1116,
      "権": 1117,
      "横": 1118,
      "樽": 1119,
      "橋": 1120,
      "機": 1121,
      "檜": 1122,
      "欄": 1123,
      "欒": 1124,
      "欠": 1125,
      "次": 1126,
      "欧": 1127,
      "欲": 1128,
      "欺": 1129,
      "款": 1130,
      "歌": 1131,
      "歓": 1132,
      "止": 1133,
      "正": 1134,
      "武": 1135,
      "歩": 1136,
      "歯": 1137,
      "歳": 1138,
      "歴": 1139,
      "死": 1140,
      "殆": 1141,
      "残": 1142,
      "段": 1143,
      "殺": 1144,
      "母": 1145,
      "毎": 1146,
      "毒": 1147,
      "比": 1148,
      "毛": 1149,
      "氏": 1150,
      "民": 1151,
      "気": 1152,
      "水": 1153,
      "氷": 1154,
      "永": 1155,
      "汁": 1156,
      "求": 1157,
      "汗": 1158,
      "汚": 1159,
      "江": 1160,
      "池": 1161,
      "汰": 1162,
      "決": 1163,
      "沖": 1164,
      "沙": 1165,
      "没": 1166,
      "沢": 1167,
      "河": 1168,
      "沸": 1169,
      "油": 1170,
      "治": 1171,
      "沼": 1172,
      "沿": 1173,
      "況": 1174,
      "泉": 1175,
      "泊": 1176,
      "泌": 1177,
      "法": 1178,
      "泡": 1179,
      "波": 1180,
      "泣": 1181,
      "泥": 1182,
      "注": 1183,
      "泳": 1184,
      "洋": 1185,
      "洗": 1186,
      "洞": 1187,
      "津": 1188,
      "洩": 1189,
      "活": 1190,
      "派": 1191,
      "流": 1192,
      "浅": 1193,
      "浜": 1194,
      "浦": 1195,
      "浮": 1196,
      "浴": 1197,
      "海": 1198,
      "浸": 1199,
      "消": 1200,
      "液": 1201,
      "淋": 1202,
      "深": 1203,
      "淵": 1204,
      "混": 1205,
      "淹": 1206,
      "添": 1207,
      "清": 1208,
      "渇": 1209,
      "済": 1210,
      "渉": 1211,
      "渋": 1212,
      "減": 1213,
      "渡": 1214,
      "温": 1215,
      "測": 1216,
      "港": 1217,
      "湖": 1218,
      "湯": 1219,
      "湾": 1220,
      "湿": 1221,
      "満": 1222,
      "源": 1223,
      "準": 1224,
      "溜": 1225,
      "溢": 1226,
      "溶": 1227,
      "滅": 1228,
      "滑": 1229,
      "滞": 1230,
      "漏": 1231,
      "演": 1232,
      "漠": 1233,
      "漢": 1234,
      "漬": 1235,
      "潔": 1236,
      "潜": 1237,
      "潮": 1238,
      "潰": 1239,
      "澤": 1240,
      "激": 1241,
      "濃": 1242,
      "濡": 1243,
      "濤": 1244,
      "濯": 1245,
      "瀬": 1246,
      "火": 1247,
      "灯": 1248,
      "灰": 1249,
      "災": 1250,
      "炊": 1251,
      "炎": 1252,
      "炭": 1253,
      "点": 1254,
      "為": 1255,
      "烹": 1256,
      "無": 1257,
      "焦": 1258,
      "然": 1259,
      "焼": 1260,
      "煎": 1261,
      "煙": 1262,
      "照": 1263,
      "煮": 1264,
      "熊": 1265,
      "熟": 1266,
      "熱": 1267,
      "燃": 1268,
      "燥": 1269,
      "燻": 1270,
      "爆": 1271,
      "爬": 1272,
      "父": 1273,
      "片": 1274,
      "版": 1275,
      "牛": 1276,
      "物": 1277,
      "牲": 1278,
      "特": 1279,
      "犀": 1280,
      "犠": 1281,
      "犬": 1282,
      "犯": 1283,
      "状": 1284,
      "狂": 1285,
      "狙": 1286,
      "独": 1287,
      "狭": 1288,
      "猛": 1289,
      "猫": 1290,
      "献": 1291,
      "猿": 1292,
      "獲": 1293,
      "玄": 1294,
      "率": 1295,
      "玉": 1296,
      "王": 1297,
      "珈": 1298,
      "珍": 1299,
      "珠": 1300,
      "班": 1301,
      "現": 1302,
      "球": 1303,
      "理": 1304,
      "琲": 1305,
      "瑠": 1306,
      "璃": 1307,
      "璧": 1308,
      "環": 1309,
      "瓶": 1310,
      "甘": 1311,
      "生": 1312,
      "産": 1313,
      "用": 1314,
      "田": 1315,
      "由": 1316,
      "甲": 1317,
      "申": 1318,
      "男": 1319,
      "町": 1320,
      "画": 1321,
      "界": 1322,
      "畏": 1323,
      "留": 1324,
      "略": 1325,
      "番": 1326,
      "異": 1327,
      "畳": 1328,
      "疎": 1329,
      "疑": 1330,
      "疫": 1331,
      "疲": 1332,
      "病": 1333,
      "症": 1334,
      "痔": 1335,
      "痛": 1336,
      "痩": 1337,
      "痴": 1338,
      "瘍": 1339,
      "療": 1340,
      "癌": 1341,
      "発": 1342,
      "登": 1343,
      "白": 1344,
      "百": 1345,
      "的": 1346,
      "皆": 1347,
      "皇": 1348,
      "皮": 1349,
      "皿": 1350,
      "益": 1351,
      "盗": 1352,
      "盛": 1353,
      "監": 1354,
      "盤": 1355,
      "目": 1356,
      "盲": 1357,
      "直": 1358,
      "相": 1359,
      "省": 1360,
      "看": 1361,
      "県": 1362,
      "真": 1363,
      "眠": 1364,
      "眩": 1365,
      "眺": 1366,
      "眼": 1367,
      "着": 1368,
      "睡": 1369,
      "督": 1370,
      "睦": 1371,
      "瞑": 1372,
      "瞭": 1373,
      "矢": 1374,
      "知": 1375,
      "短": 1376,
      "石": 1377,
      "砂": 1378,
      "研": 1379,
      "砦": 1380,
      "破": 1381,
      "確": 1382,
      "磨": 1383,
      "礎": 1384,
      "示": 1385,
      "礼": 1386,
      "社": 1387,
      "祈": 1388,
      "祖": 1389,
      "祝": 1390,
      "神": 1391,
      "票": 1392,
      "祭": 1393,
      "禁": 1394,
      "禅": 1395,
      "福": 1396,
      "秀": 1397,
      "私": 1398,
      "秋": 1399,
      "科": 1400,
      "秒": 1401,
      "秘": 1402,
      "称": 1403,
      "移": 1404,
      "稀": 1405,
      "程": 1406,
      "税": 1407,
      "稚": 1408,
      "稟": 1409,
      "種": 1410,
      "稲": 1411,
      "稼": 1412,
      "稿": 1413,
      "穀": 1414,
      "積": 1415,
      "穏": 1416,
      "穫": 1417,
      "穴": 1418,
      "究": 1419,
      "空": 1420,
      "突": 1421,
      "窃": 1422,
      "窓": 1423,
      "窮": 1424,
      "立": 1425,
      "章": 1426,
      "端": 1427,
      "競": 1428,
      "竹": 1429,
      "笑": 1430,
      "第": 1431,
      "筆": 1432,
      "等": 1433,
      "筋": 1434,
      "筐": 1435,
      "筒": 1436,
      "答": 1437,
      "策": 1438,
      "筧": 1439,
      "箇": 1440,
      "箋": 1441,
      "箔": 1442,
      "算": 1443,
      "管": 1444,
      "箱": 1445,
      "箸": 1446,
      "節": 1447,
      "範": 1448,
      "築": 1449,
      "篠": 1450,
      "簡": 1451,
      "簿": 1452,
      "籍": 1453,
      "籠": 1454,
      "米": 1455,
      "粉": 1456,
      "粋": 1457,
      "粗": 1458,
      "粘": 1459,
      "粧": 1460,
      "精": 1461,
      "糖": 1462,
      "系": 1463,
      "紀": 1464,
      "約": 1465,
      "紅": 1466,
      "紋": 1467,
      "納": 1468,
      "純": 1469,
      "紙": 1470,
      "級": 1471,
      "紛": 1472,
      "素": 1473,
      "索": 1474,
      "紫": 1475,
      "累": 1476,
      "細": 1477,
      "紹": 1478,
      "紺": 1479,
      "終": 1480,
      "組": 1481,
      "絆": 1482,
      "経": 1483,
      "結": 1484,
      "絞": 1485,
      "絡": 1486,
      "給": 1487,
      "統": 1488,
      "絵": 1489,
      "絶": 1490,
      "継": 1491,
      "続": 1492,
      "維": 1493,
      "網": 1494,
      "綺": 1495,
      "綿": 1496,
      "緊": 1497,
      "総": 1498,
      "緑": 1499,
      "緒": 1500,
      "線": 1501,
      "締": 1502,
      "編": 1503,
      "緩": 1504,
      "緯": 1505,
      "練": 1506,
      "縁": 1507,
      "縄": 1508,
      "縛": 1509,
      "縦": 1510,
      "縫": 1511,
      "縮": 1512,
      "績": 1513,
      "繁": 1514,
      "繊": 1515,
      "繋": 1516,
      "織": 1517,
      "繰": 1518,
      "纏": 1519,
      "缶": 1520,
      "罪": 1521,
      "罫": 1522,
      "置": 1523,
      "罰": 1524,
      "署": 1525,
      "罵": 1526,
      "罹": 1527,
      "羅": 1528,
      "羊": 1529,
      "美": 1530,
      "羨": 1531,
      "義": 1532,
      "羽": 1533,
      "翌": 1534,
      "習": 1535,
      "翻": 1536,
      "老": 1537,
      "考": 1538,
      "者": 1539,
      "耐": 1540,
      "耗": 1541,
      "耳": 1542,
      "聞": 1543,
      "聴": 1544,
      "職": 1545,
      "肉": 1546,
      "肌": 1547,
      "肘": 1548,
      "肛": 1549,
      "肝": 1550,
      "肢": 1551,
      "肩": 1552,
      "肪": 1553,
      "肯": 1554,
      "育": 1555,
      "胃": 1556,
      "胆": 1557,
      "背": 1558,
      "胡": 1559,
      "胸": 1560,
      "能": 1561,
      "脂": 1562,
      "脅": 1563,
      "脈": 1564,
      "脱": 1565,
      "脳": 1566,
      "腐": 1567,
      "腕": 1568,
      "腰": 1569,
      "腹": 1570,
      "膝": 1571,
      "臓": 1572,
      "臨": 1573,
      "自": 1574,
      "臭": 1575,
      "至": 1576,
      "致": 1577,
      "興": 1578,
      "舎": 1579,
      "舗": 1580,
      "舞": 1581,
      "航": 1582,
      "般": 1583,
      "舶": 1584,
      "船": 1585,
      "艦": 1586,
      "良": 1587,
      "色": 1588,
      "花": 1589,
      "芳": 1590,
      "芸": 1591,
      "苗": 1592,
      "苛": 1593,
      "若": 1594,
      "苦": 1595,
      "英": 1596,
      "茂": 1597,
      "茶": 1598,
      "草": 1599,
      "荒": 1600,
      "荷": 1601,
      "菅": 1602,
      "菊": 1603,
      "菌": 1604,
      "菓": 1605,
      "菜": 1606,
      "華": 1607,
      "落": 1608,
      "葉": 1609,
      "著": 1610,
      "葬": 1611,
      "蓄": 1612,
      "蓋": 1613,
      "蔵": 1614,
      "蕎": 1615,
      "薄": 1616,
      "薦": 1617,
      "薬": 1618,
      "藤": 1619,
      "蘭": 1620,
      "虫": 1621,
      "虹": 1622,
      "蝶": 1623,
      "融": 1624,
      "血": 1625,
      "衆": 1626,
      "行": 1627,
      "術": 1628,
      "街": 1629,
      "衛": 1630,
      "衣": 1631,
      "表": 1632,
      "衰": 1633,
      "袋": 1634,
      "袖": 1635,
      "被": 1636,
      "裁": 1637,
      "裂": 1638,
      "装": 1639,
      "裏": 1640,
      "裕": 1641,
      "補": 1642,
      "製": 1643,
      "裾": 1644,
      "複": 1645,
      "褒": 1646,
      "西": 1647,
      "要": 1648,
      "見": 1649,
      "規": 1650,
      "視": 1651,
      "覚": 1652,
      "覧": 1653,
      "親": 1654,
      "観": 1655,
      "角": 1656,
      "解": 1657,
      "触": 1658,
      "言": 1659,
      "訂": 1660,
      "計": 1661,
      "訊": 1662,
      "討": 1663,
      "訓": 1664,
      "託": 1665,
      "記": 1666,
      "訟": 1667,
      "訣": 1668,
      "訪": 1669,
      "設": 1670,
      "許": 1671,
      "訳": 1672,
      "訴": 1673,
      "診": 1674,
      "証": 1675,
      "詐": 1676,
      "評": 1677,
      "試": 1678,
      "詫": 1679,
      "詮": 1680,
      "詰": 1681,
      "話": 1682,
      "該": 1683,
      "詳": 1684,
      "誇": 1685,
      "誌": 1686,
      "認": 1687,
      "誕": 1688,
      "誘": 1689,
      "語": 1690,
      "誠": 1691,
      "誤": 1692,
      "説": 1693,
      "読": 1694,
      "誰": 1695,
      "課": 1696,
      "調": 1697,
      "談": 1698,
      "請": 1699,
      "論": 1700,
      "諦": 1701,
      "諸": 1702,
      "諾": 1703,
      "謂": 1704,
      "謎": 1705,
      "講": 1706,
      "謝": 1707,
      "謳": 1708,
      "識": 1709,
      "警": 1710,
      "議": 1711,
      "譲": 1712,
      "護": 1713,
      "谷": 1714,
      "豆": 1715,
      "豊": 1716,
      "豚": 1717,
      "象": 1718,
      "豪": 1719,
      "貝": 1720,
      "負": 1721,
      "財": 1722,
      "貢": 1723,
      "貨": 1724,
      "販": 1725,
      "貫": 1726,
      "責": 1727,
      "貯": 1728,
      "貰": 1729,
      "貴": 1730,
      "買": 1731,
      "貸": 1732,
      "費": 1733,
      "貼": 1734,
      "貿": 1735,
      "賀": 1736,
      "賂": 1737,
      "賃": 1738,
      "賄": 1739,
      "資": 1740,
      "賛": 1741,
      "賞": 1742,
      "賠": 1743,
      "賢": 1744,
      "質": 1745,
      "賭": 1746,
      "購": 1747,
      "贅": 1748,
      "贈": 1749,
      "贔": 1750,
      "赤": 1751,
      "走": 1752,
      "赴": 1753,
      "起": 1754,
      "超": 1755,
      "越": 1756,
      "趣": 1757,
      "足": 1758,
      "距": 1759,
      "跡": 1760,
      "路": 1761,
      "跳": 1762,
      "践": 1763,
      "踏": 1764,
      "躇": 1765,
      "躊": 1766,
      "躍": 1767,
      "身": 1768,
      "車": 1769,
      "軍": 1770,
      "軒": 1771,
      "軟": 1772,
      "転": 1773,
      "軸": 1774,
      "軽": 1775,
      "較": 1776,
      "載": 1777,
      "輩": 1778,
      "輪": 1779,
      "輸": 1780,
      "轄": 1781,
      "辛": 1782,
      "辞": 1783,
      "辣": 1784,
      "農": 1785,
      "辺": 1786,
      "込": 1787,
      "辿": 1788,
      "迄": 1789,
      "迅": 1790,
      "迎": 1791,
      "近": 1792,
      "返": 1793,
      "迫": 1794,
      "迷": 1795,
      "追": 1796,
      "退": 1797,
      "送": 1798,
      "逃": 1799,
      "逆": 1800,
      "透": 1801,
      "途": 1802,
      "通": 1803,
      "速": 1804,
      "造": 1805,
      "連": 1806,
      "週": 1807,
      "進": 1808,
      "遂": 1809,
      "遅": 1810,
      "遇": 1811,
      "遊": 1812,
      "運": 1813,
      "過": 1814,
      "道": 1815,
      "達": 1816,
      "違": 1817,
      "遠": 1818,
      "遡": 1819,
      "遣": 1820,
      "適": 1821,
      "遭": 1822,
      "遮": 1823,
      "遵": 1824,
      "選": 1825,
      "遺": 1826,
      "遽": 1827,
      "避": 1828,
      "邁": 1829,
      "還": 1830,
      "那": 1831,
      "邦": 1832,
      "邪": 1833,
      "郊": 1834,
      "郎": 1835,
      "部": 1836,
      "郭": 1837,
      "郵": 1838,
      "郷": 1839,
      "都": 1840,
      "配": 1841,
      "酒": 1842,
      "酔": 1843,
      "酬": 1844,
      "酷": 1845,
      "酸": 1846,
      "醤": 1847,
      "醸": 1848,
      "釈": 1849,
      "里": 1850,
      "重": 1851,
      "野": 1852,
      "量": 1853,
      "金": 1854,
      "針": 1855,
      "釣": 1856,
      "鈴": 1857,
      "鉄": 1858,
      "鉢": 1859,
      "鉱": 1860,
      "銀": 1861,
      "銅": 1862,
      "銘": 1863,
      "銭": 1864,
      "錠": 1865,
      "錯": 1866,
      "録": 1867,
      "鍋": 1868,
      "鍛": 1869,
      "鍵": 1870,
      "鎖": 1871,
      "鏡": 1872,
      "鐘": 1873,
      "鑑": 1874,
      "長": 1875,
      "門": 1876,
      "閉": 1877,
      "開": 1878,
      "間": 1879,
      "関": 1880,
      "閲": 1881,
      "闘": 1882,
      "阪": 1883,
      "防": 1884,
      "阻": 1885,
      "阿": 1886,
      "降": 1887,
      "限": 1888,
      "院": 1889,
      "陣": 1890,
      "除": 1891,
      "陥": 1892,
      "陰": 1893,
      "陶": 1894,
      "陸": 1895,
      "険": 1896,
      "陽": 1897,
      "隅": 1898,
      "隊": 1899,
      "階": 1900,
      "随": 1901,
      "隔": 1902,
      "隙": 1903,
      "際": 1904,
      "障": 1905,
      "隠": 1906,
      "隣": 1907,
      "隻": 1908,
      "雄": 1909,
      "雅": 1910,
      "集": 1911,
      "雇": 1912,
      "雑": 1913,
      "雛": 1914,
      "離": 1915,
      "難": 1916,
      "雨": 1917,
      "雪": 1918,
      "雰": 1919,
      "雲": 1920,
      "電": 1921,
      "需": 1922,
      "震": 1923,
      "露": 1924,
      "青": 1925,
      "静": 1926,
      "非": 1927,
      "面": 1928,
      "革": 1929,
      "靴": 1930,
      "鞄": 1931,
      "韓": 1932,
      "音": 1933,
      "響": 1934,
      "頂": 1935,
      "頃": 1936,
      "項": 1937,
      "順": 1938,
      "須": 1939,
      "預": 1940,
      "頑": 1941,
      "頓": 1942,
      "領": 1943,
      "頭": 1944,
      "頻": 1945,
      "頼": 1946,
      "題": 1947,
      "額": 1948,
      "顔": 1949,
      "願": 1950,
      "類": 1951,
      "顧": 1952,
      "風": 1953,
      "飛": 1954,
      "食": 1955,
      "飯": 1956,
      "飲": 1957,
      "飽": 1958,
      "飾": 1959,
      "餃": 1960,
      "養": 1961,
      "餌": 1962,
      "館": 1963,
      "饅": 1964,
      "首": 1965,
      "香": 1966,
      "馬": 1967,
      "馳": 1968,
      "馴": 1969,
      "駄": 1970,
      "駅": 1971,
      "駆": 1972,
      "駐": 1973,
      "騒": 1974,
      "験": 1975,
      "騙": 1976,
      "騰": 1977,
      "驚": 1978,
      "骨": 1979,
      "高": 1980,
      "髪": 1981,
      "鬱": 1982,
      "鬼": 1983,
      "魅": 1984,
      "魔": 1985,
      "魚": 1986,
      "鮮": 1987,
      "鯛": 1988,
      "鳥": 1989,
      "鳩": 1990,
      "鳴": 1991,
      "鶏": 1992,
      "鹸": 1993,
      "鹿": 1994,
      "麗": 1995,
      "麦": 1996,
      "麺": 1997,
      "黄": 1998,
      "黒": 1999,
      "黙": 2000,
      "鼻": 2001,
      "齢": 2002,
      "﻿": 2003,
      "！": 2004,
      "％": 2005,
      "＆": 2006,
      "（": 2007,
      "）": 2008,
      "，": 2009,
      "．": 2010,
      "０": 2011,
      "１": 2012,
      "２": 2013,
      "３": 2014,
      "４": 2015,
      "５": 2016,
      "６": 2017,
      "７": 2018,
      "８": 2019,
      "９": 2020,
      "？": 2021,
      "Ａ": 2022,
      "Ｂ": 2023,
      "Ｃ": 2024,
      "Ｄ": 2025,
      "Ｅ": 2026,
      "Ｋ": 2027,
      "Ｌ": 2028,
      "Ｍ": 2029,
      "Ｎ": 2030,
      "Ｏ": 2031,
      "Ｓ": 2032,
      "～": 2033,
      "th": 2034,
      "in": 2035,
      "ou": 2036,
      "an": 2037,
      "re": 2038,
      "the": 2039,
      "at": 2040,
      "on": 2041,
      "to": 2042,
      "er": 2043,
      "ll": 2044,
      "ing": 2045,
      "you": 2046,
      "or": 2047,
      "en": 2048,
      "です": 2049,
      "is": 2050,
      "it": 2051,
      "ます": 2052,
      "es": 2053,
      "as": 2054,
      "ar": 2055,
      "om": 2056,
      "ed": 2057,
      "le": 2058,
      "ve": 2059,
      "be": 2060,
      "って": 2061,
      "st": 2062,
      "wi": 2063,
      "he": 2064,
      "ow": 2065,
      "of": 2066,
      "ay": 2067,
      "and": 2068,
      "me": 2069,
      "we": 2070,
      "して": 2071,
      "for": 2072,
      "した": 2073,
      "al": 2074,
      "se": 2075,
      "ha": 2076,
      "that": 2077,
      "ent": 2078,
      "ic": 2079,
      "ない": 2080,
      "ion": 2081,
      "et": 2082,
      "all": 2083,
      "ld": 2084,
      "ch": 2085,
      "gh": 2086,
      "から": 2087,
      "ct": 2088,
      "ke": 2089,
      "ot": 2090,
      "so": 2091,
      "any": 2092,
      "have": 2093,
      "will": 2094,
      "った": 2095,
      "います": 2096,
      "Th": 2097,
      "ro": 2098,
      "ab": 2099,
      "ut": 2100,
      "そう": 2101,
      "are": 2102,
      "do": 2103,
      "ver": 2104,
      "ne": 2105,
      "de": 2106,
      "oo": 2107,
      "ould": 2108,
      "li": 2109,
      "wh": 2110,
      "out": 2111,
      "can": 2112,
      "ました": 2113,
      "us": 2114,
      "com": 2115,
      "ly": 2116,
      "ght": 2117,
      "ri": 2118,
      "さん": 2119,
      "this": 2120,
      "あり": 2121,
      "ce": 2122,
      "our": 2123,
      "こと": 2124,
      "with": 2125,
      "am": 2126,
      "それ": 2127,
      "now": 2128,
      "んです": 2129,
      "if": 2130,
      "pro": 2131,
      "su": 2132,
      "ad": 2133,
      "いた": 2134,
      "one": 2135,
      "いて": 2136,
      "する": 2137,
      "your": 2138,
      "はい": 2139,
      "We": 2140,
      "id": 2141,
      "sh": 2142,
      "nd": 2143,
      "pany": 2144,
      "します": 2145,
      "ma": 2146,
      "ation": 2147,
      "ti": 2148,
      "go": 2149,
      "day": 2150,
      "いい": 2151,
      "ck": 2152,
      "fr": 2153,
      "いる": 2154,
      "ir": 2155,
      "wor": 2156,
      "しょ": 2157,
      "about": 2158,
      "ment": 2159,
      "ter": 2160,
      "op": 2161,
      "tr": 2162,
      "と思": 2163,
      "よう": 2164,
      "ally": 2165,
      "ink": 2166,
      "ank": 2167,
      "しょう": 2168,
      "では": 2169,
      "んだ": 2170,
      "ome": 2171,
      "from": 2172,
      "con": 2173,
      "ですか": 2174,
      "ood": 2175,
      "ur": 2176,
      "was": 2177,
      "art": 2178,
      "ust": 2179,
      "It": 2180,
      "pl": 2181,
      "ので": 2182,
      "not": 2183,
      "thing": 2184,
      "ta": 2185,
      "think": 2186,
      "like": 2187,
      "get": 2188,
      "どう": 2189,
      "ant": 2190,
      "ですね": 2191,
      "The": 2192,
      "ap": 2193,
      "Yes": 2194,
      "end": 2195,
      "ag": 2196,
      "pe": 2197,
      "ye": 2198,
      "fe": 2199,
      "ex": 2200,
      "very": 2201,
      "right": 2202,
      "ある": 2203,
      "work": 2204,
      "でき": 2205,
      "but": 2206,
      "ice": 2207,
      "しい": 2208,
      "know": 2209,
      "some": 2210,
      "ate": 2211,
      "ers": 2212,
      "にな": 2213,
      "would": 2214,
      "qu": 2215,
      "te": 2216,
      "there": 2217,
      "ります": 2218,
      "mo": 2219,
      "time": 2220,
      "my": 2221,
      "up": 2222,
      "Wh": 2223,
      "ase": 2224,
      "ござ": 2225,
      "they": 2226,
      "see": 2227,
      "il": 2228,
      "ませ": 2229,
      "un": 2230,
      "ess": 2231,
      "pre": 2232,
      "Thank": 2233,
      "im": 2234,
      "でも": 2235,
      "この": 2236,
      "du": 2237,
      "ません": 2238,
      "lo": 2239,
      "とう": 2240,
      "ard": 2241,
      "じゃ": 2242,
      "ther": 2243,
      "よね": 2244,
      "est": 2245,
      "ありが": 2246,
      "さい": 2247,
      "でしょう": 2248,
      "かった": 2249,
      "Oh": 2250,
      "だけ": 2251,
      "ありがとう": 2252,
      "just": 2253,
      "その": 2254,
      "here": 2255,
      "good": 2256,
      "what": 2257,
      "kay": 2258,
      "That": 2259,
      "need": 2260,
      "company": 2261,
      "くだ": 2262,
      "いう": 2263,
      "っと": 2264,
      "So": 2265,
      "ook": 2266,
      "po": 2267,
      "duct": 2268,
      "もし": 2269,
      "ください": 2270,
      "かり": 2271,
      "れて": 2272,
      "want": 2273,
      "には": 2274,
      "ple": 2275,
      "should": 2276,
      "かな": 2277,
      "けど": 2278,
      "off": 2279,
      "them": 2280,
      "too": 2281,
      "れる": 2282,
      "si": 2283,
      "ございます": 2284,
      "ea": 2285,
      "社の": 2286,
      "ound": 2287,
      "ですが": 2288,
      "ain": 2289,
      "につ": 2290,
      "act": 2291,
      "ind": 2292,
      "don": 2293,
      "year": 2294,
      "Com": 2295,
      "part": 2296,
      "You": 2297,
      "ack": 2298,
      "uch": 2299,
      "Company": 2300,
      "ge": 2301,
      "ac": 2302,
      "ure": 2303,
      "meet": 2304,
      "way": 2305,
      "でしょうか": 2306,
      "について": 2307,
      "あります": 2308,
      "ul": 2309,
      "af": 2310,
      "れば": 2311,
      "ort": 2312,
      "ast": 2313,
      "nt": 2314,
      "per": 2315,
      "願い": 2316,
      "by": 2317,
      "お願い": 2318,
      "How": 2319,
      "ak": 2320,
      "と思います": 2321,
      "ive": 2322,
      "He": 2323,
      "look": 2324,
      "much": 2325,
      "ask": 2326,
      "em": 2327,
      "Okay": 2328,
      "ight": 2329,
      "able": 2330,
      "ry": 2331,
      "co": 2332,
      "What": 2333,
      "たい": 2334,
      "ine": 2335,
      "..": 2336,
      "use": 2337,
      "product": 2338,
      "ール": 2339,
      "ill": 2340,
      "pr": 2341,
      "new": 2342,
      "other": 2343,
      "tom": 2344,
      "まで": 2345,
      "let": 2346,
      "fo": 2347,
      "えて": 2348,
      "been": 2349,
      "ven": 2350,
      "んな": 2351,
      "Well": 2352,
      "時間": 2353,
      "ough": 2354,
      "then": 2355,
      "meeting": 2356,
      "alk": 2357,
      "el": 2358,
      "もら": 2359,
      "how": 2360,
      "cus": 2361,
      "take": 2362,
      "no": 2363,
      "Yea": 2364,
      "nex": 2365,
      "more": 2366,
      "port": 2367,
      "Yeah": 2368,
      "ek": 2369,
      "それは": 2370,
      "がある": 2371,
      "next": 2372,
      "But": 2373,
      "かりました": 2374,
      "ちら": 2375,
      "ありがとうございます": 2376,
      "ning": 2377,
      "いただ": 2378,
      "week": 2379,
      "ble": 2380,
      "という": 2381,
      "man": 2382,
      "ame": 2383,
      "call": 2384,
      "when": 2385,
      "これ": 2386,
      "reat": 2387,
      "make": 2388,
      "has": 2389,
      "every": 2390,
      "going": 2391,
      "bus": 2392,
      "did": 2393,
      "gu": 2394,
      "会社": 2395,
      "のは": 2396,
      "really": 2397,
      "today": 2398,
      "talk": 2399,
      "ity": 2400,
      "back": 2401,
      "und": 2402,
      "hel": 2403,
      "なく": 2404,
      "pp": 2405,
      "over": 2406,
      "mon": 2407,
      "イン": 2408,
      "電話": 2409,
      "ちょ": 2410,
      "well": 2411,
      "ople": 2412,
      "ig": 2413,
      "start": 2414,
      "ong": 2415,
      "せて": 2416,
      "今日": 2417,
      "っている": 2418,
      "ite": 2419,
      "ですよ": 2420,
      "sure": 2421,
      "ty": 2422,
      "ually": 2423,
      "ング": 2424,
      "できる": 2425,
      "必要": 2426,
      "help": 2427,
      "なんです": 2428,
      "fir": 2429,
      "spe": 2430,
      "しく": 2431,
      "ティ": 2432,
      "people": 2433,
      "なら": 2434,
      "ions": 2435,
      "please": 2436,
      "らい": 2437,
      "Mr": 2438,
      "their": 2439,
      "che": 2440,
      "でした": 2441,
      "int": 2442,
      "Do": 2443,
      "red": 2444,
      "いました": 2445,
      "うち": 2446,
      "pos": 2447,
      "00": 2448,
      "send": 2449,
      "ist": 2450,
      "hi": 2451,
      "仕事": 2452,
      "しま": 2453,
      "ック": 2454,
      "ように": 2455,
      "If": 2456,
      "ide": 2457,
      "mb": 2458,
      "who": 2459,
      "とこ": 2460,
      "しました": 2461,
      "office": 2462,
      "お願いします": 2463,
      "ちょっと": 2464,
      "ies": 2465,
      "ますか": 2466,
      "もう": 2467,
      "san": 2468,
      "res": 2469,
      "ないと": 2470,
      "last": 2471,
      "month": 2472,
      "gr": 2473,
      "form": 2474,
      "ave": 2475,
      "のですが": 2476,
      "している": 2477,
      "quest": 2478,
      "だった": 2479,
      "bu": 2480,
      "der": 2481,
      "良い": 2482,
      "ick": 2483,
      "after": 2484,
      "ous": 2485,
      "age": 2486,
      "ie": 2487,
      "No": 2488,
      "something": 2489,
      "pres": 2490,
      "Can": 2491,
      "could": 2492,
      "よろ": 2493,
      "iness": 2494,
      "ans": 2495,
      "ント": 2496,
      "fore": 2497,
      "ット": 2498,
      "mail": 2499,
      "ところ": 2500,
      "商品": 2501,
      "連絡": 2502,
      "れた": 2503,
      "何か": 2504,
      "きます": 2505,
      "どの": 2506,
      "丈夫": 2507,
      "come": 2508,
      "jo": 2509,
      "大丈夫": 2510,
      "partment": 2511,
      "had": 2512,
      "business": 2513,
      "そうですね": 2514,
      "bo": 2515,
      "んで": 2516,
      "確認": 2517,
      "also": 2518,
      "じゃない": 2519,
      "ish": 2520,
      "スト": 2521,
      "してお": 2522,
      "got": 2523,
      "もの": 2524,
      "ater": 2525,
      "tw": 2526,
      "また": 2527,
      "ark": 2528,
      "いつ": 2529,
      "cou": 2530,
      "own": 2531,
      "ことが": 2532,
      "Is": 2533,
      "たち": 2534,
      "なる": 2535,
      "ター": 2536,
      "rest": 2537,
      "ial": 2538,
      "ってる": 2539,
      "might": 2540,
      "great": 2541,
      "にも": 2542,
      "ales": 2543,
      "える": 2544,
      "bit": 2545,
      "lot": 2546,
      "とか": 2547,
      "department": 2548,
      "と思う": 2549,
      "custom": 2550,
      "check": 2551,
      "Al": 2552,
      "av": 2553,
      "なた": 2554,
      "予定": 2555,
      "clo": 2556,
      "him": 2557,
      "read": 2558,
      "製品": 2559,
      "comp": 2560,
      "iv": 2561,
      "メール": 2562,
      "thank": 2563,
      "chan": 2564,
      "say": 2565,
      "めて": 2566,
      "first": 2567,
      "Jap": 2568,
      "だから": 2569,
      "したい": 2570,
      "Japan": 2571,
      "pers": 2572,
      "くらい": 2573,
      "しています": 2574,
      "And": 2575,
      "min": 2576,
      "あなた": 2577,
      "mber": 2578,
      "lu": 2579,
      "がいい": 2580,
      "こちら": 2581,
      "ree": 2582,
      "aw": 2583,
      "rent": 2584,
      "may": 2585,
      "になる": 2586,
      "dis": 2587,
      "わかりました": 2588,
      "ージ": 2589,
      "around": 2590,
      "日本": 2591,
      "ちゃ": 2592,
      "れない": 2593,
      "try": 2594,
      "っています": 2595,
      "does": 2596,
      "under": 2597,
      "This": 2598,
      "ほど": 2599,
      "リー": 2600,
      "person": 2601,
      "email": 2602,
      "were": 2603,
      "sch": 2604,
      "ええ": 2605,
      "stand": 2606,
      "まり": 2607,
      "Let": 2608,
      "sales": 2609,
      "ting": 2610,
      "Hi": 2611,
      "だよ": 2612,
      "ーム": 2613,
      "があ": 2614,
      "ことは": 2615,
      "ip": 2616,
      "ですよね": 2617,
      "There": 2618,
      "fin": 2619,
      "いただけ": 2620,
      "ail": 2621,
      "ca": 2622,
      "ince": 2623,
      "ho": 2624,
      "row": 2625,
      "なんだ": 2626,
      "なかった": 2627,
      "みたい": 2628,
      "lease": 2629,
      "Then": 2630,
      "ep": 2631,
      "xx": 2632,
      "いけ": 2633,
      "They": 2634,
      "plo": 2635,
      "cour": 2636,
      "ire": 2637,
      "だね": 2638,
      "フィ": 2639,
      "before": 2640,
      "ート": 2641,
      "train": 2642,
      "give": 2643,
      "won": 2644,
      "iz": 2645,
      "inform": 2646,
      "mor": 2647,
      "ここ": 2648,
      "本当": 2649,
      "reg": 2650,
      "tell": 2651,
      "ても": 2652,
      "ace": 2653,
      "10": 2654,
      "bet": 2655,
      "working": 2656,
      "ティング": 2657,
      "br": 2658,
      "long": 2659,
      "じゃあ": 2660,
      "まだ": 2661,
      "two": 2662,
      "cor": 2663,
      "させて": 2664,
      "ような": 2665,
      "plan": 2666,
      "sto": 2667,
      "私は": 2668,
      "dif": 2669,
      "ect": 2670,
      "ounds": 2671,
      "うちの": 2672,
      "ョン": 2673,
      "only": 2674,
      "なん": 2675,
      "に行": 2676,
      "mark": 2677,
      "されて": 2678,
      "ため": 2679,
      "emplo": 2680,
      "ース": 2681,
      "inv": 2682,
      "inter": 2683,
      "set": 2684,
      "where": 2685,
      "ms": 2686,
      "ああ": 2687,
      "前に": 2688,
      "もち": 2689,
      "を見": 2690,
      "ラン": 2691,
      "ations": 2692,
      "なので": 2693,
      "んですか": 2694,
      "もちろ": 2695,
      "ear": 2696,
      "information": 2697,
      "Please": 2698,
      "anything": 2699,
      "morning": 2700,
      "employe": 2701,
      "より": 2702,
      "会議": 2703,
      "にお": 2704,
      "ましょう": 2705,
      "質問": 2706,
      "everyone": 2707,
      "happ": 2708,
      "things": 2709,
      "ile": 2710,
      "she": 2711,
      "けて": 2712,
      "をお": 2713,
      "出来": 2714,
      "her": 2715,
      "ought": 2716,
      "tor": 2717,
      "cent": 2718,
      "name": 2719,
      "あと": 2720,
      "プロ": 2721,
      "聞いて": 2722,
      "ser": 2723,
      "そこ": 2724,
      "ほう": 2725,
      "ード": 2726,
      "ese": 2727,
      "add": 2728,
      "社員": 2729,
      "though": 2730,
      "orry": 2731,
      "ways": 2732,
      "market": 2733,
      "hand": 2734,
      "ance": 2735,
      "ich": 2736,
      "Sure": 2737,
      "aid": 2738,
      "cur": 2739,
      "になります": 2740,
      "course": 2741,
      "ose": 2742,
      "put": 2743,
      "ける": 2744,
      "私の": 2745,
      "ass": 2746,
      "okay": 2747,
      "として": 2748,
      "than": 2749,
      "understand": 2750,
      "even": 2751,
      "llo": 2752,
      "オフィ": 2753,
      "情報": 2754,
      "order": 2755,
      "んだけど": 2756,
      "くれる": 2757,
      "すぐ": 2758,
      "ents": 2759,
      "そうです": 2760,
      "price": 2761,
      "オフィス": 2762,
      "んですが": 2763,
      "days": 2764,
      "feel": 2765,
      "cause": 2766,
      "ready": 2767,
      "nu": 2768,
      "since": 2769,
      "vie": 2770,
      "かります": 2771,
      "来週": 2772,
      "vis": 2773,
      "orrow": 2774,
      "今日は": 2775,
      "des": 2776,
      "sp": 2777,
      "ue": 2778,
      "新しい": 2779,
      "view": 2780,
      "dec": 2781,
      "よろしく": 2782,
      "many": 2783,
      "ライ": 2784,
      "proble": 2785,
      "wanted": 2786,
      "dat": 2787,
      "上げ": 2788,
      "問題": 2789,
      "actually": 2790,
      "cess": 2791,
      "his": 2792,
      "きました": 2793,
      "しゃ": 2794,
      "ップ": 2795,
      "お客": 2796,
      "inc": 2797,
      "ence": 2798,
      "ありますか": 2799,
      "job": 2800,
      "dr": 2801,
      "ys": 2802,
      "やって": 2803,
      "hear": 2804,
      "さんの": 2805,
      "looking": 2806,
      "find": 2807,
      "うん": 2808,
      "分かりました": 2809,
      "str": 2810,
      "still": 2811,
      "かもし": 2812,
      "実は": 2813,
      "ition": 2814,
      "unch": 2815,
      "tomorrow": 2816,
      "cu": 2817,
      "はどう": 2818,
      "少し": 2819,
      "ございました": 2820,
      "point": 2821,
      "ious": 2822,
      "Hello": 2823,
      "In": 2824,
      "まず": 2825,
      "sel": 2826,
      "show": 2827,
      "count": 2828,
      "king": 2829,
      "mm": 2830,
      "ジェ": 2831,
      "明日": 2832,
      "years": 2833,
      "教えて": 2834,
      "してもら": 2835,
      "...": 2836,
      "ject": 2837,
      "ward": 2838,
      "そんな": 2839,
      "曜日": 2840,
      "してみ": 2841,
      "ことを": 2842,
      "ments": 2843,
      "Good": 2844,
      "ud": 2845,
      "に入": 2846,
      "彼ら": 2847,
      "comm": 2848,
      "manag": 2849,
      "ful": 2850,
      "なの": 2851,
      "るの": 2852,
      "those": 2853,
      "できます": 2854,
      "products": 2855,
      "かも": 2856,
      "とても": 2857,
      "コン": 2858,
      "合わ": 2859,
      "because": 2860,
      "ってお": 2861,
      "team": 2862,
      "possi": 2863,
      "better": 2864,
      "problem": 2865,
      "room": 2866,
      "gen": 2867,
      "ten": 2868,
      "ving": 2869,
      "っしゃ": 2870,
      "tain": 2871,
      "didn": 2872,
      "fine": 2873,
      "ph": 2874,
      "まして": 2875,
      "からね": 2876,
      "んだよ": 2877,
      "When": 2878,
      "本当に": 2879,
      "diffe": 2880,
      "line": 2881,
      "tty": 2882,
      "かる": 2883,
      "があります": 2884,
      "それで": 2885,
      "んですよ": 2886,
      "ないといけ": 2887,
      "questions": 2888,
      "ident": 2889,
      "To": 2890,
      "down": 2891,
      "tri": 2892,
      "いません": 2893,
      "たら": 2894,
      "ミー": 2895,
      "inte": 2896,
      "employees": 2897,
      "の方": 2898,
      "さんが": 2899,
      "again": 2900,
      "通り": 2901,
      "ope": 2902,
      "seems": 2903,
      "May": 2904,
      "ever": 2905,
      "に関": 2906,
      "ータ": 2907,
      "可能": 2908,
      "私も": 2909,
      "keep": 2910,
      "log": 2911,
      "gl": 2912,
      "lunch": 2913,
      "自分": 2914,
      "ren": 2915,
      "arge": 2916,
      "ったら": 2917,
      "pretty": 2918,
      "My": 2919,
      "always": 2920,
      "vers": 2921,
      "which": 2922,
      "project": 2923,
      "ただ": 2924,
      "ション": 2925,
      "doing": 2926,
      "used": 2927,
      "ありがとうございました": 2928,
      "sched": 2929,
      "interest": 2930,
      "hard": 2931,
      "りました": 2932,
      "ろう": 2933,
      "私が": 2934,
      "私たち": 2935,
      "thought": 2936,
      "uring": 2937,
      "training": 2938,
      "An": 2939,
      "As": 2940,
      "later": 2941,
      "ちは": 2942,
      "のお": 2943,
      "営業": 2944,
      "stem": 2945,
      "head": 2946,
      "why": 2947,
      "soon": 2948,
      "most": 2949,
      "ci": 2950,
      "sy": 2951,
      "issu": 2952,
      "そうなんです": 2953,
      "each": 2954,
      "いく": 2955,
      "サー": 2956,
      "パー": 2957,
      "確か": 2958,
      "docu": 2959,
      "made": 2960,
      "なくて": 2961,
      "speak": 2962,
      "rough": 2963,
      "かし": 2964,
      "申し": 2965,
      "的に": 2966,
      "ミーティング": 2967,
      "20": 2968,
      "same": 2969,
      "wr": 2970,
      "いえ": 2971,
      "サム": 2972,
      "side": 2973,
      "peri": 2974,
      "A社": 2975,
      "sha": 2976,
      "どこ": 2977,
      "ステ": 2978,
      "他の": 2979,
      "場合": 2980,
      "lear": 2981,
      "guys": 2982,
      "Not": 2983,
      "Of": 2984,
      "fac": 2985,
      "だと": 2986,
      "place": 2987,
      "ule": 2988,
      "チーム": 2989,
      "ファ": 2990,
      "into": 2991,
      "possible": 2992,
      "プレ": 2993,
      "担当": 2994,
      "研修": 2995,
      "したら": 2996,
      "もしもし": 2997,
      "Japanese": 2998,
      "happen": 2999,
      "Sam": 3000,
      "cli": 3001,
      "今年": 3002,
      "ated": 3003,
      "ということ": 3004,
      "ait": 3005,
      "kind": 3006,
      "list": 3007,
      "こん": 3008,
      "tim": 3009,
      "minut": 3010,
      "system": 3011,
      "care": 3012,
      "ual": 3013,
      "データ": 3014,
      "15": 3015,
      "tur": 3016,
      "にちは": 3017,
      "らしい": 3018,
      "んと": 3019,
      "始め": 3020,
      "彼女": 3021,
      "資料": 3022,
      "someone": 3023,
      "idea": 3024,
      "change": 3025,
      "coming": 3026,
      "いいですか": 3027,
      "cost": 3028,
      "こんにちは": 3029,
      "pay": 3030,
      "よく": 3031,
      "考え": 3032,
      "言って": 3033,
      "説明": 3034,
      "rece": 3035,
      "いただき": 3036,
      "clock": 3037,
      "number": 3038,
      "med": 3039,
      "べて": 3040,
      "同じ": 3041,
      "already": 3042,
      "Alright": 3043,
      "Are": 3044,
      "お電話": 3045,
      "ければ": 3046,
      "マー": 3047,
      "時に": 3048,
      "ise": 3049,
      "ary": 3050,
      "food": 3051,
      "pt": 3052,
      "いない": 3053,
      "たく": 3054,
      "皆さん": 3055,
      "prov": 3056,
      "sur": 3057,
      "ards": 3058,
      "present": 3059,
      "customer": 3060,
      "big": 3061,
      "大変": 3062,
      "顧客": 3063,
      "ars": 3064,
      "ありません": 3065,
      "お客様": 3066,
      "date": 3067,
      "sorry": 3068,
      "こう": 3069,
      "感じ": 3070,
      "vel": 3071,
      "forward": 3072,
      "ship": 3073,
      "thinking": 3074,
      "かなり": 3075,
      "はず": 3076,
      "スタ": 3077,
      "知ら": 3078,
      "ction": 3079,
      "ild": 3080,
      "sounds": 3081,
      "wait": 3082,
      "らっしゃ": 3083,
      "ディ": 3084,
      "these": 3085,
      "plain": 3086,
      "exp": 3087,
      "しましょう": 3088,
      "Ex": 3089,
      "cal": 3090,
      "kes": 3091,
      "mis": 3092,
      "sit": 3093,
      "すみ": 3094,
      "良かった": 3095,
      "arch": 3096,
      "ress": 3097,
      "self": 3098,
      "manager": 3099,
      "cl": 3100,
      "case": 3101,
      "tle": 3102,
      "との": 3103,
      "を使": 3104,
      "を持": 3105,
      "会社の": 3106,
      "大き": 3107,
      "そうですか": 3108,
      "cont": 3109,
      "import": 3110,
      "customers": 3111,
      "hold": 3112,
      "すみません": 3113,
      "cer": 3114,
      "done": 3115,
      "sm": 3116,
      "ull": 3117,
      "取り": 3118,
      "社長": 3119,
      "してください": 3120,
      "ool": 3121,
      "さんは": 3122,
      "それでは": 3123,
      "phone": 3124,
      "best": 3125,
      "一緒": 3126,
      "今回": 3127,
      "heard": 3128,
      "いたします": 3129,
      "trans": 3130,
      "A社の": 3131,
      "bab": 3132,
      "ef": 3133,
      "eas": 3134,
      "お待": 3135,
      "ると": 3136,
      "れます": 3137,
      "れません": 3138,
      "楽し": 3139,
      "through": 3140,
      "いつも": 3141,
      "doesn": 3142,
      "あの": 3143,
      "とも": 3144,
      "終わ": 3145,
      "leave": 3146,
      "pic": 3147,
      "フォ": 3148,
      "人が": 3149,
      "価格": 3150,
      "部長": 3151,
      "indust": 3152,
      "spec": 3153,
      "bl": 3154,
      "ts": 3155,
      "される": 3156,
      "few": 3157,
      "だけど": 3158,
      "Also": 3159,
      "bring": 3160,
      "ないといけない": 3161,
      "schedule": 3162,
      "クト": 3163,
      "システ": 3164,
      "open": 3165,
      "よろしい": 3166,
      "different": 3167,
      "システム": 3168,
      "など": 3169,
      "企業": 3170,
      "while": 3171,
      "wonder": 3172,
      "current": 3173,
      "said": 3174,
      "かが": 3175,
      "と申": 3176,
      "バー": 3177,
      "中に": 3178,
      "見て": 3179,
      "hour": 3180,
      "とは": 3181,
      "みんな": 3182,
      "til": 3183,
      "else": 3184,
      "なるほど": 3185,
      "もちろん": 3186,
      "よろしくお願いします": 3187,
      "ach": 3188,
      "det": 3189,
      "hope": 3190,
      "いや": 3191,
      "をして": 3192,
      "ドル": 3193,
      "部署": 3194,
      "rel": 3195,
      "such": 3196,
      "ately": 3197,
      "cuss": 3198,
      "maybe": 3199,
      "invo": 3200,
      "gener": 3201,
      "eat": 3202,
      "gn": 3203,
      "mom": 3204,
      "vice": 3205,
      "yes": 3206,
      "テル": 3207,
      "受け": 3208,
      "考えて": 3209,
      "話し": 3210,
      "ason": 3211,
      "search": 3212,
      "fect": 3213,
      "までに": 3214,
      "これは": 3215,
      "high": 3216,
      "discuss": 3217,
      "プレゼ": 3218,
      "Our": 3219,
      "home": 3220,
      "anies": 3221,
      "icul": 3222,
      "companies": 3223,
      "と申します": 3224,
      "せる": 3225,
      "での": 3226,
      "サイ": 3227,
      "対応": 3228,
      "来て": 3229,
      "once": 3230,
      "being": 3231,
      "aka": 3232,
      "bas": 3233,
      "mean": 3234,
      "ami": 3235,
      "プロジェ": 3236,
      "Great": 3237,
      "ran": 3238,
      "つか": 3239,
      "ナー": 3240,
      "ホテル": 3241,
      "経験": 3242,
      "そうだね": 3243,
      "experi": 3244,
      "ility": 3245,
      "turn": 3246,
      "away": 3247,
      "週間": 3248,
      "another": 3249,
      "otel": 3250,
      "lier": 3251,
      "calling": 3252,
      "プロジェクト": 3253,
      "Have": 3254,
      "ev": 3255,
      "lit": 3256,
      "られる": 3257,
      "興味": 3258,
      "開発": 3259,
      "そういう": 3260,
      "ize": 3261,
      "data": 3262,
      "moment": 3263,
      "もっと": 3264,
      "を送": 3265,
      "変更": 3266,
      "書類": 3267,
      "tact": 3268,
      "すぐに": 3269,
      "しよう": 3270,
      "のが": 3271,
      "了解": 3272,
      "出張": 3273,
      "さんに": 3274,
      "と思って": 3275,
      "until": 3276,
      "合わせ": 3277,
      "detail": 3278,
      "Ch": 3279,
      "Ok": 3280,
      "air": 3281,
      "契約": 3282,
      "部の": 3283,
      "three": 3284,
      "sup": 3285,
      "ada": 3286,
      "contr": 3287,
      "contact": 3288,
      "bably": 3289,
      "をする": 3290,
      "社は": 3291,
      "ってき": 3292,
      "Hey": 3293,
      "ために": 3294,
      "30": 3295,
      "Did": 3296,
      "went": 3297,
      "すれば": 3298,
      "そして": 3299,
      "そちら": 3300,
      "める": 3301,
      "んじゃない": 3302,
      "参加": 3303,
      "probably": 3304,
      "aper": 3305,
      "trip": 3306,
      "Maybe": 3307,
      "Any": 3308,
      "important": 3309,
      "Will": 3310,
      "すご": 3311,
      "全て": 3312,
      "助かります": 3313,
      "方が": 3314,
      "最近": 3315,
      "管理": 3316,
      "結構": 3317,
      "review": 3318,
      "roduct": 3319,
      "never": 3320,
      "ではない": 3321,
      "どうか": 3322,
      "rence": 3323,
      "velop": 3324,
      "お待ち": 3325,
      "fer": 3326,
      "full": 3327,
      "nice": 3328,
      "pare": 3329,
      "tend": 3330,
      "が必要": 3331,
      "ご連絡": 3332,
      "どれ": 3333,
      "持ち": 3334,
      "ですから": 3335,
      "しても": 3336,
      "いますか": 3337,
      "guess": 3338,
      "ign": 3339,
      "かもしれない": 3340,
      "確かに": 3341,
      "little": 3342,
      "uf": 3343,
      "された": 3344,
      "のか": 3345,
      "ンス": 3346,
      "事業": 3347,
      "isn": 3348,
      "ision": 3349,
      "stud": 3350,
      "ication": 3351,
      "chang": 3352,
      "car": 3353,
      "えー": 3354,
      "にか": 3355,
      "によ": 3356,
      "ダー": 3357,
      "早く": 3358,
      "quite": 3359,
      "quick": 3360,
      "actly": 3361,
      "manage": 3362,
      "everything": 3363,
      "school": 3364,
      "Ah": 3365,
      "cy": 3366,
      "low": 3367,
      "less": 3368,
      "mater": 3369,
      "どんな": 3370,
      "チェ": 3371,
      "そうだ": 3372,
      "いたい": 3373,
      "pect": 3374,
      "explain": 3375,
      "por": 3376,
      "pick": 3377,
      "um": 3378,
      "べき": 3379,
      "を作": 3380,
      "一番": 3381,
      "予約": 3382,
      "日は": 3383,
      "000": 3384,
      "ai": 3385,
      "ner": 3386,
      "sc": 3387,
      "site": 3388,
      "コー": 3389,
      "レー": 3390,
      "多い": 3391,
      "特に": 3392,
      "item": 3393,
      "deal": 3394,
      "Why": 3395,
      "talking": 3396,
      "プレゼン": 3397,
      "Wow": 3398,
      "au": 3399,
      "mind": 3400,
      "ved": 3401,
      "えば": 3402,
      "のに": 3403,
      "準備": 3404,
      "stay": 3405,
      "ices": 3406,
      "using": 3407,
      "どうも": 3408,
      "noon": 3409,
      "いただけますか": 3410,
      "させていただ": 3411,
      "minutes": 3412,
      "ago": 3413,
      "free": 3414,
      "gin": 3415,
      "とん": 3416,
      "まあ": 3417,
      "よかった": 3418,
      "グラ": 3419,
      "休み": 3420,
      "食べ": 3421,
      "っても": 3422,
      "web": 3423,
      "してる": 3424,
      "すること": 3425,
      "planning": 3426,
      "En": 3427,
      "dire": 3428,
      "far": 3429,
      "ves": 3430,
      "だろう": 3431,
      "ビジ": 3432,
      "ーん": 3433,
      "人事": 3434,
      "他に": 3435,
      "失礼": 3436,
      "好き": 3437,
      "引き": 3438,
      "心配": 3439,
      "ically": 3440,
      "develop": 3441,
      "fee": 3442,
      "avail": 3443,
      "ほうがいい": 3444,
      "Ms": 3445,
      "Sounds": 3446,
      "book": 3447,
      "hotel": 3448,
      "ike": 3449,
      "yet": 3450,
      "は何": 3451,
      "はありますか": 3452,
      "メリ": 3453,
      "ャー": 3454,
      "欲しい": 3455,
      "注文": 3456,
      "的な": 3457,
      "request": 3458,
      "light": 3459,
      "ありました": 3460,
      "それから": 3461,
      "taking": 3462,
      "getting": 3463,
      "sign": 3464,
      "asked": 3465,
      "Right": 3466,
      "ather": 3467,
      "during": 3468,
      "sent": 3469,
      "いらっしゃ": 3470,
      "アン": 3471,
      "相談": 3472,
      "言う": 3473,
      "report": 3474,
      "research": 3475,
      "atch": 3476,
      "enough": 3477,
      "fort": 3478,
      "haven": 3479,
      "preci": 3480,
      "coll": 3481,
      "busy": 3482,
      "months": 3483,
      "share": 3484,
      "一緒に": 3485,
      "Act": 3486,
      "bad": 3487,
      "ces": 3488,
      "ctor": 3489,
      "sen": 3490,
      "sid": 3491,
      "あった": 3492,
      "くな": 3493,
      "くれ": 3494,
      "はない": 3495,
      "全部": 3496,
      "内容": 3497,
      "市場": 3498,
      "inst": 3499,
      "oup": 3500,
      "rect": 3501,
      "doll": 3502,
      "ries": 3503,
      "contract": 3504,
      "Hmm": 3505,
      "fami": 3506,
      "pri": 3507,
      "pur": 3508,
      "sim": 3509,
      "かどうか": 3510,
      "っけ": 3511,
      "とな": 3512,
      "みます": 3513,
      "らない": 3514,
      "タイ": 3515,
      "ベン": 3516,
      "現在": 3517,
      "社に": 3518,
      "ities": 3519,
      "charge": 3520,
      "それに": 3521,
      "confir": 3522,
      "ures": 3523,
      "aff": 3524,
      "percent": 3525,
      "started": 3526,
      "buy": 3527,
      "correct": 3528,
      "industry": 3529,
      "general": 3530,
      "bre": 3531,
      "キャ": 3532,
      "スク": 3533,
      "ュー": 3534,
      "事を": 3535,
      "以上": 3536,
      "業員": 3537,
      "関係": 3538,
      "Thanks": 3539,
      "party": 3540,
      "もちろんです": 3541,
      "っております": 3542,
      "申し訳": 3543,
      "Engl": 3544,
      "fri": 3545,
      "うーん": 3546,
      "世話": 3547,
      "今週": 3548,
      "去年": 3549,
      "社内": 3550,
      "sub": 3551,
      "sul": 3552,
      "はいつ": 3553,
      "いいですよ": 3554,
      "However": 3555,
      "interested": 3556,
      "マーケ": 3557,
      "presentation": 3558,
      "Actually": 3559,
      "Un": 3560,
      "ake": 3561,
      "ia": 3562,
      "あまり": 3563,
      "ビス": 3564,
      "ピー": 3565,
      "一度": 3566,
      "下さい": 3567,
      "従業員": 3568,
      "研究": 3569,
      "見積": 3570,
      "請求": 3571,
      "からの": 3572,
      "からない": 3573,
      "supp": 3574,
      "build": 3575,
      "issue": 3576,
      "experience": 3577,
      "az": 3578,
      "ger": 3579,
      "gine": 3580,
      "mit": 3581,
      "ply": 3582,
      "uation": 3583,
      "おは": 3584,
      "たり": 3585,
      "るよ": 3586,
      "出て": 3587,
      "told": 3588,
      "できない": 3589,
      "あなたの": 3590,
      "に関して": 3591,
      "サービス": 3592,
      "楽しみ": 3593,
      "For": 3594,
      "Product": 3595,
      "Would": 3596,
      "yo": 3597,
      "きたい": 3598,
      "なければ": 3599,
      "への": 3600,
      "セント": 3601,
      "後に": 3602,
      "業界": 3603,
      "arran": 3604,
      "having": 3605,
      "appreci": 3606,
      "になって": 3607,
      "時間が": 3608,
      "大丈夫です": 3609,
      "しております": 3610,
      "なんて": 3611,
      "チェック": 3612,
      "available": 3613,
      "dollars": 3614,
      "おはよう": 3615,
      "She": 3616,
      "dy": 3617,
      "late": 3618,
      "ob": 3619,
      "ss": 3620,
      "かい": 3621,
      "くて": 3622,
      "すぎ": 3623,
      "だと思います": 3624,
      "なあ": 3625,
      "ジュ": 3626,
      "ネス": 3627,
      "ンド": 3628,
      "変わ": 3629,
      "希望": 3630,
      "意見": 3631,
      "提案": 3632,
      "言わ": 3633,
      "販売": 3634,
      "送り": 3635,
      "reason": 3636,
      "sell": 3637,
      "move": 3638,
      "account": 3639,
      "itely": 3640,
      "question": 3641,
      "regards": 3642,
      "drink": 3643,
      "ビジネス": 3644,
      "break": 3645,
      "English": 3646,
      "Fir": 3647,
      "Tak": 3648,
      "XX": 3649,
      "run": 3650,
      "yen": 3651,
      "ウェ": 3652,
      "バイ": 3653,
      "一つ": 3654,
      "上が": 3655,
      "我が": 3656,
      "ering": 3657,
      "its": 3658,
      "lect": 3659,
      "del": 3660,
      "ided": 3661,
      "どうぞ": 3662,
      "finish": 3663,
      "intern": 3664,
      "inclu": 3665,
      "learn": 3666,
      "small": 3667,
      "material": 3668,
      "First": 3669,
      "cut": 3670,
      "ding": 3671,
      "ient": 3672,
      "ok": 3673,
      "いですね": 3674,
      "のこと": 3675,
      "名前": 3676,
      "聞いた": 3677,
      "購入": 3678,
      "deli": 3679,
      "process": 3680,
      "shi": 3681,
      "urant": 3682,
      "body": 3683,
      "Tan": 3684,
      "お世話": 3685,
      "くない": 3686,
      "わけ": 3687,
      "アップ": 3688,
      "アメリ": 3689,
      "事が": 3690,
      "報告": 3691,
      "田さん": 3692,
      "製造": 3693,
      "ating": 3694,
      "toge": 3695,
      "ってもら": 3696,
      "member": 3697,
      "sol": 3698,
      "ading": 3699,
      "oney": 3700,
      "すると": 3701,
      "ようです": 3702,
      "gram": 3703,
      "finitely": 3704,
      "early": 3705,
      "earlier": 3706,
      "clients": 3707,
      "expen": 3708,
      "アメリカ": 3709,
      "together": 3710,
      "12": 3711,
      "ee": 3712,
      "さて": 3713,
      "んでしょうか": 3714,
      "オー": 3715,
      "僕は": 3716,
      "理解": 3717,
      "申請": 3718,
      "紹介": 3719,
      "top": 3720,
      "exam": 3721,
      "いただく": 3722,
      "incre": 3723,
      "かもしれません": 3724,
      "times": 3725,
      "details": 3726,
      "old": 3727,
      "なが": 3728,
      "もある": 3729,
      "やす": 3730,
      "クリ": 3731,
      "ニア": 3732,
      "全員": 3733,
      "実際": 3734,
      "部屋": 3735,
      "sive": 3736,
      "を見て": 3737,
      "document": 3738,
      "Tr": 3739,
      "dget": 3740,
      "money": 3741,
      "night": 3742,
      "いろ": 3743,
      "お話": 3744,
      "を入": 3745,
      "イル": 3746,
      "ポート": 3747,
      "年間": 3748,
      "後で": 3749,
      "田中": 3750,
      "素晴": 3751,
      "間に": 3752,
      "ates": 3753,
      "tory": 3754,
      "mention": 3755,
      "tra": 3756,
      "tech": 3757,
      "いただいて": 3758,
      "があれば": 3759,
      "documents": 3760,
      "appreciate": 3761,
      "fund": 3762,
      "gg": 3763,
      "mer": 3764,
      "お時間": 3765,
      "くる": 3766,
      "くれて": 3767,
      "しか": 3768,
      "っぱ": 3769,
      "れました": 3770,
      "ライン": 3771,
      "今の": 3772,
      "御社の": 3773,
      "日の": 3774,
      "ますよ": 3775,
      "usually": 3776,
      "それが": 3777,
      "worry": 3778,
      "ランチ": 3779,
      "Tok": 3780,
      "しない": 3781,
      "りに": 3782,
      "アイ": 3783,
      "マネ": 3784,
      "リン": 3785,
      "元気": 3786,
      "支払": 3787,
      "状況": 3788,
      "番号": 3789,
      "色々": 3790,
      "lie": 3791,
      "opport": 3792,
      "afternoon": 3793,
      "store": 3794,
      "opportun": 3795,
      "Ko": 3796,
      "aurant": 3797,
      "five": 3798,
      "sing": 3799,
      "ぐらい": 3800,
      "もり": 3801,
      "を出": 3802,
      "ロー": 3803,
      "午後": 3804,
      "最初": 3805,
      "気が": 3806,
      "als": 3807,
      "aren": 3808,
      "without": 3809,
      "called": 3810,
      "president": 3811,
      "restaurant": 3812,
      "ちゃんと": 3813,
      "design": 3814,
      "Tokyo": 3815,
      "Now": 3816,
      "On": 3817,
      "ced": 3818,
      "paper": 3819,
      "あげ": 3820,
      "くの": 3821,
      "こそ": 3822,
      "ご用": 3823,
      "を取": 3824,
      "人の": 3825,
      "少々": 3826,
      "施設": 3827,
      "来月": 3828,
      "東京": 3829,
      "間違": 3830,
      "esday": 3831,
      "arri": 3832,
      "ote": 3833,
      "making": 3834,
      "appl": 3835,
      "focus": 3836,
      "management": 3837,
      "素晴らしい": 3838,
      "Re": 3839,
      "Sorry": 3840,
      "card": 3841,
      "ru": 3842,
      "ze": 3843,
      "いで": 3844,
      "フト": 3845,
      "工場": 3846,
      "atter": 3847,
      "それを": 3848,
      "true": 3849,
      "cond": 3850,
      "needs": 3851,
      "mbers": 3852,
      "group": 3853,
      "visit": 3854,
      "自分の": 3855,
      "hours": 3856,
      "De": 3857,
      "Sh": 3858,
      "fun": 3859,
      "large": 3860,
      "pack": 3861,
      "かけ": 3862,
      "っち": 3863,
      "とり": 3864,
      "どちら": 3865,
      "デザ": 3866,
      "ルー": 3867,
      "我々": 3868,
      "承知": 3869,
      "提供": 3870,
      "経営": 3871,
      "設定": 3872,
      "llow": 3873,
      "ors": 3874,
      "してくれる": 3875,
      "したの": 3876,
      "anyone": 3877,
      "んですよね": 3878,
      "expect": 3879,
      "できて": 3880,
      "quar": 3881,
      "budget": 3882,
      "どのような": 3883,
      "close": 3884,
      "来週の": 3885,
      "請求書": 3886,
      "Ben": 3887,
      "Bye": 3888,
      "Like": 3889,
      "シー": 3890,
      "レス": 3891,
      "ヶ月": 3892,
      "伝え": 3893,
      "技術": 3894,
      "込み": 3895,
      "real": 3896,
      "definitely": 3897,
      "comple": 3898,
      "play": 3899,
      "どうして": 3900,
      "ext": 3901,
      "についての": 3902,
      "looks": 3903,
      "があった": 3904,
      "stru": 3905,
      "そんなに": 3906,
      "Chin": 3907,
      "ufact": 3908,
      "マーケティング": 3909,
      "quarter": 3910,
      "50": 3911,
      "Just": 3912,
      "ft": 3913,
      "les": 3914,
      "の中": 3915,
      "やり": 3916,
      "を確認": 3917,
      "オン": 3918,
      "スケ": 3919,
      "リスト": 3920,
      "ーション": 3921,
      "取引": 3922,
      "大学": 3923,
      "簡単": 3924,
      "recent": 3925,
      "ato": 3926,
      "ones": 3927,
      "online": 3928,
      "area": 3929,
      "できますか": 3930,
      "出来る": 3931,
      "desk": 3932,
      "situation": 3933,
      "website": 3934,
      "shipp": 3935,
      "ながら": 3936,
      "Don": 3937,
      "Fri": 3938,
      "HR": 3939,
      "gif": 3940,
      "ivers": 3941,
      "のですか": 3942,
      "はお": 3943,
      "をご": 3944,
      "ラス": 3945,
      "方がいい": 3946,
      "英語": 3947,
      "話を": 3948,
      "staff": 3949,
      "ush": 3950,
      "program": 3951,
      "しますね": 3952,
      "consid": 3953,
      "duce": 3954,
      "については": 3955,
      "print": 3956,
      "manufact": 3957,
      "answ": 3958,
      "商品の": 3959,
      "大きな": 3960,
      "デザイン": 3961,
      "Got": 3962,
      "OK": 3963,
      "St": 3964,
      "Yam": 3965,
      "ahead": 3966,
      "div": 3967,
      "led": 3968,
      "must": 3969,
      "oh": 3970,
      "ton": 3971,
      "あれ": 3972,
      "きた": 3973,
      "つけ": 3974,
      "ほしい": 3975,
      "エン": 3976,
      "カード": 3977,
      "ページ": 3978,
      "事は": 3979,
      "手伝": 3980,
      "業者": 3981,
      "違う": 3982,
      "makes": 3983,
      "になった": 3984,
      "その通り": 3985,
      "offer": 3986,
      "今日の": 3987,
      "しておきます": 3988,
      "されている": 3989,
      "decided": 3990,
      "よろしいでしょうか": 3991,
      "invoice": 3992,
      "purch": 3993,
      "おはようございます": 3994,
      "Tanaka": 3995,
      "Friday": 3996,
      "cre": 3997,
      "came": 3998,
      "fig": 3999,
      "par": 4000,
      "ubl": 4001,
      "しね": 4002,
      "っかり": 4003,
      "よい": 4004,
      "予算": 4005,
      "選択": 4006,
      "ってください": 4007,
      "ないです": 4008,
      "んだよね": 4009,
      "ference": 4010,
      "weeks": 4011,
      "press": 4012,
      "どのくらい": 4013,
      "confirm": 4014,
      "building": 4015,
      "ジュール": 4016,
      "pot": 4017,
      "しかし": 4018,
      "のを": 4019,
      "ブル": 4020,
      "先週": 4021,
      "投資": 4022,
      "決め": 4023,
      "見た": 4024,
      "詳細": 4025,
      "remember": 4026,
      "omet": 4027,
      "ute": 4028,
      "んですけど": 4029,
      "いいえ": 4030,
      "いいですね": 4031,
      "intro": 4032,
      "もう少し": 4033,
      "decide": 4034,
      "パーセント": 4035,
      "easi": 4036,
      "サイト": 4037,
      "items": 4038,
      "tour": 4039,
      "var": 4040,
      "えますか": 4041,
      "がない": 4042,
      "にして": 4043,
      "の人": 4044,
      "ネット": 4045,
      "リア": 4046,
      "作業": 4047,
      "料理": 4048,
      "機会": 4049,
      "次の": 4050,
      "結果": 4051,
      "難しい": 4052,
      "thir": 4053,
      "ouble": 4054,
      "ative": 4055,
      "attend": 4056,
      "left": 4057,
      "belie": 4058,
      "short": 4059,
      "main": 4060,
      "conven": 4061,
      "prepare": 4062,
      "love": 4063,
      "coun": 4064,
      "メールで": 4065,
      "ized": 4066,
      "ましょうか": 4067,
      "tainly": 4068,
      "可能性": 4069,
      "私たちの": 4070,
      "場合は": 4071,
      "easy": 4072,
      "スケジュール": 4073,
      "fre": 4074,
      "hou": 4075,
      "とって": 4076,
      "働いて": 4077,
      "導入": 4078,
      "打ち": 4079,
      "輸出": 4080,
      "ount": 4081,
      "ont": 4082,
      "enjo": 4083,
      "engine": 4084,
      "ってこと": 4085,
      "follow": 4086,
      "position": 4087,
      "まりました": 4088,
      "ここに": 4089,
      "happy": 4090,
      "marketing": 4091,
      "まずは": 4092,
      "client": 4093,
      "たくさん": 4094,
      "マネージ": 4095,
      "believe": 4096,
      "All": 4097,
      "By": 4098,
      "Where": 4099,
      "dri": 4100,
      "ei": 4101,
      "fi": 4102,
      "fill": 4103,
      "od": 4104,
      "pon": 4105,
      "sk": 4106,
      "ses": 4107,
      "かと思います": 4108,
      "めに": 4109,
      "使用": 4110,
      "個人": 4111,
      "値段": 4112,
      "全体": 4113,
      "売上": 4114,
      "知り": 4115,
      "高い": 4116,
      "ator": 4117,
      "tot": 4118,
      "dep": 4119,
      "ございません": 4120,
      "ular": 4121,
      "asking": 4122,
      "board": 4123,
      "予定です": 4124,
      "interview": 4125,
      "speaking": 4126,
      "support": 4127,
      "arrange": 4128,
      "din": 4129,
      "vo": 4130,
      "が入": 4131,
      "すべて": 4132,
      "そろ": 4133,
      "にある": 4134,
      "りの": 4135,
      "わかった": 4136,
      "をお願い": 4137,
      "アド": 4138,
      "メン": 4139,
      "向け": 4140,
      "場所": 4141,
      "彼の": 4142,
      "忙しい": 4143,
      "料金": 4144,
      "asure": 4145,
      "begin": 4146,
      "っていた": 4147,
      "amount": 4148,
      "んですね": 4149,
      "することが": 4150,
      "conf": 4151,
      "exc": 4152,
      "....": 4153,
      "xxxx": 4154,
      "知らせ": 4155,
      "お待ちください": 4156,
      "fortun": 4157,
      "お世話にな": 4158,
      "increase": 4159,
      "enjoy": 4160,
      "US": 4161,
      "cial": 4162,
      "found": 4163,
      "file": 4164,
      "ficul": 4165,
      "ted": 4166,
      "val": 4167,
      "あれば": 4168,
      "こんな": 4169,
      "っちゃ": 4170,
      "はある": 4171,
      "ほとん": 4172,
      "レン": 4173,
      "例えば": 4174,
      "合い": 4175,
      "売り": 4176,
      "ited": 4177,
      "ween": 4178,
      "ential": 4179,
      "appoint": 4180,
      "approv": 4181,
      "ends": 4182,
      "agree": 4183,
      "会社に": 4184,
      "Does": 4185,
      "仕事を": 4186,
      "があって": 4187,
      "みたいな": 4188,
      "difficul": 4189,
      "service": 4190,
      "address": 4191,
      "ライア": 4192,
      "specif": 4193,
      "すごく": 4194,
      "fully": 4195,
      "mess": 4196,
      "publ": 4197,
      "vent": 4198,
      "とき": 4199,
      "られて": 4200,
      "ラー": 4201,
      "一人": 4202,
      "会い": 4203,
      "彼は": 4204,
      "残念": 4205,
      "気を": 4206,
      "社が": 4207,
      "計画": 4208,
      "通勤": 4209,
      "ang": 4210,
      "offee": 4211,
      "means": 4212,
      "そうか": 4213,
      "comes": 4214,
      "はいい": 4215,
      "between": 4216,
      "いくつか": 4217,
      "receiv": 4218,
      "によって": 4219,
      "development": 4220,
      "Ju": 4221,
      "gan": 4222,
      "ima": 4223,
      "かと": 4224,
      "ずに": 4225,
      "ショ": 4226,
      "ベース": 4227,
      "マイ": 4228,
      "上司": 4229,
      "今は": 4230,
      "以外": 4231,
      "保険": 4232,
      "君の": 4233,
      "基本": 4234,
      "直接": 4235,
      "致します": 4236,
      "resul": 4237,
      "ased": 4238,
      "allow": 4239,
      "そうな": 4240,
      "opt": 4241,
      "export": 4242,
      "prom": 4243,
      "both": 4244,
      "comput": 4245,
      "surance": 4246,
      "Exactly": 4247,
      "ってきて": 4248,
      "iversity": 4249,
      "Mon": 4250,
      "ah": 4251,
      "coffee": 4252,
      "flight": 4253,
      "、「": 4254,
      "あー": 4255,
      "えない": 4256,
      "おります": 4257,
      "とお": 4258,
      "ばかり": 4259,
      "まく": 4260,
      "らく": 4261,
      "られた": 4262,
      "ること": 4263,
      "ヒー": 4264,
      "ーク": 4265,
      "事務": 4266,
      "先方": 4267,
      "当社の": 4268,
      "日に": 4269,
      "本日は": 4270,
      "業務": 4271,
      "頑張": 4272,
      "飲み": 4273,
      "ings": 4274,
      "cept": 4275,
      "super": 4276,
      "adv": 4277,
      "になり": 4278,
      "だけで": 4279,
      "cover": 4280,
      "しまして": 4281,
      "couple": 4282,
      "製品の": 4283,
      "trying": 4284,
      "ここで": 4285,
      "情報を": 4286,
      "wrong": 4287,
      "ファイル": 4288,
      "class": 4289,
      "オンライン": 4290,
      "shipping": 4291,
      "potential": 4292,
      "マネージャー": 4293,
      "11": 4294,
      "IT": 4295,
      "Your": 4296,
      "aud": 4297,
      "cle": 4298,
      "cop": 4299,
      "lan": 4300,
      "uck": 4301,
      "いった": 4302,
      "えず": 4303,
      "だと思う": 4304,
      "なさ": 4305,
      "のです": 4306,
      "もあります": 4307,
      "ウン": 4308,
      "カー": 4309,
      "キー": 4310,
      "サン": 4311,
      "トラ": 4312,
      "作成": 4313,
      "出荷": 4314,
      "大事": 4315,
      "提出": 4316,
      "時から": 4317,
      "疲れ": 4318,
      "insurance": 4319,
      "least": 4320,
      "wel": 4321,
      "sever": 4322,
      "urs": 4323,
      "と思いますよ": 4324,
      "時間を": 4325,
      "必要な": 4326,
      "whole": 4327,
      "join": 4328,
      "かしこ": 4329,
      "facility": 4330,
      "shipment": 4331,
      "event": 4332,
      "グラム": 4333,
      "キャン": 4334,
      "ご用件": 4335,
      "hu": 4336,
      "hal": 4337,
      "past": 4338,
      "tar": 4339,
      "あえず": 4340,
      "えっと": 4341,
      "だし": 4342,
      "の手": 4343,
      "を開": 4344,
      "今後": 4345,
      "君が": 4346,
      "学校": 4347,
      "悪い": 4348,
      "海外": 4349,
      "的には": 4350,
      "空いて": 4351,
      "課長": 4352,
      "責任": 4353,
      "金曜日": 4354,
      "reen": 4355,
      "return": 4356,
      "っていう": 4357,
      "oper": 4358,
      "gets": 4359,
      "ages": 4360,
      "due": 4361,
      "took": 4362,
      "Here": 4363,
      "なくな": 4364,
      "respon": 4365,
      "ほうが": 4366,
      "addition": 4367,
      "issues": 4368,
      "はずです": 4369,
      "コーヒー": 4370,
      "direct": 4371,
      "recently": 4372,
      "house": 4373,
      "お世話になっております": 4374,
      "B社の": 4375,
      "EO": 4376,
      "Mo": 4377,
      "sle": 4378,
      "somet": 4379,
      "あっ": 4380,
      "っき": 4381,
      "代わ": 4382,
      "方法": 4383,
      "早速": 4384,
      "時は": 4385,
      "知ってる": 4386,
      "調査": 4387,
      "entire": 4388,
      "さんと": 4389,
      "いいよ": 4390,
      "word": 4391,
      "wasn": 4392,
      "plac": 4393,
      "大丈夫ですよ": 4394,
      "box": 4395,
      "boss": 4396,
      "に行く": 4397,
      "miss": 4398,
      "今回は": 4399,
      "transfer": 4400,
      "icular": 4401,
      "family": 4402,
      "opportunity": 4403,
      "とりあえず": 4404,
      "consider": 4405,
      "打ち合わせ": 4406,
      "several": 4407,
      "かしこまりました": 4408,
      "Every": 4409,
      "Joh": 4410,
      "four": 4411,
      "hund": 4412,
      "ric": 4413,
      "vious": 4414,
      "もん": 4415,
      "るのは": 4416,
      "ジョン": 4417,
      "ッチ": 4418,
      "フェ": 4419,
      "付け": 4420,
      "伝えて": 4421,
      "何が": 4422,
      "何も": 4423,
      "何を": 4424,
      "僕も": 4425,
      "先日": 4426,
      "全く": 4427,
      "持って": 4428,
      "来た": 4429,
      "理由": 4430,
      "目標": 4431,
      "asing": 4432,
      "secur": 4433,
      "near": 4434,
      "propos": 4435,
      "と思っています": 4436,
      "notice": 4437,
      "apo": 4438,
      "Who": 4439,
      "nothing": 4440,
      "これで": 4441,
      "invest": 4442,
      "employee": 4443,
      "factory": 4444,
      "provide": 4445,
      "special": 4446,
      "based": 4447,
      "mentioned": 4448,
      "complete": 4449,
      "various": 4450,
      "difficult": 4451,
      "hundred": 4452,
      "Be": 4453,
      "CEO": 4454,
      "mill": 4455,
      "ned": 4456,
      "oto": 4457,
      "paid": 4458,
      "えた": 4459,
      "お疲れ": 4460,
      "かかる": 4461,
      "だな": 4462,
      "にする": 4463,
      "ねえ": 4464,
      "みて": 4465,
      "を教えて": 4466,
      "コース": 4467,
      "セル": 4468,
      "ベル": 4469,
      "中国": 4470,
      "企画": 4471,
      "多分": 4472,
      "数字": 4473,
      "有難": 4474,
      "案件": 4475,
      "立ち": 4476,
      "金額": 4477,
      "requ": 4478,
      "ですので": 4479,
      "vert": 4480,
      "concer": 4481,
      "helpful": 4482,
      "しまう": 4483,
      "ところで": 4484,
      "says": 4485,
      "handle": 4486,
      "happened": 4487,
      "今年は": 4488,
      "minute": 4489,
      "しましょうか": 4490,
      "changes": 4491,
      "失礼します": 4492,
      "ライアント": 4493,
      "Monday": 4494,
      "John": 4495,
      "Some": 4496,
      "Since": 4497,
      "ead": 4498,
      "ience": 4499,
      "kid": 4500,
      "pass": 4501,
      "sa": 4502,
      "sof": 4503,
      "うまく": 4504,
      "きて": 4505,
      "だよね": 4506,
      "に出": 4507,
      "の一": 4508,
      "ウィ": 4509,
      "クライアント": 4510,
      "スター": 4511,
      "ブラ": 4512,
      "・・": 4513,
      "今月": 4514,
      "全然": 4515,
      "検討": 4516,
      "無理": 4517,
      "過ぎ": 4518,
      "organ": 4519,
      "lead": 4520,
      "vered": 4521,
      "ical": 4522,
      "cho": 4523,
      "Thurs": 4524,
      "それなら": 4525,
      "front": 4526,
      "trave": 4527,
      "works": 4528,
      "particular": 4529,
      "aft": 4530,
      "meetings": 4531,
      "インター": 4532,
      "ちょう": 4533,
      "製品A": 4534,
      "awa": 4535,
      "corpor": 4536,
      "に行って": 4537,
      "currently": 4538,
      "Should": 4539,
      "gift": 4540,
      "manufacturing": 4541,
      "fortunately": 4542,
      "received": 4543,
      "half": 4544,
      "Thursday": 4545,
      "Tom": 4546,
      "cand": 4547,
      "cul": 4548,
      "gi": 4549,
      "lic": 4550,
      "walk": 4551,
      "が多い": 4552,
      "ぜひ": 4553,
      "だって": 4554,
      "やっぱ": 4555,
      "を探": 4556,
      "ウチ": 4557,
      "グルー": 4558,
      "写真": 4559,
      "思い": 4560,
      "早い": 4561,
      "株主": 4562,
      "株式": 4563,
      "残業": 4564,
      "itch": 4565,
      "ari": 4566,
      "second": 4567,
      "ried": 4568,
      "amoto": 4569,
      "summ": 4570,
      "yourself": 4571,
      "shop": 4572,
      "tern": 4573,
      "perfect": 4574,
      "だったら": 4575,
      "こちらの": 4576,
      "されています": 4577,
      "明日の": 4578,
      "gency": 4579,
      "いただきたい": 4580,
      "wondering": 4581,
      "division": 4582,
      "computer": 4583,
      "25": 4584,
      "la": 4585,
      "park": 4586,
      "rate": 4587,
      "させ": 4588,
      "ずっと": 4589,
      "でしょ": 4590,
      "のある": 4591,
      "のため": 4592,
      "をお願いします": 4593,
      "ッケ": 4594,
      "初めて": 4595,
      "勤務": 4596,
      "印刷": 4597,
      "大切": 4598,
      "嬉しい": 4599,
      "絶対": 4600,
      "記載": 4601,
      "越し": 4602,
      "wife": 4603,
      "often": 4604,
      "してた": 4605,
      "enter": 4606,
      "terday": 4607,
      "takes": 4608,
      "exactly": 4609,
      "quote": 4610,
      "imes": 4611,
      "shouldn": 4612,
      "size": 4613,
      "これから": 4614,
      "aving": 4615,
      "あなたは": 4616,
      "discount": 4617,
      "日本の": 4618,
      "なんだよ": 4619,
      "なんだけど": 4620,
      "regard": 4621,
      "stop": 4622,
      "プログラム": 4623,
      "彼らは": 4624,
      "glad": 4625,
      "今回の": 4626,
      "invol": 4627,
      "yesterday": 4628,
      "そちらの": 4629,
      "quickly": 4630,
      "delay": 4631,
      "example": 4632,
      "application": 4633,
      "Really": 4634,
      "answer": 4635,
      "security": 4636,
      "Ab": 4637,
      "Wed": 4638,
      "equ": 4639,
      "fic": 4640,
      "flo": 4641,
      "giv": 4642,
      "lab": 4643,
      "あぁ": 4644,
      "おきます": 4645,
      "か月": 4646,
      "くり": 4647,
      "に電話": 4648,
      "のよ": 4649,
      "を行": 4650,
      "を受け": 4651,
      "ーン": 4652,
      "一日": 4653,
      "分かった": 4654,
      "利用": 4655,
      "子供": 4656,
      "常に": 4657,
      "年の": 4658,
      "意味": 4659,
      "最終": 4660,
      "様に": 4661,
      "美味": 4662,
      "落ち": 4663,
      "調べて": 4664,
      "追加": 4665,
      "進めて": 4666,
      "部門": 4667,
      "iting": 4668,
      "ますね": 4669,
      "alth": 4670,
      "child": 4671,
      "ceed": 4672,
      "goes": 4673,
      "と思った": 4674,
      "conne": 4675,
      "seem": 4676,
      "nolog": 4677,
      "会社が": 4678,
      "会社は": 4679,
      "starting": 4680,
      "type": 4681,
      "必要がある": 4682,
      "なんですか": 4683,
      "posed": 4684,
      "ideas": 4685,
      "会議室": 4686,
      "そこで": 4687,
      "pict": 4688,
      "させていただきます": 4689,
      "Takada": 4690,
      "少々お待ちください": 4691,
      "introduce": 4692,
      "有難う": 4693,
      "やっぱり": 4694,
      "グループ": 4695,
      "Wedn": 4696,
      "100": 4697,
      "Br": 4698,
      "ris": 4699,
      "かって": 4700,
      "くれた": 4701,
      "しないといけない": 4702,
      "のも": 4703,
      "まった": 4704,
      "ーズ": 4705,
      "具体": 4706,
      "前の": 4707,
      "合う": 4708,
      "問い": 4709,
      "存知": 4710,
      "期間": 4711,
      "次に": 4712,
      "誰か": 4713,
      "recor": 4714,
      "enty": 4715,
      "ないから": 4716,
      "そうですよね": 4717,
      "usual": 4718,
      "suc": 4719,
      "はいかが": 4720,
      "できません": 4721,
      "impro": 4722,
      "loc": 4723,
      "でしょうね": 4724,
      "れている": 4725,
      "こちらこそ": 4726,
      "なんか": 4727,
      "draft": 4728,
      "に関する": 4729,
      "interesting": 4730,
      "そうなんですね": 4731,
      "担当者": 4732,
      "colle": 4733,
      "sharehold": 4734,
      "エンジ": 4735,
      "langu": 4736,
      "apolog": 4737,
      "お疲れ様": 4738,
      "ちょうど": 4739,
      "Wednesday": 4740,
      "At": 4741,
      "Sato": 4742,
      "ben": 4743,
      "dist": 4744,
      "fut": 4745,
      "itor": 4746,
      "ken": 4747,
      "vac": 4748,
      "yle": 4749,
      "きっと": 4750,
      "っくり": 4751,
      "のために": 4752,
      "カスタ": 4753,
      "スペ": 4754,
      "ニング": 4755,
      "出し": 4756,
      "家族": 4757,
      "弊社": 4758,
      "思う": 4759,
      "承認": 4760,
      "機能": 4761,
      "次第": 4762,
      "気づ": 4763,
      "目を": 4764,
      "知って": 4765,
      "自動": 4766,
      "行く": 4767,
      "行った": 4768,
      "覚えて": 4769,
      "起こ": 4770,
      "通常": 4771,
      "面接": 4772,
      "thous": 4773,
      "そうなの": 4774,
      "cel": 4775,
      "cell": 4776,
      "するのは": 4777,
      "worried": 4778,
      "opin": 4779,
      "ではなく": 4780,
      "ending": 4781,
      "かりません": 4782,
      "これが": 4783,
      "ティー": 4784,
      "商品を": 4785,
      "departments": 4786,
      "avor": 4787,
      "saying": 4788,
      "あなたが": 4789,
      "luck": 4790,
      "かりますか": 4791,
      "自分で": 4792,
      "ミーティングを": 4793,
      "medi": 4794,
      "ディア": 4795,
      "contin": 4796,
      "どれくらい": 4797,
      "China": 4798,
      "figure": 4799,
      "country": 4800,
      "either": 4801,
      "volu": 4802,
      "売り上げ": 4803,
      "proposal": 4804,
      "thousand": 4805,
      "200": 4806,
      "hon": 4807,
      "mid": 4808,
      "saw": 4809,
      "task": 4810,
      "いまして": 4811,
      "かない": 4812,
      "ご質問": 4813,
      "なり": 4814,
      "やる": 4815,
      "アー": 4816,
      "ソフト": 4817,
      "佐藤": 4818,
      "候補": 4819,
      "分からない": 4820,
      "新規": 4821,
      "私に": 4822,
      "続き": 4823,
      "置いて": 4824,
      "聞こ": 4825,
      "貿易": 4826,
      "youn": 4827,
      "ita": 4828,
      "estim": 4829,
      "ないよ": 4830,
      "sum": 4831,
      "するよ": 4832,
      "iron": 4833,
      "conduct": 4834,
      "apply": 4835,
      "teach": 4836,
      "りますね": 4837,
      "myself": 4838,
      "ませんか": 4839,
      "くださ": 4840,
      "までの": 4841,
      "もらえる": 4842,
      "というのは": 4843,
      "grow": 4844,
      "lots": 4845,
      "setting": 4846,
      "オフィスに": 4847,
      "commend": 4848,
      "かも知": 4849,
      "cially": 4850,
      "content": 4851,
      "申し訳ございません": 4852,
      "ウェブ": 4853,
      "materials": 4854,
      "trade": 4855,
      "technolog": 4856,
      "package": 4857,
      "承知しました": 4858,
      "public": 4859,
      "floor": 4860,
      "record": 4861,
      "Or": 4862,
      "ew": 4863,
      "favor": 4864,
      "hop": 4865,
      "table": 4866,
      "いです": 4867,
      "が多": 4868,
      "きゃ": 4869,
      "っか": 4870,
      "に対": 4871,
      "まま": 4872,
      "わね": 4873,
      "わー": 4874,
      "シャ": 4875,
      "スー": 4876,
      "テー": 4877,
      "プル": 4878,
      "レスト": 4879,
      "ワイ": 4880,
      "今から": 4881,
      "同僚": 4882,
      "君は": 4883,
      "弊社の": 4884,
      "御社": 4885,
      "昨日": 4886,
      "時期": 4887,
      "来る": 4888,
      "沢山": 4889,
      "用意": 4890,
      "行って": 4891,
      "評価": 4892,
      "輸送": 4893,
      "送って": 4894,
      "都合": 4895,
      "食事": 4896,
      "recommend": 4897,
      "health": 4898,
      "seen": 4899,
      "ention": 4900,
      "dead": 4901,
      "ooth": 4902,
      "それと": 4903,
      "advice": 4904,
      "contain": 4905,
      "yeah": 4906,
      "seeing": 4907,
      "needed": 4908,
      "wants": 4909,
      "pleasure": 4910,
      "uchi": 4911,
      "igin": 4912,
      "必要があります": 4913,
      "でしたか": 4914,
      "hire": 4915,
      "ield": 4916,
      "したいのですが": 4917,
      "waiting": 4918,
      "sense": 4919,
      "friend": 4920,
      "submit": 4921,
      "selling": 4922,
      "支払い": 4923,
      "その通りです": 4924,
      "appointment": 4925,
      "travel": 4926,
      "corporate": 4927,
      "success": 4928,
      "future": 4929,
      "volume": 4930,
      "レストラン": 4931,
      "BA": 4932,
      "Cor": 4933,
      "Me": 4934,
      "MBA": 4935,
      "Wi": 4936,
      "dro": 4937,
      "field": 4938,
      "pat": 4939,
      "rom": 4940,
      "son": 4941,
      "お店": 4942,
      "が出": 4943,
      "すで": 4944,
      "でお": 4945,
      "でございます": 4946,
      "の仕事": 4947,
      "まる": 4948,
      "れど": 4949,
      "ソコン": 4950,
      "ニュ": 4951,
      "パソコン": 4952,
      "ビル": 4953,
      "メント": 4954,
      "人に": 4955,
      "休暇": 4956,
      "僕が": 4957,
      "入れ": 4958,
      "共有": 4959,
      "午前": 4960,
      "始めて": 4961,
      "気に入": 4962,
      "消費": 4963,
      "物を": 4964,
      "環境": 4965,
      "程度": 4966,
      "聞き": 4967,
      "良く": 4968,
      "見つ": 4969,
      "ines": 4970,
      "inspe": 4971,
      "origin": 4972,
      "ital": 4973,
      "ashi": 4974,
      "station": 4975,
      "したり": 4976,
      "within": 4977,
      "それも": 4978,
      "proper": 4979,
      "app": 4980,
      "ateg": 4981,
      "update": 4982,
      "ilar": 4983,
      "parts": 4984,
      "ればいい": 4985,
      "いただいた": 4986,
      "overtime": 4987,
      "イント": 4988,
      "istic": 4989,
      "chance": 4990,
      "させて頂": 4991,
      "聞いてみ": 4992,
      "decision": 4993,
      "write": 4994,
      "listen": 4995,
      "彼女は": 4996,
      "良かったです": 4997,
      "よろしいですか": 4998,
      "parent": 4999,
      "students": 5000,
      "famili": 5001,
      "Unfortunately": 5002,
      "楽しみに": 5003,
      "バイス": 5004,
      "我が社の": 5005,
      "expensive": 5006,
      "easier": 5007,
      "ほとんど": 5008,
      "clean": 5009,
      "もんね": 5010,
      "connect": 5011,
      "vacation": 5012,
      "Mi": 5013,
      "New": 5014,
      "Sales": 5015,
      "cr": 5016,
      "cing": 5017,
      "cam": 5018,
      "ied": 5019,
      "mand": 5020,
      "matter": 5021,
      "かけて": 5022,
      "ご存知": 5023,
      "つもり": 5024,
      "セン": 5025,
      "チャ": 5026,
      "トレー": 5027,
      "ポイント": 5028,
      "上手": 5029,
      "事項": 5030,
      "休憩": 5031,
      "僕の": 5032,
      "処理": 5033,
      "別に": 5034,
      "助かる": 5035,
      "勉強": 5036,
      "弁当": 5037,
      "後は": 5038,
      "書いて": 5039,
      "用の": 5040,
      "移動": 5041,
      "総会": 5042,
      "職場": 5043,
      "話す": 5044,
      "部分": 5045,
      "att": 5046,
      "env": 5047,
      "ash": 5048,
      "members": 5049,
      "along": 5050,
      "choo": 5051,
      "からは": 5052,
      "そうだった": 5053,
      "さんも": 5054,
      "ことに": 5055,
      "proceed": 5056,
      "sugg": 5057,
      "admin": 5058,
      "sho": 5059,
      "track": 5060,
      "どうでしょうか": 5061,
      "どうやって": 5062,
      "になっています": 5063,
      "になりました": 5064,
      "wouldn": 5065,
      "Which": 5066,
      "prefer": 5067,
      "ulations": 5068,
      "でしたね": 5069,
      "うちは": 5070,
      "couldn": 5071,
      "いつでも": 5072,
      "holi": 5073,
      "よりも": 5074,
      "datab": 5075,
      "彼らの": 5076,
      "difference": 5077,
      "サムさん": 5078,
      "データベース": 5079,
      "receive": 5080,
      "こういう": 5081,
      "Exc": 5082,
      "を使って": 5083,
      "を持って": 5084,
      "instead": 5085,
      "similar": 5086,
      "suggest": 5087,
      "Eメール": 5088,
      "Um": 5089,
      "bag": 5090,
      "cha": 5091,
      "fif": 5092,
      "mi": 5093,
      "sound": 5094,
      "wise": 5095,
      "あら": 5096,
      "お金": 5097,
      "さま": 5098,
      "と言": 5099,
      "なかな": 5100,
      "の件": 5101,
      "ほんと": 5102,
      "まと": 5103,
      "られない": 5104,
      "わかる": 5105,
      "アル": 5106,
      "テナ": 5107,
      "プライ": 5108,
      "レビ": 5109,
      "人も": 5110,
      "切り": 5111,
      "別の": 5112,
      "効率": 5113,
      "外国": 5114,
      "当社": 5115,
      "掛け": 5116,
      "早めに": 5117,
      "書を": 5118,
      "注意": 5119,
      "返金": 5120,
      "reach": 5121,
      "ergency": 5122,
      "ork": 5123,
      "ising": 5124,
      "していた": 5125,
      "eter": 5126,
      "life": 5127,
      "ことも": 5128,
      "はいらっしゃ": 5129,
      "tax": 5130,
      "appro": 5131,
      "emergency": 5132,
      "col": 5133,
      "prof": 5134,
      "news": 5135,
      "もらう": 5136,
      "guest": 5137,
      "ならない": 5138,
      "longer": 5139,
      "stock": 5140,
      "space": 5141,
      "よろしくお願い": 5142,
      "してみます": 5143,
      "彼らが": 5144,
      "申し上げ": 5145,
      "suppli": 5146,
      "accounting": 5147,
      "skill": 5148,
      "dinner": 5149,
      "results": 5150,
      "sometimes": 5151,
      "regarding": 5152,
      "involved": 5153,
      "shareholders": 5154,
      "エンジニア": 5155,
      "すでに": 5156,
      "Excuse": 5157,
      "18": 5158,
      "500": 5159,
      "Amer": 5160,
      "B社": 5161,
      "bur": 5162,
      "cap": 5163,
      "cards": 5164,
      "fl": 5165,
      "pop": 5166,
      "pie": 5167,
      "push": 5168,
      "ues": 5169,
      "お手": 5170,
      "があり": 5171,
      "がありました": 5172,
      "くなる": 5173,
      "され": 5174,
      "しないと": 5175,
      "しっかり": 5176,
      "である": 5177,
      "でください": 5178,
      "といい": 5179,
      "に連絡": 5180,
      "わざ": 5181,
      "をしている": 5182,
      "クラス": 5183,
      "ツアー": 5184,
      "プリ": 5185,
      "ミス": 5186,
      "先月": 5187,
      "安い": 5188,
      "安全": 5189,
      "後の": 5190,
      "旅行": 5191,
      "日程": 5192,
      "正直": 5193,
      "監査": 5194,
      "立て": 5195,
      "経費": 5196,
      "調べ": 5197,
      "高田": 5198,
      "thor": 5199,
      "ouch": 5200,
      "topic": 5201,
      "ですし": 5202,
      "していただく": 5203,
      "section": 5204,
      "ets": 5205,
      "road": 5206,
      "uting": 5207,
      "necess": 5208,
      "さんから": 5209,
      "ational": 5210,
      "ura": 5211,
      "plans": 5212,
      "この件": 5213,
      "けどね": 5214,
      "looked": 5215,
      "others": 5216,
      "everybody": 5217,
      "でしたっけ": 5218,
      "しまった": 5219,
      "んでいる": 5220,
      "ipment": 5221,
      "社員の": 5222,
      "オフィスの": 5223,
      "commuting": 5224,
      "合わせて": 5225,
      "schedul": 5226,
      "そうなんですか": 5227,
      "いただきありがとうございます": 5228,
      "ption": 5229,
      "了解しました": 5230,
      "supposed": 5231,
      "えーと": 5232,
      "見積もり": 5233,
      "に関しては": 5234,
      "include": 5235,
      "solute": 5236,
      "thirty": 5237,
      "残念ながら": 5238,
      "completely": 5239,
      "スタート": 5240,
      "improve": 5241,
      "environ": 5242,
      "database": 5243,
      "Americ": 5244,
      "solutely": 5245,
      "Af": 5246,
      "Make": 5247,
      "clear": 5248,
      "fur": 5249,
      "fast": 5250,
      "page": 5251,
      "sal": 5252,
      "tough": 5253,
      "えっ": 5254,
      "けれど": 5255,
      "しかった": 5256,
      "つまり": 5257,
      "などの": 5258,
      "にとって": 5259,
      "のご": 5260,
      "のもの": 5261,
      "サポート": 5262,
      "ジャ": 5263,
      "ジョ": 5264,
      "トム": 5265,
      "ンの": 5266,
      "人は": 5267,
      "人数": 5268,
      "人たち": 5269,
      "使い": 5270,
      "光栄": 5271,
      "力を": 5272,
      "小さ": 5273,
      "山本": 5274,
      "感謝": 5275,
      "結局": 5276,
      "解決": 5277,
      "連れて": 5278,
      "配達": 5279,
      "面白": 5280,
      "instru": 5281,
      "revis": 5282,
      "ord": 5283,
      "almost": 5284,
      "icip": 5285,
      "rol": 5286,
      "そうだよ": 5287,
      "conference": 5288,
      "どういう": 5289,
      "extra": 5290,
      "できました": 5291,
      "accept": 5292,
      "までには": 5293,
      "guy": 5294,
      "なくても": 5295,
      "しておく": 5296,
      "tware": 5297,
      "と思うよ": 5298,
      "compet": 5299,
      "compare": 5300,
      "emails": 5301,
      "assist": 5302,
      "教えてください": 5303,
      "payment": 5304,
      "とんでも": 5305,
      "やすい": 5306,
      "いろいろ": 5307,
      "confident": 5308,
      "事務所": 5309,
      "additional": 5310,
      "directly": 5311,
      "equipment": 5312,
      "pictures": 5313,
      "apologize": 5314,
      "Corpor": 5315,
      "なかなか": 5316,
      "はいらっしゃいますか": 5317,
      "environment": 5318,
      "After": 5319,
      "40": 5320,
      "Ar": 5321,
      "Cer": 5322,
      "Eu": 5323,
      "Lee": 5324,
      "Next": 5325,
      "Su": 5326,
      "Te": 5327,
      "bar": 5328,
      "bye": 5329,
      "den": 5330,
      "double": 5331,
      "elect": 5332,
      "gain": 5333,
      "ior": 5334,
      "ible": 5335,
      "mine": 5336,
      "ps": 5337,
      "sli": 5338,
      "sour": 5339,
      "あそこ": 5340,
      "いき": 5341,
      "いかが": 5342,
      "えます": 5343,
      "くは": 5344,
      "さら": 5345,
      "さっき": 5346,
      "とにか": 5347,
      "なきゃ": 5348,
      "の予定": 5349,
      "るか": 5350,
      "るから": 5351,
      "るように": 5352,
      "わよ": 5353,
      "わからない": 5354,
      "ソン": 5355,
      "ッド": 5356,
      "ログ": 5357,
      "予測": 5358,
      "人を": 5359,
      "伺い": 5360,
      "修正": 5361,
      "働く": 5362,
      "厳しい": 5363,
      "名刺": 5364,
      "学生": 5365,
      "差し": 5366,
      "影響": 5367,
      "思います": 5368,
      "新入": 5369,
      "生産": 5370,
      "迎え": 5371,
      "電車": 5372,
      "頼む": 5373,
      "inconven": 5374,
      "ery": 5375,
      "aring": 5376,
      "met": 5377,
      "そうそう": 5378,
      "ことがある": 5379,
      "mach": 5380,
      "ilities": 5381,
      "と思いますか": 5382,
      "cold": 5383,
      "letter": 5384,
      "もらって": 5385,
      "でしたら": 5386,
      "ックス": 5387,
      "twenty": 5388,
      "日本語": 5389,
      "いけない": 5390,
      "serious": 5391,
      "numbers": 5392,
      "してみて": 5393,
      "可能です": 5394,
      "period": 5395,
      "learning": 5396,
      "happens": 5397,
      "今年の": 5398,
      "ってきた": 5399,
      "install": 5400,
      "となります": 5401,
      "finished": 5402,
      "クリス": 5403,
      "実際に": 5404,
      "間違い": 5405,
      "total": 5406,
      "アドバイス": 5407,
      "copy": 5408,
      "concern": 5409,
      "software": 5410,
      "candid": 5411,
      "giving": 5412,
      "hoping": 5413,
      "familiar": 5414,
      "choose": 5415,
      "Certainly": 5416,
      "とにかく": 5417,
      "AB": 5418,
      "bility": 5419,
      "ele": 5420,
      "ging": 5421,
      "lap": 5422,
      "men": 5423,
      "sw": 5424,
      "wn": 5425,
      "water": 5426,
      "watch": 5427,
      "お越し": 5428,
      "がお": 5429,
      "がいる": 5430,
      "されました": 5431,
      "なぁ": 5432,
      "に来て": 5433,
      "の話": 5434,
      "ひと": 5435,
      "まって": 5436,
      "までは": 5437,
      "やら": 5438,
      "を受": 5439,
      "エレ": 5440,
      "メラ": 5441,
      "今度": 5442,
      "何人": 5443,
      "依頼": 5444,
      "協力": 5445,
      "必ず": 5446,
      "手配": 5447,
      "改善": 5448,
      "是非": 5449,
      "更新": 5450,
      "月に": 5451,
      "物の": 5452,
      "相手": 5453,
      "知っている": 5454,
      "組み": 5455,
      "返事": 5456,
      "重要": 5457,
      "銀行": 5458,
      "長い": 5459,
      "release": 5460,
      "refund": 5461,
      "istr": 5462,
      "itive": 5463,
      "したかった": 5464,
      "したほうがいい": 5465,
      "ety": 5466,
      "otion": 5467,
      "live": 5468,
      "ama": 5469,
      "sume": 5470,
      "somewhere": 5471,
      "になっている": 5472,
      "があるので": 5473,
      "talked": 5474,
      "typ": 5475,
      "なんですが": 5476,
      "しておいて": 5477,
      "xxx": 5478,
      "regular": 5479,
      "あとは": 5480,
      "understanding": 5481,
      "feeling": 5482,
      "draw": 5483,
      "してもらう": 5484,
      "commun": 5485,
      "かもね": 5486,
      "Today": 5487,
      "version": 5488,
      "ということで": 5489,
      "言ってた": 5490,
      "related": 5491,
      "higher": 5492,
      "basically": 5493,
      "uff": 5494,
      "他に何か": 5495,
      "元気ですか": 5496,
      "Once": 5497,
      "経営陣": 5498,
      "Yamamoto": 5499,
      "メンバー": 5500,
      "million": 5501,
      "問い合わせ": 5502,
      "Corporation": 5503,
      "Bill": 5504,
      "CX": 5505,
      "One": 5506,
      "TV": 5507,
      "ax": 5508,
      "ecut": 5509,
      "gent": 5510,
      "ime": 5511,
      "ness": 5512,
      "test": 5513,
      "touch": 5514,
      "vices": 5515,
      "あたり": 5516,
      "おう": 5517,
      "おく": 5518,
      "おり": 5519,
      "お話し": 5520,
      "お知らせ": 5521,
      "なんで": 5522,
      "にご": 5523,
      "のかな": 5524,
      "もので": 5525,
      "られ": 5526,
      "を買": 5527,
      "カメラ": 5528,
      "コスト": 5529,
      "コピー": 5530,
      "ッフ": 5531,
      "ニュー": 5532,
      "ホーム": 5533,
      "マン": 5534,
      "レポート": 5535,
      "他にも": 5536,
      "先に": 5537,
      "入れて": 5538,
      "分の": 5539,
      "十分": 5540,
      "地域": 5541,
      "来年": 5542,
      "検収": 5543,
      "水曜日": 5544,
      "知識": 5545,
      "表示": 5546,
      "週末": 5547,
      "部に": 5548,
      "town": 5549,
      "edback": 5550,
      "leg": 5551,
      "leaving": 5552,
      "become": 5553,
      "stuff": 5554,
      "icate": 5555,
      "ichi": 5556,
      "outside": 5557,
      "advert": 5558,
      "いたしまして": 5559,
      "term": 5560,
      "ants": 5561,
      "feedback": 5562,
      "knows": 5563,
      "knowled": 5564,
      "university": 5565,
      "immedi": 5566,
      "local": 5567,
      "post": 5568,
      "ult": 5569,
      "時間は": 5570,
      "startup": 5571,
      "商品は": 5572,
      "大丈夫だよ": 5573,
      "checked": 5574,
      "final": 5575,
      "cording": 5576,
      "会議を": 5577,
      "jobs": 5578,
      "私たちは": 5579,
      "いくら": 5580,
      "いえば": 5581,
      "どこか": 5582,
      "スタッフ": 5583,
      "サイズ": 5584,
      "を送って": 5585,
      "すごい": 5586,
      "changed": 5587,
      "引き継": 5588,
      "collect": 5589,
      "はいつも": 5590,
      "すぎる": 5591,
      "オーダー": 5592,
      "create": 5593,
      "technology": 5594,
      "skills": 5595,
      "necessary": 5596,
      "knowledge": 5597,
      "El": 5598,
      "Tu": 5599,
      "Was": 5600,
      "bri": 5601,
      "catch": 5602,
      "face": 5603,
      "gather": 5604,
      "ki": 5605,
      "rather": 5606,
      "wood": 5607,
      "wish": 5608,
      "お会い": 5609,
      "しば": 5610,
      "しなくて": 5611,
      "ている": 5612,
      "の事": 5613,
      "はもう": 5614,
      "へえ": 5615,
      "みよう": 5616,
      "らの": 5617,
      "られます": 5618,
      "ることが": 5619,
      "わかりません": 5620,
      "を増": 5621,
      "を選": 5622,
      "サプライ": 5623,
      "シン": 5624,
      "テレビ": 5625,
      "デスク": 5626,
      "ピック": 5627,
      "リティ": 5628,
      "一週間": 5629,
      "交換": 5630,
      "交渉": 5631,
      "人材": 5632,
      "仕方": 5633,
      "前回": 5634,
      "期待": 5635,
      "知っています": 5636,
      "記入": 5637,
      "orde": 5638,
      "assign": 5639,
      "forman": 5640,
      "ality": 5641,
      "select": 5642,
      "iced": 5643,
      "negot": 5644,
      "commo": 5645,
      "complain": 5646,
      "する事": 5647,
      "ida": 5648,
      "しますよ": 5649,
      "と思わ": 5650,
      "consul": 5651,
      "note": 5652,
      "feat": 5653,
      "worked": 5654,
      "previous": 5655,
      "aine": 5656,
      "について話": 5657,
      "weekend": 5658,
      "overse": 5659,
      "しくて": 5660,
      "cheap": 5661,
      "thanks": 5662,
      "ことはありますか": 5663,
      "spend": 5664,
      "はどうですか": 5665,
      "の方が": 5666,
      "effic": 5667,
      "フォル": 5668,
      "考えています": 5669,
      "screen": 5670,
      "delivery": 5671,
      "fix": 5672,
      "language": 5673,
      "benef": 5674,
      "deadline": 5675,
      "further": 5676,
      "光栄です": 5677,
      "ABC": 5678,
      "Elaine": 5679,
      "ordered": 5680,
      "formance": 5681,
      "negoti": 5682,
      "99": 5683,
      "Hope": 5684,
      "cas": 5685,
      "sam": 5686,
      "がい": 5687,
      "ができる": 5688,
      "されます": 5689,
      "じめ": 5690,
      "と同じ": 5691,
      "のところ": 5692,
      "はり": 5693,
      "やはり": 5694,
      "り返": 5695,
      "を取り": 5696,
      "カバー": 5697,
      "キュ": 5698,
      "ザー": 5699,
      "シア": 5700,
      "トップ": 5701,
      "パート": 5702,
      "メモ": 5703,
      "リング": 5704,
      "ワーク": 5705,
      "ーター": 5706,
      "会の": 5707,
      "何ですか": 5708,
      "分か": 5709,
      "分野": 5710,
      "削減": 5711,
      "半期": 5712,
      "在庫": 5713,
      "宜しく": 5714,
      "専門": 5715,
      "忘れ": 5716,
      "携帯": 5717,
      "政府": 5718,
      "書き": 5719,
      "最高": 5720,
      "案内": 5721,
      "様子": 5722,
      "経理": 5723,
      "締め": 5724,
      "考える": 5725,
      "良さ": 5726,
      "許可": 5727,
      "調整": 5728,
      "買い": 5729,
      "頂け": 5730,
      "ano": 5731,
      "anch": 5732,
      "asset": 5733,
      "ってた": 5734,
      "していない": 5735,
      "forget": 5736,
      "season": 5737,
      "ications": 5738,
      "ctions": 5739,
      "いますよ": 5740,
      "そうですよ": 5741,
      "amaz": 5742,
      "それだけ": 5743,
      "sud": 5744,
      "はいく": 5745,
      "しますか": 5746,
      "truck": 5747,
      "aph": 5748,
      "execut": 5749,
      "workers": 5750,
      "tem": 5751,
      "ありますよ": 5752,
      "affect": 5753,
      "venue": 5754,
      "があると": 5755,
      "helped": 5756,
      "仕事に": 5757,
      "仕事の": 5758,
      "Isn": 5759,
      "製品を": 5760,
      "いただければ": 5761,
      "shows": 5762,
      "コンピ": 5763,
      "rooms": 5764,
      "ないといけません": 5765,
      "どこに": 5766,
      "ファー": 5767,
      "calend": 5768,
      "click": 5769,
      "control": 5770,
      "certainly": 5771,
      "社長が": 5772,
      "いつもお世話になっております": 5773,
      "よかったです": 5774,
      "supplier": 5775,
      "running": 5776,
      "delivered": 5777,
      "クリック": 5778,
      "arrive": 5779,
      "手伝い": 5780,
      "welcome": 5781,
      "target": 5782,
      "places": 5783,
      "distri": 5784,
      "camer": 5785,
      "scheduled": 5786,
      "Tuesday": 5787,
      "overseas": 5788,
      "Even": 5789,
      "ber": 5790,
      "bank": 5791,
      "dle": 5792,
      "fly": 5793,
      "gre": 5794,
      "hur": 5795,
      "nment": 5796,
      "os": 5797,
      "osh": 5798,
      "ra": 5799,
      "saf": 5800,
      "sort": 5801,
      "おお": 5802,
      "おか": 5803,
      "が良い": 5804,
      "くれない": 5805,
      "すべき": 5806,
      "ちんと": 5807,
      "と話": 5808,
      "ぶり": 5809,
      "やつ": 5810,
      "るんだ": 5811,
      "コミ": 5812,
      "セキュ": 5813,
      "タル": 5814,
      "トル": 5815,
      "ンを": 5816,
      "不足": 5817,
      "予想": 5818,
      "二人": 5819,
      "健康": 5820,
      "割引": 5821,
      "四半期": 5822,
      "宣伝": 5823,
      "御社は": 5824,
      "時には": 5825,
      "有給": 5826,
      "本日": 5827,
      "火曜日": 5828,
      "無い": 5829,
      "細かい": 5830,
      "者が": 5831,
      "者の": 5832,
      "規模": 5833,
      "費用": 5834,
      "近く": 5835,
      "迷惑": 5836,
      "過去": 5837,
      "避難": 5838,
      "関連": 5839,
      "１０": 5840,
      "ですからね": 5841,
      "eda": 5842,
      "stick": 5843,
      "seat": 5844,
      "そうなんだ": 5845,
      "limit": 5846,
      "いたしました": 5847,
      "するように": 5848,
      "する予定": 5849,
      "いいかな": 5850,
      "terms": 5851,
      "trouble": 5852,
      "と思いまして": 5853,
      "どうしたの": 5854,
      "どういたしまして": 5855,
      "できれば": 5856,
      "tea": 5857,
      "lock": 5858,
      "performance": 5859,
      "もらえますか": 5860,
      "ということは": 5861,
      "できるだけ": 5862,
      "確認して": 5863,
      "または": 5864,
      "なると": 5865,
      "avo": 5866,
      "ives": 5867,
      "こちらで": 5868,
      "aware": 5869,
      "リーダー": 5870,
      "branch": 5871,
      "なんでしょうか": 5872,
      "ランス": 5873,
      "としては": 5874,
      "evening": 5875,
      "selves": 5876,
      "...。": 5877,
      "いえいえ": 5878,
      "careful": 5879,
      "surpr": 5880,
      "expand": 5881,
      "relation": 5882,
      "30分": 5883,
      "全ての": 5884,
      "を作って": 5885,
      "いらっしゃる": 5886,
      "タイプ": 5887,
      "社内で": 5888,
      "expense": 5889,
      "そろそろ": 5890,
      "options": 5891,
      "advance": 5892,
      "Everyone": 5893,
      "young": 5894,
      "テーブル": 5895,
      "With": 5896,
      "inspection": 5897,
      "トレーニング": 5898,
      "laptop": 5899,
      "switch": 5900,
      "istration": 5901,
      "しばらく": 5902,
      "App": 5903,
      "Kyle": 5904,
      "ath": 5905,
      "di": 5906,
      "fire": 5907,
      "ired": 5908,
      "land": 5909,
      "ol": 5910,
      "slow": 5911,
      "yl": 5912,
      "あん": 5913,
      "おいて": 5914,
      "が出て": 5915,
      "させる": 5916,
      "そっか": 5917,
      "に送": 5918,
      "のみ": 5919,
      "みな": 5920,
      "めで": 5921,
      "やっている": 5922,
      "やってる": 5923,
      "をと": 5924,
      "アプリ": 5925,
      "セス": 5926,
      "ッキー": 5927,
      "バック": 5928,
      "パッケ": 5929,
      "ビー": 5930,
      "価値": 5931,
      "内の": 5932,
      "分かる": 5933,
      "到着": 5934,
      "受注": 5935,
      "対象": 5936,
      "少なく": 5937,
      "戻って": 5938,
      "時の": 5939,
      "曜の": 5940,
      "満足": 5941,
      "特別": 5942,
      "状態": 5943,
      "発注": 5944,
      "確実": 5945,
      "聞か": 5946,
      "聞く": 5947,
      "詳しく": 5948,
      "近い": 5949,
      "限り": 5950,
      "面倒": 5951,
      "頂き": 5952,
      "ann": 5953,
      "rele": 5954,
      "atur": 5955,
      "ond": 5956,
      "key": 5957,
      "ability": 5958,
      "そういえば": 5959,
      "cannot": 5960,
      "ties": 5961,
      "goal": 5962,
      "gover": 5963,
      "いいの": 5964,
      "しょうか": 5965,
      "どうしたら": 5966,
      "Their": 5967,
      "appe": 5968,
      "できた": 5969,
      "prepar": 5970,
      "logo": 5971,
      "その後": 5972,
      "goods": 5973,
      "pose": 5974,
      "くださいね": 5975,
      "plement": 5976,
      "について話し": 5977,
      "useful": 5978,
      "hassle": 5979,
      "今日中に": 5980,
      "sending": 5981,
      "しましたか": 5982,
      "reser": 5983,
      "pressive": 5984,
      "どのように": 5985,
      "brought": 5986,
      "hearing": 5987,
      "points": 5988,
      "countries": 5989,
      "るのに": 5990,
      "そうなんですよ": 5991,
      "始めます": 5992,
      "costs": 5993,
      "receip": 5994,
      "surve": 5995,
      "知らない": 5996,
      "calcul": 5997,
      "smooth": 5998,
      "受け取": 5999,
      "ホテルの": 6000,
      "了解です": 6001,
      "study": 6002,
      "director": 6003,
      "simple": 6004,
      "申し訳ありません": 6005,
      "今のところ": 6006,
      "Chinese": 6007,
      "attending": 6008,
      "fresh": 6009,
      "engineering": 6010,
      "beginning": 6011,
      "っちゃう": 6012,
      "approval": 6013,
      "message": 6014,
      "option": 6015,
      "advan": 6016,
      "トラック": 6017,
      "responsi": 6018,
      "kids": 6019,
      "ウチの": 6020,
      "summer": 6021,
      "嬉しいです": 6022,
      "opinion": 6023,
      "honest": 6024,
      "tasks": 6025,
      "ホームページ": 6026,
      "amazing": 6027,
      "avoid": 6028,
      "relationship": 6029,
      "パッケージ": 6030,
      "From": 6031,
      "Man": 6032,
      "PO": 6033,
      "Ser": 6034,
      "See": 6035,
      "bill": 6036,
      "cred": 6037,
      "cars": 6038,
      "fit": 6039,
      "fall": 6040,
      "fil": 6041,
      "gas": 6042,
      "nor": 6043,
      "ug": 6044,
      "々な": 6045,
      "いの": 6046,
      "お送り": 6047,
      "かわ": 6048,
      "きちんと": 6049,
      "こっち": 6050,
      "じて": 6051,
      "ずれ": 6052,
      "ぞれ": 6053,
      "たせ": 6054,
      "だわ": 6055,
      "つけて": 6056,
      "とっても": 6057,
      "に興味": 6058,
      "の良い": 6059,
      "の準備": 6060,
      "やった": 6061,
      "りたい": 6062,
      "アク": 6063,
      "イベ": 6064,
      "カレン": 6065,
      "セミ": 6066,
      "デア": 6067,
      "フード": 6068,
      "ヤー": 6069,
      "ユー": 6070,
      "レイ": 6071,
      "レッ": 6072,
      "万円": 6073,
      "世界": 6074,
      "今まで": 6075,
      "会話": 6076,
      "使わ": 6077,
      "使える": 6078,
      "出席": 6079,
      "判断": 6080,
      "向こう": 6081,
      "履歴": 6082,
      "年度": 6083,
      "店舗": 6084,
      "弊社は": 6085,
      "彼が": 6086,
      "待って": 6087,
      "新人": 6088,
      "方向": 6089,
      "木材": 6090,
      "木曜日": 6091,
      "様な": 6092,
      "発送": 6093,
      "目に": 6094,
      "私達": 6095,
      "終了": 6096,
      "総務": 6097,
      "航空": 6098,
      "行き": 6099,
      "記録": 6100,
      "資金": 6101,
      "運転": 6102,
      "部品": 6103,
      "非常に": 6104,
      "領収": 6105,
      "reply": 6106,
      "ens": 6107,
      "ency": 6108,
      "state": 6109,
      "wide": 6110,
      "forgot": 6111,
      "semin": 6112,
      "ics": 6113,
      "ないので": 6114,
      "ないですよ": 6115,
      "いますね": 6116,
      "そうね": 6117,
      "door": 6118,
      "demand": 6119,
      "ましたよ": 6120,
      "それぞれ": 6121,
      "proced": 6122,
      "ようですね": 6123,
      "convers": 6124,
      "taken": 6125,
      "どうした": 6126,
      "moving": 6127,
      "model": 6128,
      "ession": 6129,
      "impressive": 6130,
      "lob": 6131,
      "ありがたい": 6132,
      "actual": 6133,
      "acqu": 6134,
      "access": 6135,
      "code": 6136,
      "という事": 6137,
      "会社で": 6138,
      "会社を": 6139,
      "電話を": 6140,
      "graph": 6141,
      "連絡します": 6142,
      "じゃないですか": 6143,
      "リース": 6144,
      "personal": 6145,
      "regis": 6146,
      "services": 6147,
      "strong": 6148,
      "logistic": 6149,
      "サムです": 6150,
      "フォロー": 6151,
      "confirmed": 6152,
      "ューター": 6153,
      "時間がか": 6154,
      "internal": 6155,
      "田中さん": 6156,
      "アイデア": 6157,
      "Department": 6158,
      "簡単に": 6159,
      "purchasing": 6160,
      "キャンセル": 6161,
      "Most": 6162,
      "カスタマー": 6163,
      "middle": 6164,
      "ウェブサイト": 6165,
      "上手く": 6166,
      "attention": 6167,
      "さらに": 6168,
      "新入社員": 6169,
      "immediately": 6170,
      "コンピューター": 6171,
      "distribut": 6172,
      "government": 6173,
      "イベント": 6174,
      ",\"": 6175,
      "24": 6176,
      "Again": 6177,
      "Con": 6178,
      "Look": 6179,
      "ade": 6180,
      "bot": 6181,
      "creat": 6182,
      "cru": 6183,
      "ded": 6184,
      "flu": 6185,
      "flow": 6186,
      "gone": 6187,
      "jor": 6188,
      "ling": 6189,
      "nam": 6190,
      "rush": 6191,
      "snow": 6192,
      "tre": 6193,
      "war": 6194,
      "うわー": 6195,
      "お元気ですか": 6196,
      "が見": 6197,
      "ご相談": 6198,
      "と一緒に": 6199,
      "なのは": 6200,
      "の後": 6201,
      "ゆっくり": 6202,
      "ると思います": 6203,
      "わか": 6204,
      "アウ": 6205,
      "カリ": 6206,
      "コード": 6207,
      "シェ": 6208,
      "シュ": 6209,
      "ナル": 6210,
      "バス": 6211,
      "パン": 6212,
      "フル": 6213,
      "中で": 6214,
      "働き": 6215,
      "僕たち": 6216,
      "各部署": 6217,
      "多くの": 6218,
      "建設": 6219,
      "当たり": 6220,
      "応募": 6221,
      "末までに": 6222,
      "業績": 6223,
      "構いません": 6224,
      "様々な": 6225,
      "気に": 6226,
      "決定": 6227,
      "無駄": 6228,
      "発行": 6229,
      "発表": 6230,
      "私から": 6231,
      "種類": 6232,
      "空港": 6233,
      "給料": 6234,
      "聞きました": 6235,
      "若い": 6236,
      "誰かが": 6237,
      "遅れて": 6238,
      "違い": 6239,
      "配送": 6240,
      "駐車": 6241,
      "lex": 6242,
      "level": 6243,
      "して欲しい": 6244,
      "ict": 6245,
      "ないように": 6246,
      "char": 6247,
      "role": 6248,
      "abroad": 6249,
      "dog": 6250,
      "それはいい": 6251,
      "ify": 6252,
      "suit": 6253,
      "いている": 6254,
      "するの": 6255,
      "することは": 6256,
      "ides": 6257,
      "shin": 6258,
      "major": 6259,
      "world": 6260,
      "ではありません": 6261,
      "noticed": 6262,
      "どうな": 6263,
      "quality": 6264,
      "lose": 6265,
      "load": 6266,
      "じゃなくて": 6267,
      "もしくは": 6268,
      "についてお話": 6269,
      "aki": 6270,
      "と思いますが": 6271,
      "prices": 6272,
      "bull": 6273,
      "ットを": 6274,
      "ってるんだ": 6275,
      "lue": 6276,
      "こちらが": 6277,
      "hosp": 6278,
      "させてください": 6279,
      "に行った": 6280,
      "を見つけ": 6281,
      "ランド": 6282,
      "をお持ち": 6283,
      "をお送り": 6284,
      "spot": 6285,
      "ジェイ": 6286,
      "wards": 6287,
      "パーティー": 6288,
      "を持っている": 6289,
      "フォーム": 6290,
      "industries": 6291,
      "プロジェクトの": 6292,
      "airs": 6293,
      "ウェア": 6294,
      "しかない": 6295,
      "我々の": 6296,
      "States": 6297,
      "depends": 6298,
      "アドレス": 6299,
      "インターネット": 6300,
      "given": 6301,
      "Absolutely": 6302,
      "落ち着": 6303,
      "colleag": 6304,
      "自動車": 6305,
      "estimate": 6306,
      "に対して": 6307,
      "color": 6308,
      "suppliers": 6309,
      "consult": 6310,
      "セキュリティ": 6311,
      "credit": 6312,
      "\".": 6313,
      "PD": 6314,
      "aim": 6315,
      "bro": 6316,
      "bought": 6317,
      "dom": 6318,
      "dam": 6319,
      "dress": 6320,
      "eight": 6321,
      "mas": 6322,
      "mic": 6323,
      "ners": 6324,
      "save": 6325,
      "sick": 6326,
      "uki": 6327,
      "wine": 6328,
      "いって": 6329,
      "おい": 6330,
      "お昼": 6331,
      "が出来": 6332,
      "が好き": 6333,
      "ご迷惑": 6334,
      "だい": 6335,
      "だめ": 6336,
      "つの": 6337,
      "でいい": 6338,
      "なし": 6339,
      "なこと": 6340,
      "にく": 6341,
      "に乗": 6342,
      "に対応": 6343,
      "の大": 6344,
      "はは": 6345,
      "ほぼ": 6346,
      "ほら": 6347,
      "まさ": 6348,
      "らせて": 6349,
      "りが": 6350,
      "を提供": 6351,
      "を決め": 6352,
      "ウォ": 6353,
      "ケーション": 6354,
      "スキ": 6355,
      "ッツ": 6356,
      "テスト": 6357,
      "テーション": 6358,
      "トン": 6359,
      "ニー": 6360,
      "ワー": 6361,
      "一年": 6362,
      "一般": 6363,
      "万ドル": 6364,
      "不安": 6365,
      "事前に": 6366,
      "以前": 6367,
      "体調": 6368,
      "便利": 6369,
      "先生": 6370,
      "内に": 6371,
      "待ち": 6372,
      "想像": 6373,
      "拡大": 6374,
      "日間": 6375,
      "時半": 6376,
      "普通": 6377,
      "最新": 6378,
      "最後に": 6379,
      "次回": 6380,
      "無料": 6381,
      "生徒": 6382,
      "積み": 6383,
      "自己": 6384,
      "見直": 6385,
      "観光": 6386,
      "言った": 6387,
      "計算": 6388,
      "設置": 6389,
      "２週間": 6390,
      "inqu": 6391,
      "rep": 6392,
      "ised": 6393,
      "espe": 6394,
      "stress": 6395,
      "ower": 6396,
      "してます": 6397,
      "していました": 6398,
      "ali": 6399,
      "seven": 6400,
      "ched": 6401,
      "sold": 6402,
      "ross": 6403,
      "uts": 6404,
      "worth": 6405,
      "worries": 6406,
      "trading": 6407,
      "consum": 6408,
      "tail": 6409,
      "pean": 6410,
      "できたら": 6411,
      "updat": 6412,
      "prevent": 6413,
      "impress": 6414,
      "implement": 6415,
      "lost": 6416,
      "according": 6417,
      "production": 6418,
      "pract": 6419,
      "printer": 6420,
      "があるから": 6421,
      "いただきます": 6422,
      "できると思います": 6423,
      "なんですよ": 6424,
      "cheaper": 6425,
      "良いですか": 6426,
      "商品開発": 6427,
      "大丈夫ですか": 6428,
      "だからね": 6429,
      "personally": 6430,
      "いただけます": 6431,
      "みたいです": 6432,
      "あとで": 6433,
      "serve": 6434,
      "そこに": 6435,
      "A社に": 6436,
      "ファンド": 6437,
      "データを": 6438,
      "お待たせ": 6439,
      "experien": 6440,
      "んじゃないですか": 6441,
      "そうだな": 6442,
      "どうもありがとうございます": 6443,
      "University": 6444,
      "True": 6445,
      "くれてありがとう": 6446,
      "opportunities": 6447,
      "single": 6448,
      "最初の": 6449,
      "prepared": 6450,
      "drive": 6451,
      "知り合い": 6452,
      "すべての": 6453,
      "excited": 6454,
      "value": 6455,
      "頑張って": 6456,
      "サンプル": 6457,
      "require": 6458,
      "有難うございます": 6459,
      "スーパー": 6460,
      "楽しみにしています": 6461,
      "popular": 6462,
      "orders": 6463,
      "inconvenience": 6464,
      "types": 6465,
      "legal": 6466,
      "宜しくお願いします": 6467,
      "sudden": 6468,
      "はいくら": 6469,
      "Appare": 6470,
      "めでとう": 6471,
      "especially": 6472,
      "1日": 6473,
      "Asi": 6474,
      "Could": 6475,
      "Dr": 6476,
      "Fe": 6477,
      "Go": 6478,
      "Ki": 6479,
      "Mis": 6480,
      "Mark": 6481,
      "Other": 6482,
      "Res": 6483,
      "base": 6484,
      "cup": 6485,
      "egg": 6486,
      "ges": 6487,
      "gress": 6488,
      "har": 6489,
      "lad": 6490,
      "lately": 6491,
      "ring": 6492,
      "rice": 6493,
      "uary": 6494,
      "vide": 6495,
      "あったら": 6496,
      "お名前": 6497,
      "かに": 6498,
      "かの": 6499,
      "か教えて": 6500,
      "が届": 6501,
      "けば": 6502,
      "ごと": 6503,
      "だいたい": 6504,
      "つける": 6505,
      "で行": 6506,
      "でお願いします": 6507,
      "なぜ": 6508,
      "に移": 6509,
      "の上": 6510,
      "の際": 6511,
      "の商品": 6512,
      "はこの": 6513,
      "はじめ": 6514,
      "べく": 6515,
      "まれて": 6516,
      "みるよ": 6517,
      "めた": 6518,
      "ものは": 6519,
      "りは": 6520,
      "るので": 6521,
      "る前に": 6522,
      "アジ": 6523,
      "イメ": 6524,
      "スポ": 6525,
      "テキ": 6526,
      "ナン": 6527,
      "ラップ": 6528,
      "ルメ": 6529,
      "レジ": 6530,
      "ロゴ": 6531,
      "ロジ": 6532,
      "ーナ": 6533,
      "付き": 6534,
      "何の": 6535,
      "何度": 6536,
      "使って": 6537,
      "取締": 6538,
      "役員": 6539,
      "彼に": 6540,
      "思った": 6541,
      "急ぎ": 6542,
      "息子": 6543,
      "成功": 6544,
      "成長": 6545,
      "採用": 6546,
      "放題": 6547,
      "教え": 6548,
      "方は": 6549,
      "時々": 6550,
      "月曜": 6551,
      "検索": 6552,
      "毎年": 6553,
      "毎日": 6554,
      "画面": 6555,
      "社で": 6556,
      "答え": 6557,
      "見込み": 6558,
      "言葉": 6559,
      "証券": 6560,
      "認証": 6561,
      "調子": 6562,
      "進め": 6563,
      "運送": 6564,
      "野さん": 6565,
      "関税": 6566,
      "食べて": 6567,
      "oud": 6568,
      "thes": 6569,
      "ata": 6570,
      "err": 6571,
      "meal": 6572,
      "separ": 6573,
      "social": 6574,
      "ことで": 6575,
      "progress": 6576,
      "しますので": 6577,
      "goals": 6578,
      "iring": 6579,
      "と思っている": 6580,
      "どうですか": 6581,
      "teen": 6582,
      "offic": 6583,
      "offices": 6584,
      "sight": 6585,
      "partner": 6586,
      "についてです": 6587,
      "時間に": 6588,
      "仕事が": 6589,
      "しまいました": 6590,
      "大丈夫だと思います": 6591,
      "こちらは": 6592,
      "があったら": 6593,
      "finan": 6594,
      "courses": 6595,
      "ための": 6596,
      "出来ます": 6597,
      "になりますか": 6598,
      "putting": 6599,
      "showing": 6600,
      "かしら": 6601,
      "ということですね": 6602,
      "15分": 6603,
      "始めた": 6604,
      "彼女の": 6605,
      "お客様の": 6606,
      "mistake": 6607,
      "大きい": 6608,
      "certain": 6609,
      "transl": 6610,
      "フォー": 6611,
      "ご連絡します": 6612,
      "changing": 6613,
      "umi": 6614,
      "author": 6615,
      "staying": 6616,
      "drinks": 6617,
      "including": 6618,
      "番号は": 6619,
      "気がする": 6620,
      "を取って": 6621,
      "third": 6622,
      "freight": 6623,
      "specific": 6624,
      "ときに": 6625,
      "June": 6626,
      "audit": 6627,
      "huh": 6628,
      "operations": 6629,
      "words": 6630,
      "ブラウン": 6631,
      "parking": 6632,
      "一日を": 6633,
      "具体的に": 6634,
      "はいかがですか": 6635,
      "location": 6636,
      "かも知れない": 6637,
      "drop": 6638,
      "チャンス": 6639,
      "pieces": 6640,
      "スタートアップ": 6641,
      "差し上げ": 6642,
      "ひとつ": 6643,
      "あんまり": 6644,
      "カレンダー": 6645,
      "履歴書": 6646,
      "アウト": 6647,
      "bullet": 6648,
      "アジア": 6649,
      "イメージ": 6650,
      "ラップトップ": 6651,
      "取締役": 6652,
      "16": 6653,
      "Hu": 6654,
      "Mat": 6655,
      "Pe": 6656,
      "cast": 6657,
      "fa": 6658,
      "ili": 6659,
      "ji": 6660,
      "ked": 6661,
      "ping": 6662,
      "sat": 6663,
      "tick": 6664,
      "text": 6665,
      "お休み": 6666,
      "が変わ": 6667,
      "げて": 6668,
      "ここの": 6669,
      "たって": 6670,
      "なにか": 6671,
      "の数": 6672,
      "の量": 6673,
      "はまだ": 6674,
      "みましょう": 6675,
      "やあ": 6676,
      "を変": 6677,
      "を上げ": 6678,
      "を選択": 6679,
      "をクリック": 6680,
      "イス": 6681,
      "オファー": 6682,
      "ケート": 6683,
      "ゲット": 6684,
      "サル": 6685,
      "ジション": 6686,
      "ダメ": 6687,
      "プション": 6688,
      "ポジション": 6689,
      "人で": 6690,
      "今朝": 6691,
      "以降": 6692,
      "会う": 6693,
      "伸び": 6694,
      "住所": 6695,
      "使う": 6696,
      "公開": 6697,
      "内で": 6698,
      "出勤": 6699,
      "利永": 6700,
      "助け": 6701,
      "助けて": 6702,
      "原因": 6703,
      "受付": 6704,
      "回答": 6705,
      "増えて": 6706,
      "女性": 6707,
      "完了": 6708,
      "家に": 6709,
      "小さい": 6710,
      "幾つか": 6711,
      "後ほど": 6712,
      "扱い": 6713,
      "替え": 6714,
      "月の": 6715,
      "月曜日": 6716,
      "機関": 6717,
      "段階": 6718,
      "気になる": 6719,
      "気持ち": 6720,
      "決めて": 6721,
      "為に": 6722,
      "現地": 6723,
      "皆様": 6724,
      "緊急": 6725,
      "翻訳": 6726,
      "能勢": 6727,
      "自身": 6728,
      "見せ": 6729,
      "賛成": 6730,
      "輸入": 6731,
      "込んで": 6732,
      "返品": 6733,
      "過ご": 6734,
      "韓国": 6735,
      "頼んで": 6736,
      "ancy": 6737,
      "reti": 6738,
      "reco": 6739,
      "lling": 6740,
      "itions": 6741,
      "wear": 6742,
      "したのですが": 6743,
      "そうします": 6744,
      "そうすると": 6745,
      "doctor": 6746,
      "iff": 6747,
      "いたら": 6748,
      "mag": 6749,
      "いいね": 6750,
      "trust": 6751,
      "と思ってる": 6752,
      "ようなら": 6753,
      "urgent": 6754,
      "waste": 6755,
      "likely": 6756,
      "known": 6757,
      "polic": 6758,
      "active": 6759,
      "particip": 6760,
      "それは助かります": 6761,
      "spect": 6762,
      "うちに": 6763,
      "もう一度": 6764,
      "format": 6765,
      "きますね": 6766,
      "ことがあります": 6767,
      "なるべく": 6768,
      "clothes": 6769,
      "製品は": 6770,
      "ivid": 6771,
      "したいと思います": 6772,
      "日本に": 6773,
      "ちゃう": 6774,
      "finally": 6775,
      "いただけると": 6776,
      "みたいで": 6777,
      "planned": 6778,
      "inves": 6779,
      "会議の": 6780,
      "sheet": 6781,
      "聞いてみます": 6782,
      "hands": 6783,
      "明日は": 6784,
      "してもらえる": 6785,
      "managing": 6786,
      "なのに": 6787,
      "できますよ": 6788,
      "コンテナ": 6789,
      "tried": 6790,
      "私たちが": 6791,
      "trainings": 6792,
      "mostly": 6793,
      "media": 6794,
      "お電話ありがとうございます": 6795,
      "transport": 6796,
      "システムの": 6797,
      "しようか": 6798,
      "airport": 6799,
      "Anyway": 6800,
      "が必要です": 6801,
      "ご連絡ください": 6802,
      "student": 6803,
      "アンケート": 6804,
      "ベンさん": 6805,
      "drinking": 6806,
      "かもしれませんね": 6807,
      "を入れて": 6808,
      "色々と": 6809,
      "Kore": 6810,
      "最初に": 6811,
      "あげて": 6812,
      "やり方": 6813,
      "easily": 6814,
      "totally": 6815,
      "こんなに": 6816,
      "approved": 6817,
      "imagine": 6818,
      "supervis": 6819,
      "mission": 6820,
      "立ち上げ": 6821,
      "organiz": 6822,
      "美味しい": 6823,
      "continue": 6824,
      "ニュース": 6825,
      "original": 6826,
      "administration": 6827,
      "bags": 6828,
      "appropri": 6829,
      "American": 6830,
      "electric": 6831,
      "candidates": 6832,
      "り返し": 6833,
      "パートナー": 6834,
      "calendar": 6835,
      "camera": 6836,
      "conversation": 6837,
      "PDF": 6838,
      "スキル": 6839,
      "People": 6840,
      "satis": 6841,
      ".\"": 6842,
      "His": 6843,
      "ID": 6844,
      "Kaw": 6845,
      "Mor": 6846,
      "Nor": 6847,
      "Ro": 6848,
      "Taka": 6849,
      "Take": 6850,
      "afr": 6851,
      "bi": 6852,
      "dish": 6853,
      "eye": 6854,
      "fair": 6855,
      "gave": 6856,
      "hind": 6857,
      "ially": 6858,
      "ny": 6859,
      "pan": 6860,
      "pen": 6861,
      "pull": 6862,
      "sus": 6863,
      "sav": 6864,
      "かける": 6865,
      "が悪い": 6866,
      "くれます": 6867,
      "しろ": 6868,
      "そらく": 6869,
      "たま": 6870,
      "と言う": 6871,
      "と言わ": 6872,
      "に向": 6873,
      "みた": 6874,
      "らせ": 6875,
      "を与": 6876,
      "を得": 6877,
      "を通": 6878,
      "を雇": 6879,
      "ケー": 6880,
      "テク": 6881,
      "ハラ": 6882,
      "バル": 6883,
      "ュニ": 6884,
      "リスク": 6885,
      "レット": 6886,
      "ワイン": 6887,
      "ワード": 6888,
      "上の": 6889,
      "乗り": 6890,
      "事も": 6891,
      "交通": 6892,
      "付けて": 6893,
      "会計": 6894,
      "何で": 6895,
      "何年": 6896,
      "保存": 6897,
      "優先": 6898,
      "元に": 6899,
      "入力": 6900,
      "出す": 6901,
      "卒業": 6902,
      "合って": 6903,
      "呼び": 6904,
      "喜んで": 6905,
      "大体": 6906,
      "安心": 6907,
      "完成": 6908,
      "室の": 6909,
      "少ない": 6910,
      "展示": 6911,
      "強い": 6912,
      "忘れない": 6913,
      "指示": 6914,
      "整理": 6915,
      "時で": 6916,
      "材料": 6917,
      "比較": 6918,
      "済み": 6919,
      "渡し": 6920,
      "物は": 6921,
      "特許": 6922,
      "生活": 6923,
      "産休": 6924,
      "目的": 6925,
      "繋が": 6926,
      "自信": 6927,
      "藤さん": 6928,
      "講師": 6929,
      "議題": 6930,
      "車両": 6931,
      "運営": 6932,
      "集中": 6933,
      "電気": 6934,
      "ination": 6935,
      "inside": 6936,
      "reli": 6937,
      "lled": 6938,
      "ordin": 6939,
      "ですけど": 6940,
      "してい": 6941,
      "してほしい": 6942,
      "した方が": 6943,
      "anytime": 6944,
      "These": 6945,
      "compl": 6946,
      "ことです": 6947,
      "amura": 6948,
      "それじゃあ": 6949,
      "それとも": 6950,
      "するか": 6951,
      "tru": 6952,
      "ではまた": 6953,
      "んだが": 6954,
      "のでしょうか": 6955,
      "tage": 6956,
      "aga": 6957,
      "でもいい": 6958,
      "ませんでした": 6959,
      "だけです": 6960,
      "six": 6961,
      "individ": 6962,
      "accommo": 6963,
      "manual": 6964,
      "calls": 6965,
      "overall": 6966,
      "ならば": 6967,
      "introduct": 6968,
      "isting": 6969,
      "hires": 6970,
      "resour": 6971,
      "resident": 6972,
      "grab": 6973,
      "ところです": 6974,
      "ターゲット": 6975,
      "clos": 6976,
      "あなたに": 6977,
      "lumber": 6978,
      "リーです": 6979,
      "本当ですか": 6980,
      "において": 6981,
      "tors": 6982,
      "社員に": 6983,
      "strateg": 6984,
      "どこで": 6985,
      "皆さんに": 6986,
      "知らせて": 6987,
      "終わり": 6988,
      "black": 6989,
      "プレゼント": 6990,
      "evac": 6991,
      "を作成": 6992,
      "dealing": 6993,
      "させていただきました": 6994,
      "booked": 6995,
      "いらっしゃいますか": 6996,
      "prior": 6997,
      "去年の": 6998,
      "研究所": 6999,
      "業界に": 7000,
      "意見を": 7001,
      "deliver": 7002,
      "オープ": 7003,
      "アイディア": 7004,
      "あれは": 7005,
      "confirmation": 7006,
      "convenient": 7007,
      "engineers": 7008,
      "depending": 7009,
      "向けの": 7010,
      "マイク": 7011,
      "sale": 7012,
      "・・・": 7013,
      "choice": 7014,
      "entertain": 7015,
      "About": 7016,
      "Brown": 7017,
      "risk": 7018,
      "お疲れ様です": 7019,
      "よろしくお願いいたします": 7020,
      "compared": 7021,
      "source": 7022,
      "menu": 7023,
      "エレイン": 7024,
      "advertise": 7025,
      "締め切り": 7026,
      "コミュニ": 7027,
      "少なくとも": 7028,
      "survey": 7029,
      "セミナー": 7030,
      "afraid": 7031,
      "17": 7032,
      "Gu": 7033,
      "Hotel": 7034,
      "Kan": 7035,
      "Mur": 7036,
      "San": 7037,
      "Umm": 7038,
      "Yup": 7039,
      "cat": 7040,
      "caf": 7041,
      "categ": 7042,
      "dig": 7043,
      "green": 7044,
      "kun": 7045,
      "knew": 7046,
      "lt": 7047,
      "lines": 7048,
      "mot": 7049,
      "mul": 7050,
      "net": 7051,
      "nity": 7052,
      "ped": 7053,
      "vation": 7054,
      "おめでとう": 7055,
      "かかります": 7056,
      "が高": 7057,
      "さあ": 7058,
      "さえ": 7059,
      "そこの": 7060,
      "だろ": 7061,
      "であれば": 7062,
      "なって": 7063,
      "なのですが": 7064,
      "のように": 7065,
      "るって": 7066,
      "を含": 7067,
      "を考えて": 7068,
      "を導入": 7069,
      "アカ": 7070,
      "イッチ": 7071,
      "オリ": 7072,
      "オプション": 7073,
      "ジム": 7074,
      "セール": 7075,
      "ソー": 7076,
      "ッパ": 7077,
      "ナッツ": 7078,
      "ニーズ": 7079,
      "バージ": 7080,
      "フライ": 7081,
      "マス": 7082,
      "リュ": 7083,
      "リリース": 7084,
      "ンさん": 7085,
      "一回": 7086,
      "不満": 7087,
      "作って": 7088,
      "作った": 7089,
      "元の": 7090,
      "入社": 7091,
      "再度": 7092,
      "分かり": 7093,
      "古い": 7094,
      "君に": 7095,
      "学ぶ": 7096,
      "広告": 7097,
      "挨拶": 7098,
      "掃除": 7099,
      "数の": 7100,
      "最低": 7101,
      "条件": 7102,
      "検査": 7103,
      "楽しい": 7104,
      "点は": 7105,
      "発生": 7106,
      "登録": 7107,
      "約束": 7108,
      "署名": 7109,
      "者は": 7110,
      "証明": 7111,
      "評判": 7112,
      "読み": 7113,
      "誰が": 7114,
      "負担": 7115,
      "追跡": 7116,
      "退職": 7117,
      "通知": 7118,
      "鈴木": 7119,
      "項目": 7120,
      "飛行": 7121,
      "init": 7122,
      "input": 7123,
      "oun": 7124,
      "ani": 7125,
      "ref": 7126,
      "atulations": 7127,
      "erg": 7128,
      "esome": 7129,
      "behind": 7130,
      "っていました": 7131,
      "alright": 7132,
      "hai": 7133,
      "icy": 7134,
      "eting": 7135,
      "chart": 7136,
      "cture": 7137,
      "ったり": 7138,
      "いますが": 7139,
      "areas": 7140,
      "lid": 7141,
      "users": 7142,
      "ことになる": 7143,
      "はいいですね": 7144,
      "sharing": 7145,
      "male": 7146,
      "んだから": 7147,
      "んだろう": 7148,
      "ですかね": 7149,
      "wash": 7150,
      "どうやら": 7151,
      "aging": 7152,
      "felt": 7153,
      "りますか": 7154,
      "りますよ": 7155,
      "moto": 7156,
      "action": 7157,
      "acc": 7158,
      "ntly": 7159,
      "時間も": 7160,
      "もらった": 7161,
      "それは良かった": 7162,
      "hasn": 7163,
      "pped": 7164,
      "helping": 7165,
      "しているんです": 7166,
      "良いですね": 7167,
      "Nose": 7168,
      "れたら": 7169,
      "ストレス": 7170,
      "ものです": 7171,
      "したいです": 7172,
      "こちらに": 7173,
      "standard": 7174,
      "Therefore": 7175,
      "なんだよね": 7176,
      "brand": 7177,
      "added": 7178,
      "してみよう": 7179,
      "commit": 7180,
      "commute": 7181,
      "possibility": 7182,
      "Toshin": 7183,
      "projects": 7184,
      "営業部": 7185,
      "writing": 7186,
      "shall": 7187,
      "facilities": 7188,
      "ということです": 7189,
      "らしいよ": 7190,
      "reception": 7191,
      "forwarder": 7192,
      "を使用": 7193,
      "basic": 7194,
      "そういうこと": 7195,
      "detailed": 7196,
      "契約書": 7197,
      "Anything": 7198,
      "Anyways": 7199,
      "どれだけ": 7200,
      "schools": 7201,
      "lower": 7202,
      "言うと": 7203,
      "くなって": 7204,
      "タイム": 7205,
      "関係を": 7206,
      "supply": 7207,
      "ってもらう": 7208,
      "restaurants": 7209,
      "expecting": 7210,
      "manufacture": 7211,
      "purchase": 7212,
      "introdu": 7213,
      "tours": 7214,
      "atory": 7215,
      "ほとんどの": 7216,
      "基本的に": 7217,
      "だと思うよ": 7218,
      "の手配": 7219,
      "代わりました": 7220,
      "placed": 7221,
      "safe": 7222,
      "株式会社": 7223,
      "ソフトウェア": 7224,
      "くださって": 7225,
      "かも知れません": 7226,
      "holiday": 7227,
      "holidays": 7228,
      "fifty": 7229,
      "がありまして": 7230,
      "Suz": 7231,
      "assigned": 7232,
      "cases": 7233,
      "norm": 7234,
      "ユーザー": 7235,
      "domest": 7236,
      "ご迷惑をお": 7237,
      "Apparently": 7238,
      "Kiichi": 7239,
      "transportation": 7240,
      "categor": 7241,
      "Toshinaga": 7242,
      "89": 7243,
      "Bob": 7244,
      "CR": 7245,
      "Dire": 7246,
      "Gr": 7247,
      "Ha": 7248,
      "IR": 7249,
      "Last": 7250,
      "Nice": 7251,
      "Nak": 7252,
      "Nancy": 7253,
      "bile": 7254,
      "batter": 7255,
      "cow": 7256,
      "eal": 7257,
      "lack": 7258,
      "law": 7259,
      "pm": 7260,
      "rance": 7261,
      "sir": 7262,
      "sca": 7263,
      "tif": 7264,
      "whe": 7265,
      "。。": 7266,
      "あって": 7267,
      "いま": 7268,
      "おっしゃ": 7269,
      "お忙しい": 7270,
      "が終わ": 7271,
      "こない": 7272,
      "ごめ": 7273,
      "ご説明": 7274,
      "ご希望": 7275,
      "しければ": 7276,
      "たかった": 7277,
      "つい": 7278,
      "どっち": 7279,
      "に住": 7280,
      "にいる": 7281,
      "にこの": 7282,
      "に参加": 7283,
      "のほう": 7284,
      "の通り": 7285,
      "はその": 7286,
      "はどのくらい": 7287,
      "ひど": 7288,
      "もいい": 7289,
      "らず": 7290,
      "るわ": 7291,
      "れますか": 7292,
      "を説明": 7293,
      "アレ": 7294,
      "ウント": 7295,
      "カナ": 7296,
      "クター": 7297,
      "スム": 7298,
      "スピー": 7299,
      "タブ": 7300,
      "デル": 7301,
      "ドア": 7302,
      "パス": 7303,
      "ペー": 7304,
      "ボブ": 7305,
      "ミング": 7306,
      "リク": 7307,
      "リス": 7308,
      "ルール": 7309,
      "レート": 7310,
      "レベル": 7311,
      "ロック": 7312,
      "ーカー": 7313,
      "今期": 7314,
      "仕様": 7315,
      "会場": 7316,
      "何時": 7317,
      "信じ": 7318,
      "信頼": 7319,
      "倉庫": 7320,
      "印象": 7321,
      "合計": 7322,
      "困った": 7323,
      "夕方": 7324,
      "外出": 7325,
      "大手": 7326,
      "存じ": 7327,
      "宜しい": 7328,
      "尽く": 7329,
      "川さん": 7330,
      "広報": 7331,
      "忘れて": 7332,
      "探し": 7333,
      "文字": 7334,
      "既存": 7335,
      "昼食": 7336,
      "有名": 7337,
      "期限": 7338,
      "機械": 7339,
      "用紙": 7340,
      "田です": 7341,
      "田と申します": 7342,
      "発売": 7343,
      "皆さんの": 7344,
      "自転": 7345,
      "致しました": 7346,
      "要望": 7347,
      "見つけ": 7348,
      "訓練": 7349,
      "訪問": 7350,
      "診断": 7351,
      "誰も": 7352,
      "課題": 7353,
      "資産": 7354,
      "進捗": 7355,
      "達成": 7356,
      "金を": 7357,
      "需要": 7358,
      "throw": 7359,
      "replace": 7360,
      "remind": 7361,
      "resume": 7362,
      "veget": 7363,
      "step": 7364,
      "measure": 7365,
      "してから": 7366,
      "してきました": 7367,
      "alo": 7368,
      "icle": 7369,
      "からも": 7370,
      "solid": 7371,
      "anyway": 7372,
      "Those": 7373,
      "abor": 7374,
      "そうで": 7375,
      "cere": 7376,
      "cember": 7377,
      "among": 7378,
      "adjust": 7379,
      "するので": 7380,
      "するべき": 7381,
      "いるから": 7382,
      "どういった": 7383,
      "ended": 7384,
      "exchange": 7385,
      "existing": 7386,
      "quit": 7387,
      "tered": 7388,
      "この後": 7389,
      "この辺": 7390,
      "この間": 7391,
      "もしか": 7392,
      "につき": 7393,
      "covered": 7394,
      "fold": 7395,
      "時間の": 7396,
      "があるか": 7397,
      "これを": 7398,
      "電話で": 7399,
      "starts": 7400,
      "でしたよね": 7401,
      "ists": 7402,
      "仕事は": 7403,
      "grad": 7404,
      "だったよ": 7405,
      "何か質問": 7406,
      "何か問題": 7407,
      "ものを": 7408,
      "たちが": 7409,
      "と思うので": 7410,
      "ここまで": 7411,
      "stor": 7412,
      "problems": 7413,
      "strict": 7414,
      "るのが": 7415,
      "お電話代わりました": 7416,
      "お客様が": 7417,
      "certif": 7418,
      "smart": 7419,
      "opening": 7420,
      "書類を": 7421,
      "んじゃないかな": 7422,
      "maternity": 7423,
      "000ドル": 7424,
      "scen": 7425,
      "グラフ": 7426,
      "人事部": 7427,
      "引き出し": 7428,
      "sens": 7429,
      "関係の": 7430,
      "申し訳ない": 7431,
      "arranging": 7432,
      "言われて": 7433,
      "reasonable": 7434,
      "バイト": 7435,
      "solut": 7436,
      "を入れる": 7437,
      "techn": 7438,
      "お時間を": 7439,
      "focused": 7440,
      "December": 7441,
      "function": 7442,
      "どのようなご用件": 7443,
      "の中で": 7444,
      "gifts": 7445,
      "answers": 7446,
      "Station": 7447,
      "tons": 7448,
      "purchased": 7449,
      "選択肢": 7450,
      "filled": 7451,
      "個人的に": 7452,
      "USB": 7453,
      "copies": 7454,
      "tariff": 7455,
      "sleep": 7456,
      "Because": 7457,
      "思い出": 7458,
      "ッケー": 7459,
      "大切な": 7460,
      "college": 7461,
      "itors": 7462,
      "shoot": 7463,
      "guests": 7464,
      "instructor": 7465,
      "とんでもないです": 7466,
      "Euro": 7467,
      "Tech": 7468,
      "いきましょう": 7469,
      "concerns": 7470,
      "startups": 7471,
      "gathering": 7472,
      "efficient": 7473,
      "sample": 7474,
      "safety": 7475,
      "preparing": 7476,
      "アクセス": 7477,
      "hospital": 7478,
      "はじめまして": 7479,
      "ナンシー": 7480,
      "appropriate": 7481,
      "オープン": 7482,
      "コミュニケーション": 7483,
      "アカウント": 7484,
      "バージョン": 7485,
      "飛行機": 7486,
      "Director": 7487,
      "cowork": 7488,
      "scale": 7489,
      "自転車": 7490,
      "45": 7491,
      "Air": 7492,
      "Come": 7493,
      "Jack": 7494,
      "Ken": 7495,
      "Mike": 7496,
      "Oc": 7497,
      "Per": 7498,
      "Satur": 7499,
      "Tim": 7500,
      "Talk": 7501,
      "aight": 7502,
      "blue": 7503,
      "cook": 7504,
      "da": 7505,
      "econ": 7506,
      "fis": 7507,
      "hous": 7508,
      "iqu": 7509,
      "kawa": 7510,
      "ls": 7511,
      "na": 7512,
      "round": 7513,
      "rail": 7514,
      "sme": 7515,
      "spo": 7516,
      "spr": 7517,
      "tu": 7518,
      "ture": 7519,
      "treat": 7520,
      "ued": 7521,
      "vend": 7522,
      "ware": 7523,
      "wind": 7524,
      "えれば": 7525,
      "お手伝い": 7526,
      "おそらく": 7527,
      "が来": 7528,
      "が欲しい": 7529,
      "が高い": 7530,
      "ぎり": 7531,
      "けない": 7532,
      "ごろ": 7533,
      "ご興味": 7534,
      "しなかった": 7535,
      "すが": 7536,
      "ずつ": 7537,
      "たんだけど": 7538,
      "でね": 7539,
      "とい": 7540,
      "となる": 7541,
      "に変": 7542,
      "にあります": 7543,
      "に置いて": 7544,
      "の下": 7545,
      "のよね": 7546,
      "の確認": 7547,
      "のような": 7548,
      "の売上": 7549,
      "はありません": 7550,
      "ほどの": 7551,
      "めの": 7552,
      "よし": 7553,
      "るね": 7554,
      "るんですか": 7555,
      "エク": 7556,
      "エスト": 7557,
      "オッケー": 7558,
      "クラ": 7559,
      "クレジ": 7560,
      "ケース": 7561,
      "シート": 7562,
      "スライ": 7563,
      "ソナ": 7564,
      "ビール": 7565,
      "ペル": 7566,
      "メーカー": 7567,
      "リック": 7568,
      "ロン": 7569,
      "上で": 7570,
      "人々": 7571,
      "人気": 7572,
      "今すぐ": 7573,
      "任せ": 7574,
      "会は": 7575,
      "佐々": 7576,
      "何でしょう": 7577,
      "何とか": 7578,
      "先の": 7579,
      "入って": 7580,
      "冷蔵": 7581,
      "利益": 7582,
      "品の": 7583,
      "国の": 7584,
      "声を": 7585,
      "大型": 7586,
      "完璧": 7587,
      "実施": 7588,
      "小売": 7589,
      "当初": 7590,
      "役に": 7591,
      "役職": 7592,
      "得意": 7593,
      "急いで": 7594,
      "手順": 7595,
      "手続き": 7596,
      "折り返し": 7597,
      "指定": 7598,
      "木曜": 7599,
      "機密": 7600,
      "決ま": 7601,
      "決断": 7602,
      "特化": 7603,
      "男性": 7604,
      "異動": 7605,
      "確定": 7606,
      "私ど": 7607,
      "考慮": 7608,
      "者も": 7609,
      "聞きたい": 7610,
      "言語": 7611,
      "設備": 7612,
      "貢献": 7613,
      "込む": 7614,
      "遠慮": 7615,
      "郵便": 7616,
      "頂いた": 7617,
      "順調": 7618,
      "reduct": 7619,
      "reduce": 7620,
      "retail": 7621,
      "tober": 7622,
      "iss": 7623,
      "estern": 7624,
      "stre": 7625,
      "stat": 7626,
      "hello": 7627,
      "weather": 7628,
      "していただけますか": 7629,
      "したくない": 7630,
      "secre": 7631,
      "hall": 7632,
      "entrance": 7633,
      "icing": 7634,
      "ないか": 7635,
      "から始め": 7636,
      "willing": 7637,
      "liked": 7638,
      "rilled": 7639,
      "advis": 7640,
      "するのを": 7641,
      "contri": 7642,
      "ustr": 7643,
      "tag": 7644,
      "どうしても": 7645,
      "mobile": 7646,
      "でもない": 7647,
      "だけに": 7648,
      "ございますか": 7649,
      "across": 7650,
      "時間ある": 7651,
      "typic": 7652,
      "できるか": 7653,
      "speed": 7654,
      "でしたよ": 7655,
      "positive": 7656,
      "しまい": 7657,
      "しまいます": 7658,
      "ようにします": 7659,
      "resched": 7660,
      "ground": 7661,
      "foreign": 7662,
      "商品が": 7663,
      "んでください": 7664,
      "いつ頃": 7665,
      "ことができます": 7666,
      "checking": 7667,
      "Although": 7668,
      "avy": 7669,
      "したいので": 7670,
      "になると": 7671,
      "日本人": 7672,
      "ちゃって": 7673,
      "ちゃった": 7674,
      "telling": 7675,
      "stores": 7676,
      "earning": 7677,
      "よりは": 7678,
      "そこから": 7679,
      "そこまで": 7680,
      "になりますね": 7681,
      "straight": 7682,
      "に入って": 7683,
      "っておいて": 7684,
      "んだよな": 7685,
      "の方に": 7686,
      "glass": 7687,
      "のお店": 7688,
      "営業の": 7689,
      "サーバー": 7690,
      "shared": 7691,
      "担当の": 7692,
      "今年も": 7693,
      "listed": 7694,
      "マーク": 7695,
      "たくさんの": 7696,
      "Excel": 7697,
      "sitting": 7698,
      "を使う": 7699,
      "社長の": 7700,
      "opened": 7701,
      "wonderful": 7702,
      "みんなに": 7703,
      "achie": 7704,
      "部署の": 7705,
      "relax": 7706,
      "と思っていた": 7707,
      "explained": 7708,
      "レーション": 7709,
      "プレゼンテーション": 7710,
      "autom": 7711,
      "だろうね": 7712,
      "は何ですか": 7713,
      "reports": 7714,
      "くれますか": 7715,
      "simply": 7716,
      "現在の": 7717,
      "buying": 7718,
      "fried": 7719,
      "去年は": 7720,
      "研究開発": 7721,
      "提案書": 7722,
      "applications": 7723,
      "visiting": 7724,
      "figures": 7725,
      "詳細を": 7726,
      "exciting": 7727,
      "上司に": 7728,
      "result": 7729,
      "classes": 7730,
      "eventually": 7731,
      "human": 7732,
      "viously": 7733,
      "leader": 7734,
      "labe": 7735,
      "絶対に": 7736,
      "スペース": 7737,
      "なりません": 7738,
      "佐藤部長": 7739,
      "container": 7740,
      "parents": 7741,
      "助かるよ": 7742,
      "eteria": 7743,
      "よろしくお願い致します": 7744,
      "小さな": 7745,
      "letters": 7746,
      "seriously": 7747,
      "シンプル": 7748,
      "feature": 7749,
      "頂けますか": 7750,
      "files": 7751,
      "seminar": 7752,
      "colleagues": 7753,
      "updated": 7754,
      "error": 7755,
      "fault": 7756,
      "retire": 7757,
      "recogn": 7758,
      "policy": 7759,
      "cafeteria": 7760,
      "セールス": 7761,
      "ソーシャ": 7762,
      "manufacturer": 7763,
      "domestic": 7764,
      "カナダ": 7765,
      "リクエスト": 7766,
      "October": 7767,
      "econom": 7768,
      "fiscal": 7769,
      "クレジット": 7770,
      "ペルソナ": 7771,
      "14": 7772,
      "1つ": 7773,
      "2週間": 7774,
      "Ad": 7775,
      "Ap": 7776,
      "A大学": 7777,
      "Bの": 7778,
      "Espe": 7779,
      "Mas": 7780,
      "Mari": 7781,
      "Se": 7782,
      "Seat": 7783,
      "Sai": 7784,
      "aver": 7785,
      "bon": 7786,
      "bor": 7787,
      "bother": 7788,
      "cri": 7789,
      "city": 7790,
      "dan": 7791,
      "dad": 7792,
      "dge": 7793,
      "ff": 7794,
      "fing": 7795,
      "fact": 7796,
      "fish": 7797,
      "gest": 7798,
      "hate": 7799,
      "ko": 7800,
      "lat": 7801,
      "lading": 7802,
      "sn": 7803,
      "sand": 7804,
      "ya": 7805,
      "々に": 7806,
      "お互": 7807,
      "お弁当": 7808,
      "がつ": 7809,
      "ご飯": 7810,
      "そしたら": 7811,
      "たよ": 7812,
      "どん": 7813,
      "なところ": 7814,
      "に戻": 7815,
      "に見": 7816,
      "にした": 7817,
      "に連れて": 7818,
      "の結果": 7819,
      "みに": 7820,
      "よな": 7821,
      "るよう": 7822,
      "をしています": 7823,
      "を担当": 7824,
      "ガソ": 7825,
      "キング": 7826,
      "スコ": 7827,
      "ダウン": 7828,
      "ッグ": 7829,
      "ハワイ": 7830,
      "フロ": 7831,
      "ブランド": 7832,
      "プラン": 7833,
      "ボーナ": 7834,
      "ポール": 7835,
      "メイン": 7836,
      "メニュー": 7837,
      "モデル": 7838,
      "一旦": 7839,
      "不明": 7840,
      "世代": 7841,
      "中の": 7842,
      "久し": 7843,
      "二つ": 7844,
      "他には": 7845,
      "付ける": 7846,
      "会って": 7847,
      "住宅": 7848,
      "何でも": 7849,
      "作り": 7850,
      "供給": 7851,
      "借り": 7852,
      "助かりました": 7853,
      "勧め": 7854,
      "専務": 7855,
      "帰って": 7856,
      "年に": 7857,
      "年末": 7858,
      "忙しく": 7859,
      "意外": 7860,
      "懸命": 7861,
      "戦略": 7862,
      "招待": 7863,
      "掲載": 7864,
      "数が": 7865,
      "新た": 7866,
      "普段": 7867,
      "本さん": 7868,
      "来ます": 7869,
      "棠部長": 7870,
      "機器": 7871,
      "決まった": 7872,
      "海棠部長": 7873,
      "火災": 7874,
      "焼き": 7875,
      "病院": 7876,
      "盛り": 7877,
      "真面": 7878,
      "社と": 7879,
      "社から": 7880,
      "給与": 7881,
      "維持": 7882,
      "落と": 7883,
      "言い": 7884,
      "言ってる": 7885,
      "足り": 7886,
      "送ります": 7887,
      "達は": 7888,
      "開催": 7889,
      "関わ": 7890,
      "頂いて": 7891,
      "１２": 7892,
      "ins": 7893,
      "reme": 7894,
      "reput": 7895,
      "ingred": 7896,
      "itself": 7897,
      "ますよね": 7898,
      "って感じ": 7899,
      "していいですか": 7900,
      "してきた": 7901,
      "forty": 7902,
      "alone": 7903,
      "ないの": 7904,
      "kept": 7905,
      "utili": 7906,
      "そうですが": 7907,
      "そうすれば": 7908,
      "demon": 7909,
      "ooper": 7910,
      "ましたか": 7911,
      "comfort": 7912,
      "さんを": 7913,
      "ours": 7914,
      "ことある": 7915,
      "それって": 7916,
      "それはいいですね": 7917,
      "ified": 7918,
      "proof": 7919,
      "する予定です": 7920,
      "しますが": 7921,
      "いるんです": 7922,
      "ters": 7923,
      "どう思": 7924,
      "exper": 7925,
      "activ": 7926,
      "についても": 7927,
      "permit": 7928,
      "permission": 7929,
      "emp": 7930,
      "prot": 7931,
      "newly": 7932,
      "letting": 7933,
      "なくなる": 7934,
      "っているので": 7935,
      "hired": 7936,
      "hibit": 7937,
      "仕事で": 7938,
      "仕事をする": 7939,
      "もう一つ": 7940,
      "だったの": 7941,
      "Canada": 7942,
      "forest": 7943,
      "ところは": 7944,
      "連絡先": 7945,
      "ished": 7946,
      "と思うのですが": 7947,
      "closing": 7948,
      "Andy": 7949,
      "mining": 7950,
      "awesome": 7951,
      "ちゃん": 7952,
      "リーン": 7953,
      "なかったら": 7954,
      "なかったんだ": 7955,
      "なんとか": 7956,
      "server": 7957,
      "ほうから": 7958,
      "社員が": 7959,
      "くれるかな": 7960,
      "feels": 7961,
      "visual": 7962,
      "commer": 7963,
      "writ": 7964,
      "チームに": 7965,
      "研修の": 7966,
      "顧客が": 7967,
      "お客様に": 7968,
      "スタント": 7969,
      "calm": 7970,
      "を使った": 7971,
      "取り組": 7972,
      "effort": 7973,
      "とは思": 7974,
      "みんなで": 7975,
      "generation": 7976,
      "ホテルは": 7977,
      "turned": 7978,
      "興味深": 7979,
      "書類の": 7980,
      "Chris": 7981,
      "すればいい": 7982,
      "trips": 7983,
      "gina": 7984,
      "direction": 7985,
      "失礼いたします": 7986,
      "requests": 7987,
      "アンディ": 7988,
      "senior": 7989,
      "くなります": 7990,
      "internet": 7991,
      "internally": 7992,
      "購入した": 7993,
      "全員が": 7994,
      "っぱい": 7995,
      "リンピック": 7996,
      "ご用意": 7997,
      "来月の": 7998,
      "をご覧": 7999,
      "considering": 8000,
      "Yamada": 8001,
      "ショップ": 8002,
      "promotion": 8003,
      "責任者": 8004,
      "っきり": 8005,
      "investment": 8006,
      "required": 8007,
      "株主総会": 8008,
      "株式公開": 8009,
      "opinions": 8010,
      "growth": 8011,
      "successful": 8012,
      "appli": 8013,
      "させて頂きます": 8014,
      "listening": 8015,
      "connected": 8016,
      "センサー": 8017,
      "外国人": 8018,
      "わざわざ": 8019,
      "topics": 8020,
      "Eugina": 8021,
      "communicate": 8022,
      "を増やす": 8023,
      "fixed": 8024,
      "benefits": 8025,
      "シアトル": 8026,
      "健康診断": 8027,
      "ありがたいです": 8028,
      "カスタマーサービス": 8029,
      "trend": 8030,
      "consumers": 8031,
      "Otherwise": 8032,
      "financial": 8033,
      "フォーマ": 8034,
      "supervisor": 8035,
      "individual": 8036,
      "Suzuki": 8037,
      "whether": 8038,
      "宜しいでしょうか": 8039,
      "gradu": 8040,
      "coworkers": 8041,
      "smell": 8042,
      "冷蔵庫": 8043,
      "reduction": 8044,
      "status": 8045,
      "contribut": 8046,
      "Especially": 8047,
      "Seattle": 8048,
      "Saito": 8049,
      "latest": 8050,
      "ガソリン": 8051,
      "ボーナス": 8052,
      "demonstr": 8053,
      "comfortable": 8054,
      "19": 8055,
      "23": 8056,
      "2時": 8057,
      "Ac": 8058,
      "Apri": 8059,
      "Bo": 8060,
      "Bas": 8061,
      "Bru": 8062,
      "Haw": 8063,
      "Ind": 8064,
      "IPO": 8065,
      "Jan": 8066,
      "Ke": 8067,
      "PC": 8068,
      "PR": 8069,
      "Rel": 8070,
      "TO": 8071,
      "Uh": 8072,
      "Very": 8073,
      "Yosh": 8074,
      "aut": 8075,
      "band": 8076,
      "ball": 8077,
      "cooper": 8078,
      "dau": 8079,
      "ged": 8080,
      "hot": 8081,
      "hang": 8082,
      "hiring": 8083,
      "ian": 8084,
      "ients": 8085,
      "las": 8086,
      "mpic": 8087,
      "non": 8088,
      "pet": 8089,
      "pho": 8090,
      "power": 8091,
      "rout": 8092,
      "rul": 8093,
      "vant": 8094,
      "yama": 8095,
      "あっと": 8096,
      "あちら": 8097,
      "いち": 8098,
      "いら": 8099,
      "うわ": 8100,
      "えぇ": 8101,
      "お伝え": 8102,
      "お伺い": 8103,
      "かか": 8104,
      "かね": 8105,
      "かは": 8106,
      "が一": 8107,
      "が始": 8108,
      "が上が": 8109,
      "くん": 8110,
      "ご提案": 8111,
      "ご家族": 8112,
      "ご協力": 8113,
      "さようなら": 8114,
      "すいません": 8115,
      "だが": 8116,
      "ちに": 8117,
      "どなた": 8118,
      "に変更": 8119,
      "に記載": 8120,
      "の実": 8121,
      "の一つ": 8122,
      "の可能性": 8123,
      "はちょっと": 8124,
      "はとても": 8125,
      "まぁ": 8126,
      "まれる": 8127,
      "らないといけない": 8128,
      "りましょう": 8129,
      "りまして": 8130,
      "を伺": 8131,
      "をした": 8132,
      "をチェック": 8133,
      "アナ": 8134,
      "オリンピック": 8135,
      "カテ": 8136,
      "ガス": 8137,
      "クマ": 8138,
      "クシー": 8139,
      "サンド": 8140,
      "ジタル": 8141,
      "セット": 8142,
      "タクシー": 8143,
      "チャー": 8144,
      "ッセ": 8145,
      "デジタル": 8146,
      "プリン": 8147,
      "プラス": 8148,
      "マニュ": 8149,
      "モニ": 8150,
      "ヨー": 8151,
      "ワン": 8152,
      "主な": 8153,
      "事で": 8154,
      "井上": 8155,
      "仮装": 8156,
      "任せて": 8157,
      "使っている": 8158,
      "修理": 8159,
      "優秀": 8160,
      "先ほど": 8161,
      "入り": 8162,
      "入れる": 8163,
      "公共": 8164,
      "冗談": 8165,
      "労働": 8166,
      "動作": 8167,
      "取得": 8168,
      "士号": 8169,
      "変化": 8170,
      "多く": 8171,
      "大抵": 8172,
      "失敗": 8173,
      "将来": 8174,
      "御社に": 8175,
      "想定": 8176,
      "提示": 8177,
      "新しく": 8178,
      "最大": 8179,
      "最適": 8180,
      "月１": 8181,
      "次は": 8182,
      "正式": 8183,
      "正しい": 8184,
      "比べ": 8185,
      "求人": 8186,
      "物も": 8187,
      "物流": 8188,
      "産業": 8189,
      "番組": 8190,
      "目の": 8191,
      "真理": 8192,
      "私には": 8193,
      "続け": 8194,
      "置き": 8195,
      "職務": 8196,
      "船荷": 8197,
      "苦労": 8198,
      "苦手": 8199,
      "菓子": 8200,
      "話して": 8201,
      "詳しい": 8202,
      "調達": 8203,
      "買収": 8204,
      "近くの": 8205,
      "送られて": 8206,
      "連れ": 8207,
      "違って": 8208,
      "配布": 8209,
      "鉄道": 8210,
      "長期": 8211,
      "開始": 8212,
      "階の": 8213,
      "随分": 8214,
      "雰囲": 8215,
      "電池": 8216,
      "高田さん": 8217,
      "inj": 8218,
      "oue": 8219,
      "annu": 8220,
      "rely": 8221,
      "reim": 8222,
      "atform": 8223,
      "ですと": 8224,
      "isions": 8225,
      "ishi": 8226,
      "esides": 8227,
      "aside": 8228,
      "leak": 8229,
      "beer": 8230,
      "wich": 8231,
      "held": 8232,
      "meat": 8233,
      "weight": 8234,
      "して下さい": 8235,
      "sec": 8236,
      "icated": 8237,
      "ないよね": 8238,
      "chat": 8239,
      "からなくて": 8240,
      "そう言って": 8241,
      "likes": 8242,
      "white": 8243,
      "ましたが": 8244,
      "user": 8245,
      "ghter": 8246,
      "rious": 8247,
      "ourselves": 8248,
      "それだと": 8249,
      "それ以外": 8250,
      "するね": 8251,
      "するから": 8252,
      "する必要があります": 8253,
      "と思いました": 8254,
      "ようになる": 8255,
      "conv": 8256,
      "constru": 8257,
      "platform": 8258,
      "notes": 8259,
      "extend": 8260,
      "worker": 8261,
      "pred": 8262,
      "loading": 8263,
      "じゃん": 8264,
      "pol": 8265,
      "について説明": 8266,
      "ありますが": 8267,
      "それは大変": 8268,
      "それは素晴らしい": 8269,
      "があるんだ": 8270,
      "mony": 8271,
      "なんですけど": 8272,
      "grade": 8273,
      "だったよね": 8274,
      "forecast": 8275,
      "gotten": 8276,
      "owner": 8277,
      "ことができる": 8278,
      "reading": 8279,
      "compon": 8280,
      "compli": 8281,
      "メールを送": 8282,
      "メールアドレス": 8283,
      "こちらも": 8284,
      "こちらから": 8285,
      "weren": 8286,
      "ええと": 8287,
      "ここから": 8288,
      "region": 8289,
      "regulations": 8290,
      "story": 8291,
      "会議で": 8292,
      "出来ない": 8293,
      "handling": 8294,
      "情報は": 8295,
      "んだけどね": 8296,
      "問題ない": 8297,
      "やってみます": 8298,
      "Inoue": 8299,
      "counting": 8300,
      "してもらって": 8301,
      "してもらいます": 8302,
      "してもらいたい": 8303,
      "るのを": 8304,
      "がありますので": 8305,
      "可能な": 8306,
      "私もそう": 8307,
      "rences": 8308,
      "Ange": 8309,
      "サーチ": 8310,
      "wrap": 8311,
      "チームの": 8312,
      "happening": 8313,
      "career": 8314,
      "資料を": 8315,
      "bigger": 8316,
      "こうか": 8317,
      "ディナー": 8318,
      "missing": 8319,
      "mistakes": 8320,
      "claim": 8321,
      "holding": 8322,
      "社長は": 8323,
      "楽しかった": 8324,
      "価格を": 8325,
      "discussion": 8326,
      "経験が": 8327,
      "そちらで": 8328,
      "のかい": 8329,
      "による": 8330,
      "によると": 8331,
      "レーザ": 8332,
      "好きな": 8333,
      "developing": 8334,
      "ありましたか": 8335,
      "内容を": 8336,
      "priv": 8337,
      "となっています": 8338,
      "タイミング": 8339,
      "friends": 8340,
      "今週の": 8341,
      "今週中に": 8342,
      "ピーター": 8343,
      "XXX": 8344,
      "learned": 8345,
      "かもしれませんが": 8346,
      "expected": 8347,
      "realized": 8348,
      "簡単な": 8349,
      "今日の午後": 8350,
      "よい一日を": 8351,
      "スケジュールを": 8352,
      "気をつけて": 8353,
      "によっては": 8354,
      "July": 8355,
      "supermarket": 8356,
      "大事な": 8357,
      "operation": 8358,
      "なくなった": 8359,
      "sometime": 8360,
      "代わりに": 8361,
      "nearby": 8362,
      "walking": 8363,
      "いただきたいのですが": 8364,
      "ーンズ": 8365,
      "お疲れ様でした": 8366,
      "目を通": 8367,
      "聞こえ": 8368,
      "が出る": 8369,
      "午前中": 8370,
      "properly": 8371,
      "さまです": 8372,
      "まとめて": 8373,
      "お手数": 8374,
      "Around": 8375,
      "重要な": 8376,
      "brief": 8377,
      "お会いできて": 8378,
      "サプライヤー": 8379,
      "忘れずに": 8380,
      "affected": 8381,
      "hurt": 8382,
      "limited": 8383,
      "確実に": 8384,
      "announ": 8385,
      "relevant": 8386,
      "receipt": 8387,
      "領収書": 8388,
      "procedures": 8389,
      "creating": 8390,
      "自己紹介": 8391,
      "peanuts": 8392,
      "practice": 8393,
      "video": 8394,
      "ルメディア": 8395,
      "sightseeing": 8396,
      "translation": 8397,
      "magaz": 8398,
      "North": 8399,
      "たまに": 8400,
      "展示会": 8401,
      "closed": 8402,
      "accident": 8403,
      "ペーパー": 8404,
      "ceremony": 8405,
      "Airline": 8406,
      "Saturday": 8407,
      "achieve": 8408,
      "ソーシャルメディア": 8409,
      "sandwich": 8410,
      "activities": 8411,
      "April": 8412,
      "Hawai": 8413,
      "daughter": 8414,
      "mpics": 8415,
      "rules": 8416,
      "マニュアル": 8417,
      "船荷証券": 8418,
      "annual": 8419,
      "1番": 8420,
      "3日": 8421,
      "5年": 8422,
      "65": 8423,
      "90": 8424,
      "911": 8425,
      "Cur": 8426,
      "Cali": 8427,
      "Div": 8428,
      "Eメールで": 8429,
      "Food": 8430,
      "HS": 8431,
      "Kaz": 8432,
      "Lis": 8433,
      "Miz": 8434,
      "Oly": 8435,
      "Pro": 8436,
      "Prom": 8437,
      "President": 8438,
      "Sa": 8439,
      "S社の": 8440,
      "Tai": 8441,
      "Western": 8442,
      "Yumi": 8443,
      "batch": 8444,
      "block": 8445,
      "clu": 8446,
      "dut": 8447,
      "flex": 8448,
      "game": 8449,
      "iency": 8450,
      "jima": 8451,
      "lcome": 8452,
      "mp": 8453,
      "mar": 8454,
      "mass": 8455,
      "nia": 8456,
      "rist": 8457,
      "slight": 8458,
      "ught": 8459,
      "vous": 8460,
      "via": 8461,
      "wall": 8462,
      "west": 8463,
      "いな": 8464,
      "えません": 8465,
      "おいた": 8466,
      "おつか": 8467,
      "おかけ": 8468,
      "かしい": 8469,
      "が遅": 8470,
      "くちゃ": 8471,
      "げで": 8472,
      "ご確認": 8473,
      "ご都合": 8474,
      "さない": 8475,
      "そっち": 8476,
      "だっけ": 8477,
      "ちな": 8478,
      "っぽ": 8479,
      "つき": 8480,
      "でお願い": 8481,
      "で働いて": 8482,
      "とかな": 8483,
      "と言って": 8484,
      "と考えています": 8485,
      "にしたい": 8486,
      "にしよう": 8487,
      "の為": 8488,
      "のない": 8489,
      "のではない": 8490,
      "の予約": 8491,
      "はかなり": 8492,
      "へ行": 8493,
      "みたら": 8494,
      "やっと": 8495,
      "るし": 8496,
      "る予定": 8497,
      "れさまです": 8498,
      "をも": 8499,
      "を押": 8500,
      "エリア": 8501,
      "エラー": 8502,
      "カタ": 8503,
      "ゴリー": 8504,
      "シング": 8505,
      "スマ": 8506,
      "ツール": 8507,
      "トレ": 8508,
      "ドラ": 8509,
      "ハー": 8510,
      "ビン": 8511,
      "ピング": 8512,
      "ムさん": 8513,
      "メッセ": 8514,
      "ユージ": 8515,
      "ラベル": 8516,
      "リサーチ": 8517,
      "レター": 8518,
      "ンは": 8519,
      "一生": 8520,
      "下げ": 8521,
      "仕組み": 8522,
      "似た": 8523,
      "全に": 8524,
      "全社": 8525,
      "出した": 8526,
      "効果": 8527,
      "化学": 8528,
      "及び": 8529,
      "取れる": 8530,
      "口さん": 8531,
      "周知": 8532,
      "品質": 8533,
      "土産": 8534,
      "基準": 8535,
      "場で": 8536,
      "天気": 8537,
      "安定": 8538,
      "完全に": 8539,
      "定の": 8540,
      "対策": 8541,
      "届いて": 8542,
      "帰り": 8543,
      "平均": 8544,
      "度の": 8545,
      "当然": 8546,
      "思いつ": 8547,
      "急に": 8548,
      "所属": 8549,
      "拠点": 8550,
      "数年": 8551,
      "数日": 8552,
      "方で": 8553,
      "方の": 8554,
      "方も": 8555,
      "日を": 8556,
      "最後": 8557,
      "月末": 8558,
      "朝の": 8559,
      "村さん": 8560,
      "構わ": 8561,
      "歓迎": 8562,
      "現状": 8563,
      "用に": 8564,
      "用車": 8565,
      "田さんが": 8566,
      "由美": 8567,
      "相当": 8568,
      "社食": 8569,
      "積極": 8570,
      "競争": 8571,
      "納品": 8572,
      "組織": 8573,
      "続けて": 8574,
      "練習": 8575,
      "自体": 8576,
      "自由": 8577,
      "良くない": 8578,
      "見せて": 8579,
      "言えば": 8580,
      "貴重": 8581,
      "転送": 8582,
      "辞めて": 8583,
      "送付": 8584,
      "送った": 8585,
      "進める": 8586,
      "達が": 8587,
      "部から": 8588,
      "野です": 8589,
      "量を": 8590,
      "開示": 8591,
      "間は": 8592,
      "集まり": 8593,
      "風に": 8594,
      "１ヶ月": 8595,
      "outh": 8596,
      "anal": 8597,
      "atta": 8598,
      "atten": 8599,
      "llen": 8600,
      "oru": 8601,
      "enn": 8602,
      "itate": 8603,
      "assume": 8604,
      "omen": 8605,
      "ows": 8606,
      "ays": 8607,
      "ayashi": 8608,
      "fornia": 8609,
      "altern": 8610,
      "hair": 8611,
      "anywhere": 8612,
      "anybody": 8613,
      "ables": 8614,
      "そうしましょう": 8615,
      "そうでしたね": 8616,
      "deep": 8617,
      "living": 8618,
      "uses": 8619,
      "comments": 8620,
      "rial": 8621,
      "ことない": 8622,
      "ことになります": 8623,
      "ification": 8624,
      "いても": 8625,
      "する必要がある": 8626,
      "Welcome": 8627,
      "いいと思います": 8628,
      "frustr": 8629,
      "iry": 8630,
      "tract": 8631,
      "ようか": 8632,
      "んだっけ": 8633,
      "どうしましたか": 8634,
      "antly": 8635,
      "enda": 8636,
      "aguchi": 8637,
      "agenda": 8638,
      "except": 8639,
      "erstoo": 8640,
      "にならない": 8641,
      "りますが": 8642,
      "moved": 8643,
      "pread": 8644,
      "preference": 8645,
      "loves": 8646,
      "だけの": 8647,
      "その件": 8648,
      "かなあ": 8649,
      "かなかった": 8650,
      "astic": 8651,
      "covers": 8652,
      "pricing": 8653,
      "foot": 8654,
      "これらの": 8655,
      "会社と": 8656,
      "インド": 8657,
      "ティブ": 8658,
      "うちも": 8659,
      "しまって": 8660,
      "ちょっといいですか": 8661,
      "monthly": 8662,
      "よろしければ": 8663,
      "ことがない": 8664,
      "メールに": 8665,
      "perspect": 8666,
      "になると思います": 8667,
      "リーさん": 8668,
      "なんだか": 8669,
      "まだまだ": 8670,
      "に行か": 8671,
      "にお電話": 8672,
      "オフィスは": 8673,
      "dates": 8674,
      "問題はない": 8675,
      "はどうな": 8676,
      "はどうでしょうか": 8677,
      "Inst": 8678,
      "に入れて": 8679,
      "彼らに": 8680,
      "managers": 8681,
      "できますが": 8682,
      "trial": 8683,
      "に関わ": 8684,
      "speaker": 8685,
      "チームが": 8686,
      "彼女が": 8687,
      "考えた": 8688,
      "いないので": 8689,
      "顧客の": 8690,
      "sites": 8691,
      "とのミーティング": 8692,
      "を持ち": 8693,
      "いたしますので": 8694,
      "baby": 8695,
      "effect": 8696,
      "bringing": 8697,
      "みんなが": 8698,
      "出張の": 8699,
      "Christ": 8700,
      "契約を": 8701,
      "contacted": 8702,
      "んじゃないか": 8703,
      "最近の": 8704,
      "お待ちしております": 8705,
      "carry": 8706,
      "えーっと": 8707,
      "一番の": 8708,
      "nervous": 8709,
      "requested": 8710,
      "くなった": 8711,
      "United": 8712,
      "楽しみですね": 8713,
      "accounts": 8714,
      "一つの": 8715,
      "international": 8716,
      "included": 8717,
      "expenses": 8718,
      "アメリカの": 8719,
      "older": 8720,
      "実際の": 8721,
      "間に合う": 8722,
      "しないで": 8723,
      "マネジ": 8724,
      "リンク": 8725,
      "最初は": 8726,
      "designs": 8727,
      "focusing": 8728,
      "どちらの": 8729,
      "我々が": 8730,
      "伝えます": 8731,
      "player": 8732,
      "players": 8733,
      "shipped": 8734,
      "printed": 8735,
      "手伝って": 8736,
      "予算は": 8737,
      "ブルース": 8738,
      "んですけどね": 8739,
      "atively": 8740,
      "mainly": 8741,
      "odd": 8742,
      "agreement": 8743,
      "venture": 8744,
      "とおり": 8745,
      "オンラインで": 8746,
      "audience": 8747,
      "joined": 8748,
      "金曜日の": 8749,
      "boxes": 8750,
      "を教えてください": 8751,
      "企画部": 8752,
      "culture": 8753,
      "licen": 8754,
      "launch": 8755,
      "delayed": 8756,
      "おきますね": 8757,
      "languages": 8758,
      "continued": 8759,
      "younger": 8760,
      "Miy": 8761,
      "fifteen": 8762,
      "の件で": 8763,
      "profession": 8764,
      "thorough": 8765,
      "competitive": 8766,
      "assistant": 8767,
      "confidential": 8768,
      "slide": 8769,
      "頼むよ": 8770,
      "クリスマス": 8771,
      "eleven": 8772,
      "を増や": 8773,
      "前回の": 8774,
      "フォルニア": 8775,
      "Hopefully": 8776,
      "assets": 8777,
      "surprised": 8778,
      "appear": 8779,
      "smoothly": 8780,
      "register": 8781,
      "カリフォルニア": 8782,
      "シェア": 8783,
      "落ち着いて": 8784,
      "suddenly": 8785,
      "Asia": 8786,
      "Marketing": 8787,
      "ごとに": 8788,
      "Huh": 8789,
      "Matsu": 8790,
      "賛成です": 8791,
      "complicated": 8792,
      "introduction": 8793,
      "evacuation": 8794,
      "advertisement": 8795,
      "catalo": 8796,
      "motiv": 8797,
      "network": 8798,
      "reflect": 8799,
      "category": 8800,
      "CRM": 8801,
      "scenari": 8802,
      "spring": 8803,
      "スライド": 8804,
      "クレジットカード": 8805,
      "danger": 8806,
      "finger": 8807,
      "reputation": 8808,
      "expert": 8809,
      "protect": 8810,
      "commercial": 8811,
      "Basically": 8812,
      "Bruce": 8813,
      "Relations": 8814,
      "Yoshida": 8815,
      "photo": 8816,
      "カテゴリー": 8817,
      "サンドイッチ": 8818,
      "ヨーロ": 8819,
      "California": 8820,
      "Division": 8821,
      "Olympics": 8822,
      "Promotion": 8823,
      "おつかれさまです": 8824,
      "カタログ": 8825,
      "メッセージ": 8826,
      "erstood": 8827,
      "Christmas": 8828,
      "1時間": 8829,
      "1週間": 8830,
      "5分": 8831,
      "6月": 8832,
      "80": 8833,
      "9時": 8834,
      "AC": 8835,
      "AT": 8836,
      "Bus": 8837,
      "Cong": 8838,
      "Cファンド": 8839,
      "Fund": 8840,
      "Hon": 8841,
      "Har": 8842,
      "Kei": 8843,
      "Os": 8844,
      "Pre": 8845,
      "Red": 8846,
      "Rob": 8847,
      "Sund": 8848,
      "Shi": 8849,
      "York": 8850,
      "ba": 8851,
      "bt": 8852,
      "bal": 8853,
      "booth": 8854,
      "cater": 8855,
      "cool": 8856,
      "dent": 8857,
      "dot": 8858,
      "een": 8859,
      "fice": 8860,
      "father": 8861,
      "glob": 8862,
      "hit": 8863,
      "hun": 8864,
      "iet": 8865,
      "igh": 8866,
      "ka": 8867,
      "len": 8868,
      "ming": 8869,
      "match": 8870,
      "nar": 8871,
      "ron": 8872,
      "rare": 8873,
      "ram": 8874,
      "rule": 8875,
      "ratulations": 8876,
      "swe": 8877,
      "shel": 8878,
      "session": 8879,
      "spread": 8880,
      "tes": 8881,
      "vi": 8882,
      "vy": 8883,
      "wan": 8884,
      "zes": 8885,
      "いれば": 8886,
      "いずれ": 8887,
      "お前": 8888,
      "お支払い": 8889,
      "か確認": 8890,
      "が来て": 8891,
      "さないといけない": 8892,
      "しなければ": 8893,
      "たった": 8894,
      "とします": 8895,
      "と考えて": 8896,
      "なお": 8897,
      "にしている": 8898,
      "に出て": 8899,
      "の変更": 8900,
      "の田中": 8901,
      "の間に": 8902,
      "はあります": 8903,
      "ぶん": 8904,
      "まい": 8905,
      "ましい": 8906,
      "もない": 8907,
      "らずに": 8908,
      "ることは": 8909,
      "われて": 8910,
      "わかります": 8911,
      "を保": 8912,
      "を待": 8913,
      "を挙": 8914,
      "を求": 8915,
      "をします": 8916,
      "を始め": 8917,
      "を理解": 8918,
      "を用意": 8919,
      "アシ": 8920,
      "エイ": 8921,
      "オフ": 8922,
      "ガイ": 8923,
      "ケン": 8924,
      "ゲーム": 8925,
      "シップ": 8926,
      "シャー": 8927,
      "センス": 8928,
      "テン": 8929,
      "ノロジ": 8930,
      "ハイ": 8931,
      "バランス": 8932,
      "フリー": 8933,
      "ブース": 8934,
      "プラ": 8935,
      "ペット": 8936,
      "ヨーク": 8937,
      "ラル": 8938,
      "リエ": 8939,
      "リサ": 8940,
      "ルーム": 8941,
      "一応": 8942,
      "不便": 8943,
      "不動": 8944,
      "中華": 8945,
      "事故": 8946,
      "仕上げ": 8947,
      "以内": 8948,
      "会った": 8949,
      "何て": 8950,
      "保持": 8951,
      "俺も": 8952,
      "値引き": 8953,
      "僕ら": 8954,
      "全力を": 8955,
      "公園": 8956,
      "出発": 8957,
      "制限": 8958,
      "努力": 8959,
      "化粧": 8960,
      "医者": 8961,
      "台湾": 8962,
      "合併": 8963,
      "君たち": 8964,
      "国内": 8965,
      "国際": 8966,
      "場に": 8967,
      "増加": 8968,
      "外回": 8969,
      "存在": 8970,
      "定期": 8971,
      "実を": 8972,
      "客先": 8973,
      "建物": 8974,
      "弊社に": 8975,
      "引っ": 8976,
      "当日": 8977,
      "役割": 8978,
      "後日": 8979,
      "忘年": 8980,
      "所に": 8981,
      "所の": 8982,
      "把握": 8983,
      "捨て": 8984,
      "掲示": 8985,
      "支社の": 8986,
      "改めて": 8987,
      "既に": 8988,
      "早退": 8989,
      "昨年": 8990,
      "時も": 8991,
      "最も": 8992,
      "期に": 8993,
      "木さん": 8994,
      "本日の": 8995,
      "正確": 8996,
      "毎回": 8997,
      "気分": 8998,
      "活動": 8999,
      "海瑠": 9000,
      "点を": 9001,
      "現場": 9002,
      "皆が": 9003,
      "皆に": 9004,
      "確保": 9005,
      "空き": 9006,
      "節約": 9007,
      "義務": 9008,
      "苦情": 9009,
      "草案": 9010,
      "装置": 9011,
      "視察": 9012,
      "認識": 9013,
      "警察": 9014,
      "議論": 9015,
      "豊富": 9016,
      "費や": 9017,
      "質疑": 9018,
      "車で": 9019,
      "返事を": 9020,
      "途中で": 9021,
      "遅く": 9022,
      "遅れ": 9023,
      "配属": 9024,
      "長く": 9025,
      "集めて": 9026,
      "電子": 9027,
      "頂ける": 9028,
      "駅の": 9029,
      "２ヶ月": 9030,
      "ino": 9031,
      "intr": 9032,
      "anet": 9033,
      "ret": 9034,
      "recall": 9035,
      "recru": 9036,
      "respect": 9037,
      "erc": 9038,
      "eral": 9039,
      "encour": 9040,
      "aste": 9041,
      "arant": 9042,
      "leav": 9043,
      "leading": 9044,
      "ってない": 9045,
      "って聞いた": 9046,
      "って何ですか": 9047,
      "ston": 9048,
      "heavy": 9049,
      "meas": 9050,
      "していて": 9051,
      "してある": 9052,
      "していただいて": 9053,
      "してくれて": 9054,
      "してしまった": 9055,
      "ford": 9056,
      "force": 9057,
      "した方がいい": 9058,
      "ないけど": 9059,
      "ないでしょうか": 9060,
      "roll": 9061,
      "abl": 9062,
      "deed": 9063,
      "lia": 9064,
      "lies": 9065,
      "cancel": 9066,
      "ましたね": 9067,
      "ames": 9068,
      "それほど": 9069,
      "ific": 9070,
      "いたので": 9071,
      "するには": 9072,
      "yours": 9073,
      "iding": 9074,
      "idence": 9075,
      "tired": 9076,
      "いいです": 9077,
      "termin": 9078,
      "ようこそ": 9079,
      "んだね": 9080,
      "article": 9081,
      "ples": 9082,
      "どうでしょう": 9083,
      "anticip": 9084,
      "aged": 9085,
      "excel": 9086,
      "exhibit": 9087,
      "exerc": 9088,
      "workshop": 9089,
      "unit": 9090,
      "でもら": 9091,
      "establ": 9092,
      "だけでは": 9093,
      "そのまま": 9094,
      "afford": 9095,
      "embar": 9096,
      "cos": 9097,
      "coordin": 9098,
      "ventory": 9099,
      "というわけ": 9100,
      "everyday": 9101,
      "guide": 9102,
      "guarant": 9103,
      "会社から": 9104,
      "background": 9105,
      "なくちゃ": 9106,
      "できるように": 9107,
      "なんですよね": 9108,
      "inten": 9109,
      "しましたが": 9110,
      "もうすぐ": 9111,
      "grand": 9112,
      "だったから": 9113,
      "ところに": 9114,
      "ものが": 9115,
      "いつまでに": 9116,
      "たちは": 9117,
      "えるように": 9118,
      "と思うけど": 9119,
      "と思うんだけど": 9120,
      "製品が": 9121,
      "メールを": 9122,
      "めている": 9123,
      "standing": 9124,
      "host": 9125,
      "なかったので": 9126,
      "みたいに": 9127,
      "10月": 9128,
      "10パーセント": 9129,
      "ようなので": 9130,
      "うちの会社は": 9131,
      "を見直": 9132,
      "会議は": 9133,
      "質問に": 9134,
      "出来て": 9135,
      "center": 9136,
      "そこは": 9137,
      "ほうで": 9138,
      "spent": 9139,
      "してもらえますか": 9140,
      "そんなこと": 9141,
      "してみる": 9142,
      "っておく": 9143,
      "ましては": 9144,
      "keeping": 9145,
      "lunches": 9146,
      "stems": 9147,
      "heads": 9148,
      "A社と": 9149,
      "Office": 9150,
      "研修は": 9151,
      "timing": 9152,
      "turning": 9153,
      "資料の": 9154,
      "考えですね": 9155,
      "いただきありがとうございました": 9156,
      "お電話ありがとうございました": 9157,
      "顧客は": 9158,
      "お客様は": 9159,
      "感じです": 9160,
      "スタン": 9161,
      "大きく": 9162,
      "すみませんが": 9163,
      "A社のサム": 9164,
      "人がいる": 9165,
      "などは": 9166,
      "企業が": 9167,
      "relations": 9168,
      "eating": 9169,
      "meaning": 9170,
      "出張で": 9171,
      "contrac": 9172,
      "最近は": 9173,
      "管理職": 9174,
      "reviews": 9175,
      "かもしれないですね": 9176,
      "確かにそうですね": 9177,
      "studied": 9178,
      "コーナー": 9179,
      "させていただいて": 9180,
      "食べ物": 9181,
      "することも": 9182,
      "vessel": 9183,
      "collabor": 9184,
      "contracts": 9185,
      "purpose": 9186,
      "affairs": 9187,
      "以上の": 9188,
      "fridge": 9189,
      "今週末": 9190,
      "従業員の": 9191,
      "業界の": 9192,
      "チェックイン": 9193,
      "我が社は": 9194,
      "名前は": 9195,
      "製造施設": 9196,
      "123": 9197,
      "を入れ": 9198,
      "いただいても": 9199,
      "funds": 9200,
      "状況を": 9201,
      "paperless": 9202,
      "を取得": 9203,
      "東京オフィス": 9204,
      "groups": 9205,
      "extreme": 9206,
      "マーケティングの": 9207,
      "tonight": 9208,
      "業者に": 9209,
      "しておきますね": 9210,
      "どのくらいの": 9211,
      "決めた": 9212,
      "driving": 9213,
      "個人的には": 9214,
      "depend": 9215,
      "をお願いできますか": 9216,
      "向けに": 9217,
      "場所は": 9218,
      "enjoyed": 9219,
      "specification": 9220,
      "ショー": 9221,
      "先方の": 9222,
      "huge": 9223,
      "今後の": 9224,
      "空いてる": 9225,
      "なくなって": 9226,
      "response": 9227,
      "を教えていただけますか": 9228,
      "passed": 9229,
      "今月末": 9230,
      "particularly": 9231,
      "shopping": 9232,
      "children": 9233,
      "具体的な": 9234,
      "はいかがでしょうか": 9235,
      "cellent": 9236,
      "に対する": 9237,
      "沢山の": 9238,
      "パソコンの": 9239,
      "mix": 9240,
      "申し上げます": 9241,
      "piece": 9242,
      "この件について": 9243,
      "America": 9244,
      "ジョーンズ": 9245,
      "山本さん": 9246,
      "Tell": 9247,
      "いかがでしょうか": 9248,
      "思いますが": 9249,
      "candidate": 9250,
      "今度は": 9251,
      "ニューヨーク": 9252,
      "引き継ぎ": 9253,
      "complaints": 9254,
      "efficiency": 9255,
      "benefit": 9256,
      "trucking": 9257,
      "executives": 9258,
      "flying": 9259,
      "二人とも": 9260,
      "できるだけ早く": 9261,
      "どうしたらいい": 9262,
      "reservation": 9263,
      "receipts": 9264,
      "advantage": 9265,
      "bottom": 9266,
      "impression": 9267,
      "いただけますでしょうか": 9268,
      "experienced": 9269,
      "Misato": 9270,
      "bulletin": 9271,
      "electricity": 9272,
      "Morning": 9273,
      "dishes": 9274,
      "テクノロジ": 9275,
      "交通機関": 9276,
      "accommodate": 9277,
      "resources": 9278,
      "証明書": 9279,
      "Group": 9280,
      "ひどい": 9281,
      "スムーズ": 9282,
      "スピーカー": 9283,
      "certificate": 9284,
      "vendor": 9285,
      "street": 9286,
      "secret": 9287,
      "typically": 9288,
      "reschedule": 9289,
      "retirement": 9290,
      "average": 9291,
      "ingredients": 9292,
      "January": 9293,
      "モニター": 9294,
      "鉄道車両": 9295,
      "雰囲気": 9296,
      "predic": 9297,
      "private": 9298,
      "Hawaii": 9299,
      "Kazu": 9300,
      "Lisa": 9301,
      "Taiwan": 9302,
      "ちなみに": 9303,
      "ドラフト": 9304,
      "一生懸命": 9305,
      "attende": 9306,
      "ヨーロッパ": 9307,
      "Congratulations": 9308,
      "narrow": 9309,
      "アシスタント": 9310,
      "不動産": 9311,
      "掲示板": 9312,
      "intranet": 9313,
      "leaves": 9314,
      "embarr": 9315,
      "extremely": 9316,
      "テクノロジー": 9317,
      "13": 9318,
      "1回": 9319,
      "2か月": 9320,
      "35": 9321,
      "39": 9322,
      "67": 9323,
      "88": 9324,
      "AI": 9325,
      "AL": 9326,
      "Aug": 9327,
      "Alex": 9328,
      "BL": 9329,
      "DV": 9330,
      "Fi": 9331,
      "Hen": 9332,
      "H89": 9333,
      "Jo": 9334,
      "Jen": 9335,
      "Jim": 9336,
      "Kon": 9337,
      "Le": 9338,
      "Mar": 9339,
      "March": 9340,
      "Pl": 9341,
      "Peter": 9342,
      "SU": 9343,
      "Syl": 9344,
      "Tad": 9345,
      "Und": 9346,
      "Year": 9347,
      "bow": 9348,
      "bly": 9349,
      "bread": 9350,
      "bicy": 9351,
      "dai": 9352,
      "ered": 9353,
      "fu": 9354,
      "font": 9355,
      "gir": 9356,
      "hes": 9357,
      "hus": 9358,
      "ily": 9359,
      "jet": 9360,
      "jam": 9361,
      "jeal": 9362,
      "kitch": 9363,
      "lin": 9364,
      "link": 9365,
      "nine": 9366,
      "oc": 9367,
      "smo": 9368,
      "twi": 9369,
      "twel": 9370,
      "women": 9371,
      "あそこの": 9372,
      "おー": 9373,
      "お子": 9374,
      "かを": 9375,
      "が大": 9376,
      "が悪": 9377,
      "がたくさん": 9378,
      "きる": 9379,
      "ご報告": 9380,
      "ご理解": 9381,
      "さすが": 9382,
      "しかも": 9383,
      "しないといけません": 9384,
      "ずかしい": 9385,
      "せいで": 9386,
      "そば": 9387,
      "そも": 9388,
      "たの": 9389,
      "で働": 9390,
      "でいいですか": 9391,
      "とした": 9392,
      "なー": 9393,
      "にあ": 9394,
      "に着": 9395,
      "に話": 9396,
      "にします": 9397,
      "に必要な": 9398,
      "に合わせて": 9399,
      "のカ": 9400,
      "の日": 9401,
      "の書類": 9402,
      "のデザイン": 9403,
      "の仕方": 9404,
      "はあ": 9405,
      "はっきり": 9406,
      "ひとり": 9407,
      "みましょうか": 9408,
      "もいる": 9409,
      "らす": 9410,
      "られません": 9411,
      "われた": 9412,
      "わかって": 9413,
      "をもら": 9414,
      "を利用": 9415,
      "を達成": 9416,
      "んー": 9417,
      "んでしょう": 9418,
      "イレ": 9419,
      "カレー": 9420,
      "ギン": 9421,
      "クリー": 9422,
      "グロー": 9423,
      "コメント": 9424,
      "サイン": 9425,
      "シナ": 9426,
      "スティ": 9427,
      "タリ": 9428,
      "ッシュ": 9429,
      "ッピング": 9430,
      "ドット": 9431,
      "ニック": 9432,
      "ベスト": 9433,
      "ボタ": 9434,
      "マクマ": 9435,
      "ラム": 9436,
      "ルの": 9437,
      "ロール": 9438,
      "ロット": 9439,
      "ワク": 9440,
      "ンが": 9441,
      "ンで": 9442,
      "ンク": 9443,
      "上野": 9444,
      "下さ": 9445,
      "中には": 9446,
      "主に": 9447,
      "今お時間": 9448,
      "代は": 9449,
      "代表": 9450,
      "以来": 9451,
      "備品": 9452,
      "充分": 9453,
      "出社": 9454,
      "出して": 9455,
      "分析": 9456,
      "分かりますか": 9457,
      "加工": 9458,
      "動画": 9459,
      "募集": 9460,
      "半年": 9461,
      "単純": 9462,
      "参考": 9463,
      "友人": 9464,
      "反映": 9465,
      "取材": 9466,
      "同感": 9467,
      "回数": 9468,
      "団体": 9469,
      "困る": 9470,
      "土曜日": 9471,
      "嫌い": 9472,
      "学んで": 9473,
      "宿泊": 9474,
      "小計": 9475,
      "就職": 9476,
      "届く": 9477,
      "届け": 9478,
      "工業": 9479,
      "帰国": 9480,
      "幹線": 9481,
      "広い": 9482,
      "店長": 9483,
      "座って": 9484,
      "弁護": 9485,
      "当て": 9486,
      "当社は": 9487,
      "慣れる": 9488,
      "懸念": 9489,
      "成績": 9490,
      "払い": 9491,
      "払う": 9492,
      "持ってきて": 9493,
      "指摘": 9494,
      "指紋": 9495,
      "接待": 9496,
      "撮影": 9497,
      "散ら": 9498,
      "数は": 9499,
      "文章": 9500,
      "新幹線": 9501,
      "時差": 9502,
      "最後の": 9503,
      "来年の": 9504,
      "概要": 9505,
      "構成": 9506,
      "様で": 9507,
      "様の": 9508,
      "正規": 9509,
      "毎月": 9510,
      "比べて": 9511,
      "決める": 9512,
      "法務": 9513,
      "添付": 9514,
      "滞在": 9515,
      "漏れ": 9516,
      "画像": 9517,
      "発掘": 9518,
      "皆さま": 9519,
      "目で": 9520,
      "真剣": 9521,
      "短い": 9522,
      "社外": 9523,
      "私共": 9524,
      "秘密": 9525,
      "立つ": 9526,
      "範囲": 9527,
      "精算": 9528,
      "納得": 9529,
      "継ぎ": 9530,
      "続ける": 9531,
      "自宅": 9532,
      "英国": 9533,
      "解雇": 9534,
      "設計": 9535,
      "読んで": 9536,
      "起動": 9537,
      "転職": 9538,
      "返信": 9539,
      "進出": 9540,
      "遅い": 9541,
      "違った": 9542,
      "遠い": 9543,
      "野菜": 9544,
      "鉱業": 9545,
      "間の": 9546,
      "集まって": 9547,
      "電源": 9548,
      "顧問": 9549,
      "２０": 9550,
      "５０": 9551,
      "５パーセント": 9552,
      "thod": 9553,
      "inventory": 9554,
      "represent": 9555,
      "resol": 9556,
      "reference": 9557,
      "towards": 9558,
      "aster": 9559,
      "vember": 9560,
      "beaut": 9561,
      "って言って": 9562,
      "って言ってた": 9563,
      "stam": 9564,
      "stairs": 9565,
      "memor": 9566,
      "method": 9567,
      "してない": 9568,
      "していただけ": 9569,
      "したんですか": 9570,
      "entering": 9571,
      "からお電話": 9572,
      "anymore": 9573,
      "anyways": 9574,
      "いますので": 9575,
      "absolutely": 9576,
      "そうして": 9577,
      "そうじゃない": 9578,
      "そうなんだよ": 9579,
      "neg": 9580,
      "nel": 9581,
      "それがいい": 9582,
      "するんです": 9583,
      "するのが": 9584,
      "するのか": 9585,
      "するための": 9586,
      "はいる": 9587,
      "mainten": 9588,
      "いいんですか": 9589,
      "cks": 9590,
      "いるので": 9591,
      "ird": 9592,
      "cons": 9593,
      "conside": 9594,
      "plate": 9595,
      "taught": 9596,
      "どうせ": 9597,
      "ager": 9598,
      "agent": 9599,
      "あるから": 9600,
      "になったら": 9601,
      "quot": 9602,
      "upset": 9603,
      "ilt": 9604,
      "unfortun": 9605,
      "unnecessary": 9606,
      "じゃないと": 9607,
      "じゃなかった": 9608,
      "れてる": 9609,
      "かなぁ": 9610,
      "かなくて": 9611,
      "offering": 9612,
      "aking": 9613,
      "というか": 9614,
      "これも": 9615,
      "talks": 9616,
      "overview": 9617,
      "インフル": 9618,
      "っているんです": 9619,
      "grate": 9620,
      "built": 9621,
      "良いでしょうか": 9622,
      "icky": 9623,
      "November": 9624,
      "ットフォーム": 9625,
      "商品に": 9626,
      "連絡して": 9627,
      "んでしょ": 9628,
      "じゃないかな": 9629,
      "ストア": 9630,
      "また連絡": 9631,
      "ってるの": 9632,
      "compens": 9633,
      "awards": 9634,
      "rently": 9635,
      "display": 9636,
      "personnel": 9637,
      "があまり": 9638,
      "ことはできますか": 9639,
      "なんだって": 9640,
      "みたいですね": 9641,
      "フィード": 9642,
      "本当は": 9643,
      "10分": 9644,
      "10日": 9645,
      "うちの会社の": 9646,
      "invit": 9647,
      "を見つける": 9648,
      "における": 9649,
      "にお送り": 9650,
      "にお伺い": 9651,
      "質問を": 9652,
      "をお考え": 9653,
      "聞いてください": 9654,
      "社員は": 9655,
      "としても": 9656,
      "今日はお越し": 9657,
      "descri": 9658,
      "spac": 9659,
      "ライセンス": 9660,
      "お客さんが": 9661,
      "はどういう": 9662,
      "ございましたら": 9663,
      "Intern": 9664,
      "してみるよ": 9665,
      "に入れ": 9666,
      "コンサル": 9667,
      "がありますね": 9668,
      "いませんか": 9669,
      "の方々": 9670,
      "通りに": 9671,
      "issued": 9672,
      "ミーティングは": 9673,
      "2018": 9674,
      "A社が": 9675,
      "A社は": 9676,
      "だとは": 9677,
      "kinds": 9678,
      "同じような": 9679,
      "presentations": 9680,
      "biggest": 9681,
      "感じる": 9682,
      "はずだよ": 9683,
      "スタイル": 9684,
      "良かったよ": 9685,
      "contents": 9686,
      "社長に": 9687,
      "translate": 9688,
      "終わって": 9689,
      "価格は": 9690,
      "brings": 9691,
      "などが": 9692,
      "などを": 9693,
      "なるほどね": 9694,
      "relay": 9695,
      "highly": 9696,
      "discussions": 9697,
      "プロジェクトに": 9698,
      "プロジェクトを": 9699,
      "すごいですね": 9700,
      "結構です": 9701,
      "お待ちしています": 9702,
      "が必要な": 9703,
      "どれどれ": 9704,
      "かもしれないね": 9705,
      "事業部": 9706,
      "によります": 9707,
      "どんな感じ": 9708,
      "pected": 9709,
      "000円": 9710,
      "多いから": 9711,
      "deals": 9712,
      "することで": 9713,
      "だろうな": 9714,
      "失礼致します": 9715,
      "注文した": 9716,
      "全部で": 9717,
      "内容は": 9718,
      "correctly": 9719,
      "azy": 9720,
      "時間がかかる": 9721,
      "obviously": 9722,
      "すぎて": 9723,
      "reasons": 9724,
      "XXXX": 9725,
      "includes": 9726,
      "smaller": 9727,
      "わけではない": 9728,
      "increased": 9729,
      "もあるので": 9730,
      "全員に": 9731,
      "部屋の": 9732,
      "documentations": 9733,
      "Trading": 9734,
      "間に合わ": 9735,
      "paperwork": 9736,
      "arrived": 9737,
      "condition": 9738,
      "visited": 9739,
      "Definitely": 9740,
      "我々は": 9741,
      "realize": 9742,
      "どうしてですか": 9743,
      "structure": 9744,
      "取引先": 9745,
      "printing": 9746,
      "divisions": 9747,
      "よいですか": 9748,
      "ネットワーク": 9749,
      "counter": 9750,
      "following": 9751,
      "かと思いますが": 9752,
      "知りたい": 9753,
      "xxxxです": 9754,
      "一人で": 9755,
      "気をつけ": 9756,
      "いくつかの": 9757,
      "Julia": 9758,
      "とおっしゃ": 9759,
      "られたら": 9760,
      "頑張ります": 9761,
      "飲み放題": 9762,
      "ファイルを": 9763,
      "出荷を": 9764,
      "責任を": 9765,
      "フェイ": 9766,
      "僕もそう": 9767,
      "みてください": 9768,
      "concerned": 9769,
      "soft": 9770,
      "ウィリア": 9771,
      "クライアントに": 9772,
      "organize": 9773,
      "のための": 9774,
      "gives": 9775,
      "labor": 9776,
      "一日中": 9777,
      "最終的には": 9778,
      "bento": 9779,
      "候補者": 9780,
      "もらえるかな": 9781,
      "growing": 9782,
      "settings": 9783,
      "が多かった": 9784,
      "friendly": 9785,
      "消費者": 9786,
      "tracking": 9787,
      "suggestions": 9788,
      "reached": 9789,
      "colors": 9790,
      "pushed": 9791,
      "トムさん": 9792,
      "感謝しています": 9793,
      "slip": 9794,
      "あそこは": 9795,
      "machin": 9796,
      "machine": 9797,
      "してみてください": 9798,
      "を受ける": 9799,
      "何人か": 9800,
      "お知らせください": 9801,
      "advertising": 9802,
      "features": 9803,
      "negotiate": 9804,
      "raise": 9805,
      "おかしい": 9806,
      "surprising": 9807,
      "みなさん": 9808,
      "特別な": 9809,
      "それぞれの": 9810,
      "procedure": 9811,
      "どうしたんですか": 9812,
      "registered": 9813,
      "names": 9814,
      "charact": 9815,
      "まさか": 9816,
      "まさに": 9817,
      "見直し": 9818,
      "inquiry": 9819,
      "impressed": 9820,
      "experiences": 9821,
      "何度も": 9822,
      "separate": 9823,
      "partnership": 9824,
      "スタートアップ企業": 9825,
      "Korea": 9826,
      "saved": 9827,
      "を通して": 9828,
      "strategy": 9829,
      "digital": 9830,
      "おめでとうございます": 9831,
      "リュック": 9832,
      "introduced": 9833,
      "normal": 9834,
      "アレックス": 9835,
      "もしかしたら": 9836,
      "storage": 9837,
      "technical": 9838,
      "どのようなご用件でしょうか": 9839,
      "遠慮なく": 9840,
      "久しぶり": 9841,
      "意外と": 9842,
      "empty": 9843,
      "をご覧ください": 9844,
      "graduated": 9845,
      "contribute": 9846,
      "公共交通機関": 9847,
      "reimbur": 9848,
      "construction": 9849,
      "announce": 9850,
      "ペーパーレス": 9851,
      "Currently": 9852,
      "flexible": 9853,
      "perspective": 9854,
      "scenario": 9855,
      "fingerprint": 9856,
      "Business": 9857,
      "catering": 9858,
      "プラットフォーム": 9859,
      "全力を尽く": 9860,
      "attendees": 9861,
      "embarrass": 9862,
      "August": 9863,
      "DVD": 9864,
      "Henry": 9865,
      "Tadashi": 9866,
      "husband": 9867,
      "jealous": 9868,
      "kitchen": 9869,
      "twice": 9870,
      "twelve": 9871,
      "グローバル": 9872,
      "タリアン": 9873,
      "弁護士": 9874,
      "maintenance": 9875,
      "considered": 9876,
      "unfortunate": 9877,
      "フィードバック": 9878,
      "28": 9879,
      "2年": 9880,
      "32": 9881,
      "5月": 9882,
      "60": 9883,
      "Aの": 9884,
      "B社に": 9885,
      "CM": 9886,
      "C社": 9887,
      "Ced": 9888,
      "Fu": 9889,
      "Glad": 9890,
      "Hir": 9891,
      "Hallow": 9892,
      "Ito": 9893,
      "Kans": 9894,
      "Las": 9895,
      "Sto": 9896,
      "Ste": 9897,
      "Smi": 9898,
      "Shall": 9899,
      "Tur": 9900,
      "Try": 9901,
      "Ueda": 9902,
      "Ve": 9903,
      "Yu": 9904,
      "Yet": 9905,
      "bed": 9906,
      "bid": 9907,
      "bilities": 9908,
      "cir": 9909,
      "eth": 9910,
      "eyes": 9911,
      "fare": 9912,
      "gawa": 9913,
      "ier": 9914,
      "iam": 9915,
      "iety": 9916,
      "jay": 9917,
      "lf": 9918,
      "lag": 9919,
      "mall": 9920,
      "natur": 9921,
      "ove": 9922,
      "pact": 9923,
      "pages": 9924,
      "rup": 9925,
      "scan": 9926,
      "tion": 9927,
      "vations": 9928,
      "wo": 9929,
      "win": 9930,
      "whel": 9931,
      "ym": 9932,
      "ying": 9933,
      "zz": 9934,
      "いが": 9935,
      "いなかった": 9936,
      "いきたい": 9937,
      "えたら": 9938,
      "お問い合わせ": 9939,
      "かないと": 9940,
      "かせる": 9941,
      "かと思って": 9942,
      "か分からない": 9943,
      "が無": 9944,
      "がまだ": 9945,
      "が出来る": 9946,
      "が少ない": 9947,
      "が発生": 9948,
      "けた": 9949,
      "こな": 9950,
      "ご覧": 9951,
      "ご意見": 9952,
      "されない": 9953,
      "しなきゃ": 9954,
      "せい": 9955,
      "たんだ": 9956,
      "だそうです": 9957,
      "っこ": 9958,
      "つな": 9959,
      "でやって": 9960,
      "で働く": 9961,
      "と呼": 9962,
      "としている": 9963,
      "と一緒": 9964,
      "と相談": 9965,
      "といった": 9966,
      "どこの": 9967,
      "なよ": 9968,
      "に応": 9969,
      "に来": 9970,
      "に通": 9971,
      "に相談": 9972,
      "に記入": 9973,
      "に特化": 9974,
      "の資料": 9975,
      "の市場": 9976,
      "の使い": 9977,
      "は必要": 9978,
      "まれた": 9979,
      "みる": 9980,
      "も見": 9981,
      "らせる": 9982,
      "りで": 9983,
      "りゃ": 9984,
      "りません": 9985,
      "われる": 9986,
      "わないと": 9987,
      "わかりますか": 9988,
      "を向": 9989,
      "を扱": 9990,
      "を表": 9991,
      "を超": 9992,
      "を予約": 9993,
      "を食べ": 9994,
      "を紹介": 9995,
      "を立て": 9996,
      "を考える": 9997,
      "ウス": 9998,
      "ウド": 9999,
      "ガー": 10000,
      "キッチ": 10001,
      "ギリ": 10002,
      "クス": 10003,
      "クルー": 10004,
      "ケット": 10005,
      "ゴル": 10006,
      "ゴール": 10007,
      "シニア": 10008,
      "スピ": 10009,
      "スミス": 10010,
      "ゼル": 10011,
      "タグ": 10012,
      "タウン": 10013,
      "チーズ": 10014,
      "テック": 10015,
      "デイ": 10016,
      "デート": 10017,
      "トピック": 10018,
      "トレイ": 10019,
      "ニス": 10020,
      "ハン": 10021,
      "ブライ": 10022,
      "ヘル": 10023,
      "ベガス": 10024,
      "ボール": 10025,
      "ボット": 10026,
      "ボスト": 10027,
      "ラックス": 10028,
      "リオ": 10029,
      "ヴィ": 10030,
      "上海": 10031,
      "下が": 10032,
      "了承": 10033,
      "事に": 10034,
      "事です": 10035,
      "事ですか": 10036,
      "二週間": 10037,
      "今までの": 10038,
      "伝票": 10039,
      "位置": 10040,
      "佐伯": 10041,
      "保証": 10042,
      "傾向": 10043,
      "僕に": 10044,
      "先程": 10045,
      "共通": 10046,
      "兼ね": 10047,
      "切れ": 10048,
      "初め": 10049,
      "初めに": 10050,
      "別途": 10051,
      "動か": 10052,
      "動き": 10053,
      "北米": 10054,
      "半分": 10055,
      "原料": 10056,
      "原産": 10057,
      "反応": 10058,
      "口座": 10059,
      "合った": 10060,
      "君も": 10061,
      "周りの": 10062,
      "喜ば": 10063,
      "困難": 10064,
      "基づ": 10065,
      "増えた": 10066,
      "大谷": 10067,
      "好み": 10068,
      "実績": 10069,
      "寄って": 10070,
      "寒い": 10071,
      "山元": 10072,
      "工事": 10073,
      "帰りの": 10074,
      "年前": 10075,
      "年齢": 10076,
      "店の": 10077,
      "延ば": 10078,
      "当日の": 10079,
      "後半": 10080,
      "恐れ": 10081,
      "恵子": 10082,
      "戸倉": 10083,
      "手紙": 10084,
      "手間": 10085,
      "押し": 10086,
      "拝見": 10087,
      "振り": 10088,
      "授業": 10089,
      "支社": 10090,
      "料が": 10091,
      "昼休み": 10092,
      "時まで": 10093,
      "書く": 10094,
      "書の": 10095,
      "木下": 10096,
      "材木": 10097,
      "林業": 10098,
      "案を": 10099,
      "植物": 10100,
      "機材": 10101,
      "止めて": 10102,
      "活用": 10103,
      "測定": 10104,
      "田様": 10105,
      "田さんの": 10106,
      "異なる": 10107,
      "発言": 10108,
      "社用車": 10109,
      "第一": 10110,
      "経済": 10111,
      "結婚": 10112,
      "綺麗": 10113,
      "美里": 10114,
      "耐震": 10115,
      "背景": 10116,
      "色の": 10117,
      "英会話": 10118,
      "荒川": 10119,
      "見る": 10120,
      "覚悟": 10121,
      "親切": 10122,
      "言いたい": 10123,
      "記事": 10124,
      "話が": 10125,
      "読む": 10126,
      "貨物": 10127,
      "返事が": 10128,
      "遅れる": 10129,
      "運動": 10130,
      "選んで": 10131,
      "避け": 10132,
      "邪魔": 10133,
      "際に": 10134,
      "雑誌": 10135,
      "願っています": 10136,
      "風邪": 10137,
      "飛び": 10138,
      "飲食": 10139,
      "馴染": 10140,
      "高校": 10141,
      "高さん": 10142,
      "魅力": 10143,
      "１つ": 10144,
      "２年": 10145,
      "thqu": 10146,
      "intell": 10147,
      "redu": 10148,
      "renew": 10149,
      "retain": 10150,
      "returning": 10151,
      "atically": 10152,
      "orient": 10153,
      "isine": 10154,
      "isition": 10155,
      "ますからね": 10156,
      "lebr": 10157,
      "って何": 10158,
      "ste": 10159,
      "stage": 10160,
      "wifi": 10161,
      "していく": 10162,
      "してきて": 10163,
      "した時に": 10164,
      "したくて": 10165,
      "したばかり": 10166,
      "したほうが": 10167,
      "seaf": 10168,
      "haps": 10169,
      "ently": 10170,
      "ないと思います": 10171,
      "oting": 10172,
      "soci": 10173,
      "ったの": 10174,
      "above": 10175,
      "そうしたら": 10176,
      "そうなると": 10177,
      "ney": 10178,
      "decent": 10179,
      "lig": 10180,
      "outs": 10181,
      "celebr": 10182,
      "それでも": 10183,
      "それじゃ": 10184,
      "するまで": 10185,
      "するという": 10186,
      "するんですか": 10187,
      "するために": 10188,
      "するのに": 10189,
      "idents": 10190,
      "shor": 10191,
      "shif": 10192,
      "max": 10193,
      "golf": 10194,
      "いいな": 10195,
      "いいと思う": 10196,
      "tric": 10197,
      "trad": 10198,
      "ようで": 10199,
      "ようと": 10200,
      "ようですが": 10201,
      "plenty": 10202,
      "noted": 10203,
      "どうすれば": 10204,
      "apart": 10205,
      "apparent": 10206,
      "feas": 10207,
      "ferences": 10208,
      "exit": 10209,
      "express": 10210,
      "excellent": 10211,
      "workplace": 10212,
      "button": 10213,
      "somewhat": 10214,
      "erson": 10215,
      "になっちゃ": 10216,
      "りますので": 10217,
      "seemed": 10218,
      "iling": 10219,
      "prec": 10220,
      "impact": 10221,
      "このような": 10222,
      "このまま": 10223,
      "estly": 10224,
      "その辺": 10225,
      "その時に": 10226,
      "その場合は": 10227,
      "れています": 10228,
      "pleased": 10229,
      "themselves": 10230,
      "aining": 10231,
      "acity": 10232,
      "achel": 10233,
      "ured": 10234,
      "お願いできますか": 10235,
      "akami": 10236,
      "asks": 10237,
      "たいと思います": 10238,
      "lets": 10239,
      "それはとても": 10240,
      "があるの": 10241,
      "があるんです": 10242,
      "いただきました": 10243,
      "という意見": 10244,
      "whenever": 10245,
      "会社です": 10246,
      "のはどう": 10247,
      "overwhel": 10248,
      "monitor": 10249,
      "インク": 10250,
      "しましたら": 10251,
      "しているよ": 10252,
      "しているので": 10253,
      "icken": 10254,
      "ief": 10255,
      "pressure": 10256,
      "presence": 10257,
      "何かお": 10258,
      "何かあった": 10259,
      "大丈夫でしょう": 10260,
      "businesses": 10261,
      "んでる": 10262,
      "確認する": 10263,
      "じゃないか": 10264,
      "じゃないから": 10265,
      "しておいた": 10266,
      "いつから": 10267,
      "ってるから": 10268,
      "えるのは": 10269,
      "予定は": 10270,
      "したいと思っています": 10271,
      "ージー": 10272,
      "persona": 10273,
      "ええっ": 10274,
      "いただける": 10275,
      "いただけませんか": 10276,
      "caused": 10277,
      "なかったの": 10278,
      "なかったから": 10279,
      "beforehand": 10280,
      "ここでは": 10281,
      "bruary": 10282,
      "なんでしょう": 10283,
      "されていない": 10284,
      "invite": 10285,
      "を見る": 10286,
      "にお会い": 10287,
      "adding": 10288,
[...]
