{
  "version": "1.0",
  "truncation": null,
  "padding": null,
  "added_tokens": [
    {
      "id": 0,
      "content": "<unk>",
      "single_word": false,
      "lstrip": false,
      "rstrip": false,
      "normalized": false,
      "special": true
    },
    {
      "id": 1,
      "content": "</s>",
      "single_word": false,
      "lstrip": false,
      "rstrip": false,
      "normalized": false,
      "special": true
    },
    {
      "id": 2,
      "content": "<pad>",
      "single_word": false,
      "lstrip": false,
      "rstrip": false,
      "normalized": false,
      "special": true
    },
    {
      "id": 3,
      "content": "<src>",
      "single_word": false,
      "lstrip": false,
      "rstrip": false,
      "normalized": false,
      "special": true
    },
    {
      "id": 4,
      "content": "<tgt>",
      "single_word": false,
      "lstrip": false,
      "rstrip": false,
      "normalized": false,
      "special": true
    }
  ],
  "normalizer": null,
  "pre_tokenizer": {
    "type": "Whitespace"
  },
  "post_processor": null,
  "decoder": null,
  "model": {
    "type": "BPE",
    "dropout": null,
    "unk_token": "<unk>",
    "continuing_subword_prefix": null,
    "end_of_word_suffix": null,
    "fuse_unk": false,
    "byte_fallback": false,
    "ignore_merges": false,
    "vocab": {
      "<unk>": 0,
      "</s>": 1,
      "<pad>": 2,
      "<src>": 3,
      "<tgt>": 4,
      "!": 5,
      "\"": 6,
      "#": 7,
      "$": 8,
      "%": 9,
      "&": 10,
      "'": 11,
      "(": 12,
      ")": 13,
      "*": 14,
      ",": 15,
      "-": 16,
      ".": 17,
      "/": 18,
      "0": 19,
      "1": 20,
      "2": 21,
      "3": 22,
      "4": 23,
      "5": 24,
      "6": 25,
      "7": 26,
      "8": 27,
      "9": 28,
      ":": 29,
      ";": 30,
      "=": 31,
      "?": 32,
      "A": 33,
      "B": 34,
      "C": 35,
      "D": 36,
      "E": 37,
      "F": 38,
      "G": 39,
      "H": 40,
      "I": 41,
      "J": 42,
      "K": 43,
      "L": 44,
      "M": 45,
      "N": 46,
      "O": 47,
      "P": 48,
      "Q": 49,
      "R": 50,
      "S": 51,
      "T": 52,
      "U": 53,
      "V": 54,
      "W": 55,
      "X": 56,
      "Y": 57,
      "Z": 58,
      "\\": 59,
      "a": 60,
      "b": 61,
      "c": 62,
      "d": 63,
      "e": 64,
      "f": 65,
      "g": 66,
      "h": 67,
      "i": 68,
      "j": 69,
      "k": 70,
      "l": 71,
      "m": 72,
      "n": 73,
      "o": 74,
      "p": 75,
      "q": 76,
      "r": 77,
      "s": 78,
      "t": 79,
      "u": 80,
      "v": 81,
      "w": 82,
      "x": 83,
      "y": 84,
      "z": 85,
      "£": 86,
      "¥": 87,
      "°": 88,
      "–": 89,
      "—": 90,
      "‘": 91,
      "’": 92,
      "“": 93,
      "”": 94,
      "。": 95,
      "ou": 96,
      "th": 97,
      "in": 98,
      "re": 99,
      "an": 100,
      "you": 101,
      "to": 102,
      "at": 103,
      "er": 104,
      "the": 105,
      "on": 106,
      "ing": 107,
      "or": 108,
      "me": 109,
      "is": 110,
      "ll": 111,
      "he": 112,
      "ve": 113,
      "se": 114,
      "it": 115,
      "st": 116,
      "ar": 117,
      "le": 118,
      "ow": 119,
      "ha": 120,
      "ke": 121,
      "es": 122,
      "ay": 123,
      "en": 124,
      "oo": 125,
      "hat": 126,
      "of": 127,
      "for": 128,
      "and": 129,
      "ic": 130,
      "be": 131,
      "li": 132,
      "do": 133,
      "have": 134,
      "ed": 135,
      "ld": 136,
      "as": 137,
      "are": 138,
      "we": 139,
      "so": 140,
      "et": 141,
      "all": 142,
      "al": 143,
      "go": 144,
      "What": 145,
      "ch": 146,
      "id": 147,
      "co": 148,
      "wi": 149,
      "your": 150,
      "ne": 151,
      "ver": 152,
      "gh": 153,
      "ould": 154,
      "ad": 155,
      "ro": 156,
      "like": 157,
      "ut": 158,
      "out": 159,
      "my": 160,
      "nt": 161,
      "ir": 162,
      "ell": 163,
      "ion": 164,
      "ac": 165,
      "ab": 166,
      "can": 167,
      "this": 168,
      "here": 169,
      "that": 170,
      "ght": 171,
      "ri": 172,
      "ot": 173,
      "am": 174,
      "day": 175,
      "ood": 176,
      "Yes": 177,
      "It": 178,
      "with": 179,
      "our": 180,
      "any": 181,
      "ter": 182,
      "now": 183,
      "ly": 184,
      "su": 185,
      "ple": 186,
      "ant": 187,
      "one": 188,
      "How": 189,
      "ook": 190,
      "some": 191,
      "us": 192,
      "nd": 193,
      "You": 194,
      "ti": 195,
      "ry": 196,
      "pe": 197,
      "ink": 198,
      "hel": 199,
      "ho": 200,
      "mo": 201,
      "thing": 202,
      "about": 203,
      "ust": 204,
      "help": 205,
      "mp": 206,
      "ally": 207,
      "ag": 208,
      "ake": 209,
      "ase": 210,
      "very": 211,
      "wor": 212,
      "get": 213,
      "think": 214,
      "ce": 215,
      "fe": 216,
      "lo": 217,
      "ice": 218,
      "ning": 219,
      "use": 220,
      "what": 221,
      "We": 222,
      "ation": 223,
      "ur": 224,
      "ind": 225,
      "was": 226,
      "sh": 227,
      "pp": 228,
      "The": 229,
      "see": 230,
      "Do": 231,
      "ment": 232,
      "know": 233,
      "want": 234,
      "He": 235,
      "time": 236,
      "ra": 237,
      "mor": 238,
      "up": 239,
      "Th": 240,
      "te": 241,
      "art": 242,
      "look": 243,
      "don": 244,
      "not": 245,
      "if": 246,
      "there": 247,
      "Hell": 248,
      "Hello": 249,
      "please": 250,
      "de": 251,
      "Can": 252,
      "going": 253,
      "ther": 254,
      "ex": 255,
      "ast": 256,
      "king": 257,
      "pro": 258,
      "ine": 259,
      "but": 260,
      "ank": 261,
      "Good": 262,
      "ate": 263,
      "need": 264,
      "would": 265,
      "no": 266,
      "pl": 267,
      "ent": 268,
      "just": 269,
      "ight": 270,
      "ill": 271,
      "un": 272,
      "Hi": 273,
      "new": 274,
      "ong": 275,
      "per": 276,
      "ct": 277,
      "ard": 278,
      "res": 279,
      "af": 280,
      "ain": 281,
      "really": 282,
      "come": 283,
      "ul": 284,
      "con": 285,
      "Mr": 286,
      "ge": 287,
      "good": 288,
      "been": 289,
      "qu": 290,
      "morning": 291,
      "will": 292,
      "comp": 293,
      "..": 294,
      "rom": 295,
      "jo": 296,
      "did": 297,
      "ure": 298,
      "ble": 299,
      "today": 300,
      "ive": 301,
      "il": 302,
      "ame": 303,
      "take": 304,
      "from": 305,
      "way": 306,
      "Ex": 307,
      "ye": 308,
      "cuse": 309,
      "el": 310,
      "end": 311,
      "hi": 312,
      "got": 313,
      "Is": 314,
      "ave": 315,
      "che": 316,
      "hy": 317,
      "how": 318,
      "right": 319,
      "po": 320,
      "ort": 321,
      "May": 322,
      "off": 323,
      "ck": 324,
      "part": 325,
      "Excuse": 326,
      "No": 327,
      "work": 328,
      "ess": 329,
      "Oh": 330,
      "mu": 331,
      "sir": 332,
      "Are": 333,
      "ack": 334,
      "spe": 335,
      "too": 336,
      "much": 337,
      "ea": 338,
      "Well": 339,
      "ig": 340,
      "ie": 341,
      "der": 342,
      "sp": 343,
      "My": 344,
      "oom": 345,
      "red": 346,
      "bus": 347,
      "ite": 348,
      "bu": 349,
      "ma": 350,
      "wee": 351,
      "hen": 352,
      "That": 353,
      "ity": 354,
      "man": 355,
      "night": 356,
      "tr": 357,
      "read": 358,
      "room": 359,
      "tell": 360,
      "com": 361,
      "has": 362,
      "cou": 363,
      "orry": 364,
      "bo": 365,
      "Thank": 366,
      "eve": 367,
      "able": 368,
      "Ch": 369,
      "should": 370,
      "make": 371,
      "over": 372,
      "This": 373,
      "own": 374,
      "after": 375,
      "av": 376,
      "call": 377,
      "ary": 378,
      "ound": 379,
      "reat": 380,
      "ree": 381,
      "But": 382,
      "rest": 383,
      "ers": 384,
      "Why": 385,
      "erv": 386,
      "job": 387,
      "had": 388,
      "fo": 389,
      "ak": 390,
      "Have": 391,
      "every": 392,
      "last": 393,
      "So": 394,
      "ish": 395,
      "could": 396,
      "ket": 397,
      "ist": 398,
      "more": 399,
      "Let": 400,
      "by": 401,
      "meet": 402,
      "ang": 403,
      "count": 404,
      "gl": 405,
      "something": 406,
      "pre": 407,
      "year": 408,
      "ty": 409,
      "company": 410,
      "act": 411,
      "ies": 412,
      "wo": 413,
      "ous": 414,
      "sa": 415,
      "won": 416,
      "gr": 417,
      "cl": 418,
      "pr": 419,
      "they": 420,
      "ss": 421,
      "sure": 422,
      "app": 423,
      "irst": 424,
      "Could": 425,
      "ich": 426,
      "where": 427,
      "buy": 428,
      "Would": 429,
      "sto": 430,
      "Sure": 431,
      "ms": 432,
      "ass": 433,
      "du": 434,
      "There": 435,
      "Where": 436,
      "cour": 437,
      "...": 438,
      "say": 439,
      "tle": 440,
      "age": 441,
      "kind": 442,
      "ide": 443,
      "ople": 444,
      "proble": 445,
      "ving": 446,
      "ace": 447,
      "mb": 448,
      "row": 449,
      "looking": 450,
      "Did": 451,
      "sorry": 452,
      "well": 453,
      "doing": 454,
      "fore": 455,
      "great": 456,
      "find": 457,
      "fri": 458,
      "ci": 459,
      "Hey": 460,
      "Ve": 461,
      "noon": 462,
      "long": 463,
      "week": 464,
      "course": 465,
      "them": 466,
      "ick": 467,
      "lot": 468,
      "name": 469,
      "tor": 470,
      "Jo": 471,
      "ep": 472,
      "tra": 473,
      "afternoon": 474,
      "may": 475,
      "people": 476,
      "let": 477,
      "feel": 478,
      "mar": 479,
      "other": 480,
      "inter": 481,
      "happ": 482,
      "car": 483,
      "first": 484,
      "To": 485,
      "br": 486,
      "Co": 487,
      "hich": 488,
      "many": 489,
      "sit": 490,
      "son": 491,
      "atch": 492,
      "mad": 493,
      "vie": 494,
      "her": 495,
      "ner": 496,
      "ance": 497,
      "back": 498,
      "ool": 499,
      "friend": 500,
      "air": 501,
      "ten": 502,
      "two": 503,
      "wr": 504,
      "fin": 505,
      "min": 506,
      "love": 507,
      "lit": 508,
      "mer": 509,
      "eah": 510,
      "im": 511,
      "these": 512,
      "ready": 513,
      "ting": 514,
      "xt": 515,
      "Yeah": 516,
      "est": 517,
      "down": 518,
      "give": 519,
      "again": 520,
      "problem": 521,
      "anything": 522,
      "oney": 523,
      "And": 524,
      "lf": 525,
      "ough": 526,
      "int": 527,
      "plan": 528,
      "und": 529,
      "aking": 530,
      "book": 531,
      "late": 532,
      "order": 533,
      "Here": 534,
      "ought": 535,
      "most": 536,
      "inte": 537,
      "ud": 538,
      "next": 539,
      "interest": 540,
      "00": 541,
      "iss": 542,
      "she": 543,
      "little": 544,
      "gu": 545,
      "nice": 546,
      "when": 547,
      "ked": 548,
      "didn": 549,
      "check": 550,
      "home": 551,
      "mon": 552,
      "partment": 553,
      "him": 554,
      "ca": 555,
      "his": 556,
      "tal": 557,
      "ouse": 558,
      "hn": 559,
      "ait": 560,
      "who": 561,
      "sho": 562,
      "wonder": 563,
      "John": 564,
      "Don": 565,
      "ress": 566,
      "imp": 567,
      "speak": 568,
      "tonight": 569,
      "bet": 570,
      "les": 571,
      "ert": 572,
      "morrow": 573,
      "office": 574,
      "ster": 575,
      "lcome": 576,
      "mber": 577,
      "ose": 578,
      "days": 579,
      "urn": 580,
      "They": 581,
      "di": 582,
      "mi": 583,
      "before": 584,
      "haven": 585,
      "clo": 586,
      "OK": 587,
      "pen": 588,
      "iness": 589,
      "ise": 590,
      "things": 591,
      "ater": 592,
      "does": 593,
      "bl": 594,
      "Mary": 595,
      "play": 596,
      "ful": 597,
      "ign": 598,
      "ask": 599,
      "were": 600,
      "minut": 601,
      "An": 602,
      "When": 603,
      "ange": 604,
      "tomorrow": 605,
      "show": 606,
      "ina": 607,
      "rent": 608,
      "business": 609,
      "En": 610,
      "si": 611,
      "lease": 612,
      "ways": 613,
      "start": 614,
      "working": 615,
      "evening": 616,
      "cor": 617,
      "light": 618,
      "Be": 619,
      "house": 620,
      "heard": 621,
      "still": 622,
      "din": 623,
      "must": 624,
      "mind": 625,
      "ans": 626,
      "eat": 627,
      "ven": 628,
      "money": 629,
      "ob": 630,
      "set": 631,
      "ach": 632,
      "la": 633,
      "fic": 634,
      "wrong": 635,
      "Please": 636,
      "big": 637,
      "pay": 638,
      "sch": 639,
      "yet": 640,
      "only": 641,
      "self": 642,
      "Of": 643,
      "try": 644,
      "into": 645,
      "ark": 646,
      "form": 647,
      "ren": 648,
      "always": 649,
      "serv": 650,
      "tic": 651,
      "ue": 652,
      "month": 653,
      "Engl": 654,
      "If": 655,
      "thank": 656,
      "made": 657,
      "ather": 658,
      "pa": 659,
      "hear": 660,
      "dinner": 661,
      "dis": 662,
      "pt": 663,
      "few": 664,
      "raid": 665,
      "head": 666,
      "afraid": 667,
      "hed": 668,
      "school": 669,
      "ticket": 670,
      "ret": 671,
      "around": 672,
      "cy": 673,
      "hand": 674,
      "vis": 675,
      "old": 676,
      "tri": 677,
      "She": 678,
      "wait": 679,
      "irl": 680,
      "years": 681,
      "ear": 682,
      "English": 683,
      "bad": 684,
      "fam": 685,
      "ily": 686,
      "port": 687,
      "watch": 688,
      "coming": 689,
      "ervation": 690,
      "better": 691,
      "dr": 692,
      "nu": 693,
      "ph": 694,
      "why": 695,
      "kend": 696,
      "ions": 697,
      "joy": 698,
      "weekend": 699,
      "ever": 700,
      "class": 701,
      "Not": 702,
      "stud": 703,
      "getting": 704,
      "place": 705,
      "view": 706,
      "meeting": 707,
      "comput": 708,
      "happen": 709,
      "aut": 710,
      "dif": 711,
      "party": 712,
      "cial": 713,
      "ft": 714,
      "isn": 715,
      "hour": 716,
      "put": 717,
      "enjoy": 718,
      "cle": 719,
      "ru": 720,
      "table": 721,
      "inese": 722,
      "cause": 723,
      "food": 724,
      "Just": 725,
      "fi": 726,
      "mat": 727,
      "three": 728,
      "beaut": 729,
      "Welcome": 730,
      "Re": 731,
      "supp": 732,
      "sport": 733,
      "ence": 734,
      "vers": 735,
      "reservation": 736,
      "Thanks": 737,
      "bit": 738,
      "than": 739,
      "stand": 740,
      "Chinese": 741,
      "everything": 742,
      "fl": 743,
      "lle": 744,
      "doc": 745,
      "glad": 746,
      "ction": 747,
      "Tom": 748,
      "mith": 749,
      "keep": 750,
      "under": 751,
      "Fr": 752,
      "Smith": 753,
      "bre": 754,
      "hard": 755,
      "ze": 756,
      "sent": 757,
      "account": 758,
      "ail": 759,
      "girl": 760,
      "ip": 761,
      "sur": 762,
      "China": 763,
      "produ": 764,
      "All": 765,
      "Which": 766,
      "bro": 767,
      "card": 768,
      "which": 769,
      "dec": 770,
      "yester": 771,
      "service": 772,
      "yesterday": 773,
      "ild": 774,
      "seen": 775,
      "iful": 776,
      "quest": 777,
      "Sorry": 778,
      "hot": 779,
      "um": 780,
      "lieve": 781,
      "idea": 782,
      "ager": 783,
      "Look": 784,
      "ef": 785,
      "sed": 786,
      "looks": 787,
      "computer": 788,
      "cent": 789,
      "change": 790,
      "Who": 791,
      "ap": 792,
      "done": 793,
      "thought": 794,
      "ried": 795,
      "beautiful": 796,
      "care": 797,
      "fav": 798,
      "yes": 799,
      "never": 800,
      "posit": 801,
      "calling": 802,
      "drink": 803,
      "Ne": 804,
      "vac": 805,
      "quite": 806,
      "market": 807,
      "Now": 808,
      "best": 809,
      "In": 810,
      "Mo": 811,
      "apartment": 812,
      "ike": 813,
      "ious": 814,
      "pic": 815,
      "ually": 816,
      "seems": 817,
      "dress": 818,
      "side": 819,
      "leave": 820,
      "talk": 821,
      "Miss": 822,
      "dy": 823,
      "Bob": 824,
      "des": 825,
      "ated": 826,
      "having": 827,
      "believe": 828,
      "ations": 829,
      "speaking": 830,
      "happy": 831,
      "ertain": 832,
      "open": 833,
      "vel": 834,
      "ments": 835,
      "ax": 836,
      "fu": 837,
      "went": 838,
      "their": 839,
      "cond": 840,
      "train": 841,
      "matter": 842,
      "sha": 843,
      "then": 844,
      "stay": 845,
      "peri": 846,
      "ular": 847,
      "Come": 848,
      "Your": 849,
      "cus": 850,
      "dri": 851,
      "line": 852,
      "said": 853,
      "free": 854,
      "ivers": 855,
      "run": 856,
      "mean": 857,
      "manager": 858,
      "par": 859,
      "sk": 860,
      "ica": 861,
      "minutes": 862,
      "phone": 863,
      "ished": 864,
      "also": 865,
      "favor": 866,
      "lic": 867,
      "its": 868,
      "ash": 869,
      "terri": 870,
      "iting": 871,
      "jing": 872,
      "left": 873,
      "person": 874,
      "Ste": 875,
      "aur": 876,
      "five": 877,
      "send": 878,
      "ars": 879,
      "import": 880,
      "happened": 881,
      "Will": 882,
      "sing": 883,
      "offe": 884,
      "colle": 885,
      "movie": 886,
      "exc": 887,
      "Li": 888,
      "ertainly": 889,
      "fast": 890,
      "mus": 891,
      "rough": 892,
      "country": 893,
      "interested": 894,
      "New": 895,
      "Mon": 896,
      "bor": 897,
      "je": 898,
      "net": 899,
      "ouble": 900,
      "seat": 901,
      "such": 902,
      "pping": 903,
      "Ok": 904,
      "miss": 905,
      "oint": 906,
      "ited": 907,
      "live": 908,
      "ball": 909,
      "bir": 910,
      "fine": 911,
      "ger": 912,
      "ps": 913,
      "ts": 914,
      "als": 915,
      "busy": 916,
      "aurant": 917,
      "St": 918,
      "because": 919,
      "hile": 920,
      "high": 921,
      "appoint": 922,
      "interview": 923,
      "ijing": 924,
      "tour": 925,
      "turn": 926,
      "already": 927,
      "ational": 928,
      "offer": 929,
      "Beijing": 930,
      "diffe": 931,
      "city": 932,
      "member": 933,
      "ny": 934,
      "another": 935,
      "mach": 936,
      "iversity": 937,
      "cess": 938,
      "lar": 939,
      "inv": 940,
      "ane": 941,
      "hope": 942,
      "world": 943,
      "special": 944,
      "ward": 945,
      "while": 946,
      "doll": 947,
      "wife": 948,
      "times": 949,
      "break": 950,
      "music": 951,
      "au": 952,
      "through": 953,
      "ste": 954,
      "life": 955,
      "col": 956,
      "bring": 957,
      "important": 958,
      "offee": 959,
      "reg": 960,
      "lost": 961,
      "news": 962,
      "grad": 963,
      "ding": 964,
      "list": 965,
      "moment": 966,
      "interesting": 967,
      "birth": 968,
      "Br": 969,
      "Bill": 970,
      "rece": 971,
      "anc": 972,
      "ved": 973,
      "ses": 974,
      "arm": 975,
      "suit": 976,
      "called": 977,
      "study": 978,
      "Jack": 979,
      "usu": 980,
      "wal": 981,
      "told": 982,
      "att": 983,
      "Al": 984,
      "bought": 985,
      "tory": 986,
      "teach": 987,
      "experi": 988,
      "pret": 989,
      "trip": 990,
      "full": 991,
      "fer": 992,
      "pare": 993,
      "bed": 994,
      "friends": 995,
      "Really": 996,
      "pretty": 997,
      "coffee": 998,
      "date": 999,
      "ken": 1000,
      "often": 1001,
      "ages": 1002,
      "Un": 1003,
      "found": 1004,
      "ton": 1005,
      "ating": 1006,
      "ates": 1007,
      "used": 1008,
      "unch": 1009,
      "family": 1010,
      "birthday": 1011,
      "Amer": 1012,
      "cur": 1013,
      "fac": 1014,
      "ork": 1015,
      "child": 1016,
      "thinking": 1017,
      "thanks": 1018,
      "Jim": 1019,
      "flight": 1020,
      "pas": 1021,
      "sm": 1022,
      "those": 1023,
      "restaurant": 1024,
      "price": 1025,
      "appointment": 1026,
      "Mike": 1027,
      "bag": 1028,
      "eas": 1029,
      "mis": 1030,
      "ason": 1031,
      "test": 1032,
      "present": 1033,
      "number": 1034,
      "Nice": 1035,
      "ali": 1036,
      "came": 1037,
      "fun": 1038,
      "gy": 1039,
      "game": 1040,
      "mend": 1041,
      "sever": 1042,
      "weather": 1043,
      "adv": 1044,
      "mail": 1045,
      "aving": 1046,
      "paper": 1047,
      "For": 1048,
      "kid": 1049,
      "mm": 1050,
      "taking": 1051,
      "ince": 1052,
      "led": 1053,
      "eter": 1054,
      "yourself": 1055,
      "ject": 1056,
      "Wow": 1057,
      "inform": 1058,
      "lear": 1059,
      "soon": 1060,
      "gest": 1061,
      "suppose": 1062,
      "10": 1063,
      "As": 1064,
      "TV": 1065,
      "almost": 1066,
      "ident": 1067,
      "pect": 1068,
      "minute": 1069,
      "product": 1070,
      "bab": 1071,
      "ser": 1072,
      "reet": 1073,
      "aren": 1074,
      "tired": 1075,
      "department": 1076,
      "Comp": 1077,
      "shopping": 1078,
      "different": 1079,
      "ago": 1080,
      "fr": 1081,
      "mas": 1082,
      "pu": 1083,
      "sc": 1084,
      "sign": 1085,
      "toge": 1086,
      "ener": 1087,
      "ship": 1088,
      "commend": 1089,
      "feeling": 1090,
      "madam": 1091,
      "together": 1092,
      "Our": 1093,
      "ices": 1094,
      "each": 1095,
      "vacation": 1096,
      "several": 1097,
      "ath": 1098,
      "na": 1099,
      "water": 1100,
      "remember": 1101,
      "recommend": 1102,
      "atur": 1103,
      "mplo": 1104,
      "cont": 1105,
      "terrible": 1106,
      "band": 1107,
      "hang": 1108,
      "lu": 1109,
      "might": 1110,
      "main": 1111,
      "str": 1112,
      "enough": 1113,
      "ical": 1114,
      "ided": 1115,
      "Mom": 1116,
      "bank": 1117,
      "bill": 1118,
      "iz": 1119,
      "pres": 1120,
      "wn": 1121,
      "ition": 1122,
      "wondering": 1123,
      "usually": 1124,
      "ling": 1125,
      "sle": 1126,
      "same": 1127,
      "reen": 1128,
      "even": 1129,
      "finished": 1130,
      "doctor": 1131,
      "favorite": 1132,
      "dollars": 1133,
      "experience": 1134,
      "Every": 1135,
      "thes": 1136,
      "hair": 1137,
      "wear": 1138,
      "sum": 1139,
      "Does": 1140,
      "body": 1141,
      "Some": 1142,
      "married": 1143,
      "Certainly": 1144,
      "agree": 1145,
      "position": 1146,
      "Go": 1147,
      "Ju": 1148,
      "Mar": 1149,
      "four": 1150,
      "fil": 1151,
      "resu": 1152,
      "second": 1153,
      "being": 1154,
      "asure": 1155,
      "qui": 1156,
      "trouble": 1157,
      "doesn": 1158,
      "information": 1159,
      "cut": 1160,
      "national": 1161,
      "ys": 1162,
      "ities": 1163,
      "near": 1164,
      "road": 1165,
      "fect": 1166,
      "seem": 1167,
      "spend": 1168,
      "books": 1169,
      "hours": 1170,
      "Steven": 1171,
      "gradu": 1172,
      "teacher": 1173,
      "small": 1174,
      "hite": 1175,
      "sche": 1176,
      "val": 1177,
      "report": 1178,
      "team": 1179,
      "else": 1180,
      "boss": 1181,
      "gram": 1182,
      "travel": 1183,
      "wonderful": 1184,
      "decided": 1185,
      "20": 1186,
      "ia": 1187,
      "pur": 1188,
      "sal": 1189,
      "smo": 1190,
      "top": 1191,
      "cho": 1192,
      "iday": 1193,
      "saw": 1194,
      "az": 1195,
      "away": 1196,
      "face": 1197,
      "beg": 1198,
      "welcome": 1199,
      "Mrs": 1200,
      "making": 1201,
      "letter": 1202,
      "waiting": 1203,
      "Friday": 1204,
      "machine": 1205,
      "Company": 1206,
      "Sir": 1207,
      "fre": 1208,
      "fill": 1209,
      "pass": 1210,
      "sick": 1211,
      "myself": 1212,
      "nts": 1213,
      "hold": 1214,
      "ult": 1215,
      "Dav": 1216,
      "York": 1217,
      "ai": 1218,
      "dra": 1219,
      "ible": 1220,
      "lunch": 1221,
      "pain": 1222,
      "unt": 1223,
      "recent": 1224,
      "tract": 1225,
      "Chr": 1226,
      "avail": 1227,
      "clothes": 1228,
      "Any": 1229,
      "started": 1230,
      "clean": 1231,
      "understand": 1232,
      "aturday": 1233,
      "cook": 1234,
      "ng": 1235,
      "town": 1236,
      "ade": 1237,
      "worry": 1238,
      "project": 1239,
      "reading": 1240,
      "sales": 1241,
      "stop": 1242,
      "talking": 1243,
      "pict": 1244,
      "easy": 1245,
      "schedu": 1246,
      "Peter": 1247,
      "Sus": 1248,
      "gg": 1249,
      "past": 1250,
      "alth": 1251,
      "cold": 1252,
      "join": 1253,
      "ility": 1254,
      "six": 1255,
      "Okay": 1256,
      "available": 1257,
      "cri": 1258,
      "ctor": 1259,
      "pick": 1260,
      "pair": 1261,
      "erc": 1262,
      "expect": 1263,
      "program": 1264,
      "nothing": 1265,
      "cks": 1266,
      "ounds": 1267,
      "actually": 1268,
      "guess": 1269,
      "Dad": 1270,
      "Ro": 1271,
      "Wang": 1272,
      "aw": 1273,
      "cha": 1274,
      "far": 1275,
      "ian": 1276,
      "ial": 1277,
      "ient": 1278,
      "swe": 1279,
      "ofess": 1280,
      "ality": 1281,
      "exam": 1282,
      "everyone": 1283,
      "visit": 1284,
      "docu": 1285,
      "questions": 1286,
      "summer": 1287,
      "Susan": 1288,
      "De": 1289,
      "Jane": 1290,
      "Saturday": 1291,
      "cam": 1292,
      "hur": 1293,
      "pri": 1294,
      "ery": 1295,
      "met": 1296,
      "less": 1297,
      "ooked": 1298,
      "sug": 1299,
      "exerc": 1300,
      "Maybe": 1301,
      "apply": 1302,
      "store": 1303,
      "David": 1304,
      "30": 1305,
      "Hot": 1306,
      "Lu": 1307,
      "Mark": 1308,
      "ces": 1309,
      "case": 1310,
      "ok": 1311,
      "por": 1312,
      "sy": 1313,
      "since": 1314,
      "arr": 1315,
      "half": 1316,
      "conf": 1317,
      "post": 1318,
      "poss": 1319,
      "shop": 1320,
      "question": 1321,
      "axi": 1322,
      "walk": 1323,
      "Act": 1324,
      "Jen": 1325,
      "Ms": 1326,
      "ount": 1327,
      "ont": 1328,
      "arri": 1329,
      "sub": 1330,
      "university": 1331,
      "partic": 1332,
      "trying": 1333,
      "return": 1334,
      "fit": 1335,
      "pon": 1336,
      "whe": 1337,
      "ines": 1338,
      "rel": 1339,
      "living": 1340,
      "along": 1341,
      "ache": 1342,
      "ries": 1343,
      "mother": 1344,
      "pop": 1345,
      "Actually": 1346,
      "Le": 1347,
      "Mad": 1348,
      "ffic": 1349,
      "uan": 1350,
      "ones": 1351,
      "stra": 1352,
      "street": 1353,
      "lia": 1354,
      "char": 1355,
      "someone": 1356,
      "clock": 1357,
      "hotel": 1358,
      "large": 1359,
      "color": 1360,
      "suggest": 1361,
      "Hotel": 1362,
      "Int": 1363,
      "Wait": 1364,
      "ah": 1365,
      "ele": 1366,
      "emplo": 1367,
      "hus": 1368,
      "rat": 1369,
      "med": 1370,
      "leaving": 1371,
      "ower": 1372,
      "ics": 1373,
      "cost": 1374,
      "pleasure": 1375,
      "wanted": 1376,
      "rather": 1377,
      "comple": 1378,
      "watching": 1379,
      "shall": 1380,
      "Christ": 1381,
      "husband": 1382,
      "IB": 1383,
      "land": 1384,
      "real": 1385,
      "men": 1386,
      "oose": 1387,
      "irt": 1388,
      "cel": 1389,
      "cept": 1390,
      "uring": 1391,
      "point": 1392,
      "foreign": 1393,
      "discus": 1394,
      "college": 1395,
      "learn": 1396,
      "sleep": 1397,
      "50": 1398,
      "Lon": 1399,
      "cer": 1400,
      "rect": 1401,
      "ancy": 1402,
      "health": 1403,
      "enter": 1404,
      "word": 1405,
      "problems": 1406,
      "London": 1407,
      "Lin": 1408,
      "ator": 1409,
      "catch": 1410,
      "father": 1411,
      "pack": 1412,
      "ring": 1413,
      "door": 1414,
      "Then": 1415,
      "rain": 1416,
      "ift": 1417,
      "exact": 1418,
      "comes": 1419,
      "ulations": 1420,
      "taken": 1421,
      "ield": 1422,
      "box": 1423,
      "sale": 1424,
      "traffic": 1425,
      "lovely": 1426,
      "receive": 1427,
      "children": 1428,
      "supposed": 1429,
      "film": 1430,
      "recently": 1431,
      "First": 1432,
      "vo": 1433,
      "ican": 1434,
      "dog": 1435,
      "goes": 1436,
      "cop": 1437,
      "tive": 1438,
      "deal": 1439,
      "both": 1440,
      "board": 1441,
      "weeks": 1442,
      "early": 1443,
      "jor": 1444,
      "lad": 1445,
      "pie": 1446,
      "wish": 1447,
      "zy": 1448,
      "ister": 1449,
      "len": 1450,
      "ext": 1451,
      "ends": 1452,
      "major": 1453,
      "planning": 1454,
      "surpr": 1455,
      "passport": 1456,
      "begin": 1457,
      "fresh": 1458,
      "Great": 1459,
      "Se": 1460,
      "aper": 1461,
      "cup": 1462,
      "sid": 1463,
      "sell": 1464,
      "arch": 1465,
      "oot": 1466,
      "forward": 1467,
      "vert": 1468,
      "move": 1469,
      "loc": 1470,
      "ung": 1471,
      "contract": 1472,
      "boy": 1473,
      "prefer": 1474,
      "plans": 1475,
      "000": 1476,
      "shoes": 1477,
      "brother": 1478,
      "Monica": 1479,
      "parents": 1480,
      "schedule": 1481,
      "Inter": 1482,
      "Take": 1483,
      "ahead": 1484,
      "ced": 1485,
      "cred": 1486,
      "fact": 1487,
      "ness": 1488,
      "park": 1489,
      "ues": 1490,
      "ures": 1491,
      "vir": 1492,
      "respon": 1493,
      "rooms": 1494,
      "size": 1495,
      "tickets": 1496,
      "Brown": 1497,
      "factory": 1498,
      "discuss": 1499,
      "Dan": 1500,
      "Tho": 1501,
      "cr": 1502,
      "gan": 1503,
      "later": 1504,
      "mot": 1505,
      "thir": 1506,
      "once": 1507,
      "stu": 1508,
      "station": 1509,
      "eng": 1510,
      "choose": 1511,
      "seeing": 1512,
      "tea": 1513,
      "expen": 1514,
      "kinds": 1515,
      "internet": 1516,
      "custo": 1517,
      "aught": 1518,
      "listen": 1519,
      "studying": 1520,
      "products": 1521,
      "Me": 1522,
      "On": 1523,
      "Room": 1524,
      "ping": 1525,
      "sou": 1526,
      "wed": 1527,
      "ital": 1528,
      "weight": 1529,
      "chang": 1530,
      "irm": 1531,
      "sun": 1532,
      "ongrat": 1533,
      "chec": 1534,
      "couldn": 1535,
      "angu": 1536,
      "drive": 1537,
      "until": 1538,
      "possible": 1539,
      "Christmas": 1540,
      "Bank": 1541,
      "Lo": 1542,
      "Pa": 1543,
      "Sha": 1544,
      "hu": 1545,
      "lt": 1546,
      "mag": 1547,
      "sight": 1548,
      "sive": 1549,
      "vies": 1550,
      "wind": 1551,
      "inve": 1552,
      "young": 1553,
      "organ": 1554,
      "sec": 1555,
      "search": 1556,
      "sty": 1557,
      "chance": 1558,
      "ross": 1559,
      "outside": 1560,
      "true": 1561,
      "breakfast": 1562,
      "attend": 1563,
      "exercise": 1564,
      "Jenny": 1565,
      "particular": 1566,
      "popular": 1567,
      "Madam": 1568,
      "Par": 1569,
      "cli": 1570,
      "gent": 1571,
      "gift": 1572,
      "low": 1573,
      "ta": 1574,
      "ub": 1575,
      "ative": 1576,
      "velo": 1577,
      "hate": 1578,
      "ides": 1579,
      "ellent": 1580,
      "suc": 1581,
      "ush": 1582,
      "movies": 1583,
      "worked": 1584,
      "pped": 1585,
      "needs": 1586,
      "build": 1587,
      "finally": 1588,
      "months": 1589,
      "diffic": 1590,
      "girlfriend": 1591,
      "excited": 1592,
      "advice": 1593,
      "front": 1594,
      "draw": 1595,
      "sider": 1596,
      "ongratulations": 1597,
      "12": 1598,
      "Green": 1599,
      "Happ": 1600,
      "Pe": 1601,
      "bot": 1602,
      "cra": 1603,
      "daught": 1604,
      "io": 1605,
      "mit": 1606,
      "swi": 1607,
      "tast": 1608,
      "online": 1609,
      "ict": 1610,
      "nel": 1611,
      "super": 1612,
      "holi": 1613,
      "worried": 1614,
      "Nothing": 1615,
      "couple": 1616,
      "airport": 1617,
      "finish": 1618,
      "lately": 1619,
      "whole": 1620,
      "rence": 1621,
      "famous": 1622,
      "American": 1623,
      "Paul": 1624,
      "Happy": 1625,
      "Dr": 1626,
      "Fine": 1627,
      "Mor": 1628,
      "cash": 1629,
      "gone": 1630,
      "mine": 1631,
      "var": 1632,
      "erry": 1633,
      "sen": 1634,
      "sol": 1635,
      "allow": 1636,
      "advert": 1637,
      "log": 1638,
      "dep": 1639,
      "astic": 1640,
      "consider": 1641,
      "counter": 1642,
      "type": 1643,
      "playing": 1644,
      "picture": 1645,
      "Gr": 1646,
      "bar": 1647,
      "field": 1648,
      "ize": 1649,
      "pho": 1650,
      "sort": 1651,
      "site": 1652,
      "winter": 1653,
      "hai": 1654,
      "icken": 1655,
      "rodu": 1656,
      "acc": 1657,
      "wash": 1658,
      "short": 1659,
      "ousand": 1660,
      "grand": 1661,
      "stock": 1662,
      "longer": 1663,
      "cord": 1664,
      "sports": 1665,
      "fully": 1666,
      "University": 1667,
      "success": 1668,
      "At": 1669,
      "Gu": 1670,
      "ev": 1671,
      "ff": 1672,
      "flo": 1673,
      "foot": 1674,
      "kit": 1675,
      "langu": 1676,
      "oper": 1677,
      "taxi": 1678,
      "plac": 1679,
      "aff": 1680,
      "took": 1681,
      "says": 1682,
      "Joe": 1683,
      "eating": 1684,
      "broke": 1685,
      "ofessor": 1686,
      "Lucy": 1687,
      "syste": 1688,
      "whether": 1689,
      "straight": 1690,
      "complete": 1691,
      "received": 1692,
      "wedding": 1693,
      "secret": 1694,
      "daughter": 1695,
      "Che": 1696,
      "Honey": 1697,
      "bas": 1698,
      "bur": 1699,
      "during": 1700,
      "fig": 1701,
      "hor": 1702,
      "opp": 1703,
      "tw": 1704,
      "wan": 1705,
      "though": 1706,
      "thousand": 1707,
      "ature": 1708,
      "onest": 1709,
      "hosp": 1710,
      "tele": 1711,
      "newsp": 1712,
      "goods": 1713,
      "manage": 1714,
      "trans": 1715,
      "overtime": 1716,
      "plane": 1717,
      "headache": 1718,
      "driving": 1719,
      "running": 1720,
      "personal": 1721,
      "Monday": 1722,
      "bably": 1723,
      "exactly": 1724,
      "newspaper": 1725,
      "15": 1726,
      "Ac": 1727,
      "Pr": 1728,
      "cert": 1729,
      "igh": 1730,
      "yuan": 1731,
      "erve": 1732,
      "orge": 1733,
      "mess": 1734,
      "heart": 1735,
      "lent": 1736,
      "inda": 1737,
      "Doctor": 1738,
      "deposit": 1739,
      "prepare": 1740,
      "Ann": 1741,
      "corner": 1742,
      "clear": 1743,
      "training": 1744,
      "kids": 1745,
      "responsi": 1746,
      "Shall": 1747,
      "Congratulations": 1748,
      "Mic": 1749,
      "cre": 1750,
      "hit": 1751,
      "ted": 1752,
      "ins": 1753,
      "ings": 1754,
      "menu": 1755,
      "key": 1756,
      "area": 1757,
      "ween": 1758,
      "anyone": 1759,
      "tific": 1760,
      "wants": 1761,
      "dear": 1762,
      "concert": 1763,
      "compl": 1764,
      "ames": 1765,
      "chen": 1766,
      "ortun": 1767,
      "pract": 1768,
      "introdu": 1769,
      "latest": 1770,
      "law": 1771,
      "surance": 1772,
      "single": 1773,
      "America": 1774,
      "publ": 1775,
      "package": 1776,
      "copy": 1777,
      "Morning": 1778,
      "system": 1779,
      "Ah": 1780,
      "Day": 1781,
      "Park": 1782,
      "Tr": 1783,
      "White": 1784,
      "cat": 1785,
      "llo": 1786,
      "forman": 1787,
      "asked": 1788,
      "ety": 1789,
      "ters": 1790,
      "deli": 1791,
      "dered": 1792,
      "exp": 1793,
      "ents": 1794,
      "perfect": 1795,
      "cono": 1796,
      "conven": 1797,
      "quick": 1798,
      "international": 1799,
      "impro": 1800,
      "payment": 1801,
      "baby": 1802,
      "resume": 1803,
      "salary": 1804,
      "smoking": 1805,
      "documents": 1806,
      "difficult": 1807,
      "photo": 1808,
      "accident": 1809,
      "floor": 1810,
      "AB": 1811,
      "Af": 1812,
      "Linda": 1813,
      "One": 1814,
      "Tell": 1815,
      "US": 1816,
      "cas": 1817,
      "certainly": 1818,
      "ric": 1819,
      "uc": 1820,
      "warm": 1821,
      "rela": 1822,
      "requi": 1823,
      "mester": 1824,
      "llow": 1825,
      "hes": 1826,
      "semester": 1827,
      "chicken": 1828,
      "coat": 1829,
      "without": 1830,
      "develo": 1831,
      "performan": 1832,
      "quality": 1833,
      "applic": 1834,
      "assist": 1835,
      "guy": 1836,
      "flow": 1837,
      "desk": 1838,
      "excellent": 1839,
      "recei": 1840,
      "credit": 1841,
      "expensive": 1842,
      "magaz": 1843,
      "invest": 1844,
      "relax": 1845,
      "ben": 1846,
      "det": 1847,
      "dro": 1848,
      "fund": 1849,
      "ju": 1850,
      "lor": 1851,
      "mid": 1852,
      "pot": 1853,
      "sat": 1854,
      "sister": 1855,
      "wall": 1856,
      "inst": 1857,
      "ency": 1858,
      "add": 1859,
      "aged": 1860,
      "quit": 1861,
      "quar": 1862,
      "pol": 1863,
      "spare": 1864,
      "makes": 1865,
      "buying": 1866,
      "undred": 1867,
      "between": 1868,
      "close": 1869,
      "rench": 1870,
      "enjoyed": 1871,
      "fire": 1872,
      "fied": 1873,
      "mming": 1874,
      "serious": 1875,
      "ountain": 1876,
      "kitchen": 1877,
      "After": 1878,
      "19": 1879,
      "200": 1880,
      "By": 1881,
      "Give": 1882,
      "Jap": 1883,
      "Man": 1884,
      "booked": 1885,
      "cell": 1886,
      "cool": 1887,
      "double": 1888,
      "fif": 1889,
      "fish": 1890,
      "furn": 1891,
      "hundred": 1892,
      "ith": 1893,
      "ili": 1894,
      "uth": 1895,
      "wine": 1896,
      "white": 1897,
      "incl": 1898,
      "hello": 1899,
      "staff": 1900,
      "ability": 1901,
      "mom": 1902,
      "wasn": 1903,
      "These": 1904,
      "tech": 1905,
      "probably": 1906,
      "ately": 1907,
      "ills": 1908,
      "ressed": 1909,
      "erson": 1910,
      "cially": 1911,
      "lots": 1912,
      "style": 1913,
      "ABC": 1914,
      "Ab": 1915,
      "Bl": 1916,
      "Bet": 1917,
      "Ge": 1918,
      "Sun": 1919,
      "Shang": 1920,
      "Tai": 1921,
      "dance": 1922,
      "eye": 1923,
      "fax": 1924,
      "gage": 1925,
      "gener": 1926,
      "hung": 1927,
      "ither": 1928,
      "mater": 1929,
      "nic": 1930,
      "sounds": 1931,
      "tou": 1932,
      "meal": 1933,
      "seven": 1934,
      "star": 1935,
      "leg": 1936,
      "envir": 1937,
      "forgot": 1938,
      "web": 1939,
      "ute": 1940,
      "lose": 1941,
      "shirt": 1942,
      "upset": 1943,
      "del": 1944,
      "decor": 1945,
      "promot": 1946,
      "inema": 1947,
      "brand": 1948,
      "black": 1949,
      "Off": 1950,
      "girls": 1951,
      "decide": 1952,
      "arrange": 1953,
      "piece": 1954,
      "holiday": 1955,
      "depends": 1956,
      "hungry": 1957,
      "French": 1958,
      "Jan": 1959,
      "Rob": 1960,
      "bb": 1961,
      "gra": 1962,
      "jam": 1963,
      "nis": 1964,
      "pet": 1965,
      "rid": 1966,
      "round": 1967,
      "insurance": 1968,
      "record": 1969,
      "means": 1970,
      "section": 1971,
      "beef": 1972,
      "proper": 1973,
      "ched": 1974,
      "spot": 1975,
      "spent": 1976,
      "Today": 1977,
      "writing": 1978,
      "against": 1979,
      "guys": 1980,
      "blue": 1981,
      "borrow": 1982,
      "employe": 1983,
      "crazy": 1984,
      "football": 1985,
      "opportun": 1986,
      "performance": 1987,
      "Shanghai": 1988,
      "environ": 1989,
      "Bo": 1990,
      "Ho": 1991,
      "Sh": 1992,
      "Sar": 1993,
      "cinema": 1994,
      "fash": 1995,
      "ied": 1996,
      "mood": 1997,
      "vot": 1998,
      "oud": 1999,
      "annel": 2000,
      "ising": 2001,
      "arling": 2002,
      "ford": 2003,
      "fort": 2004,
      "lie": 2005,
      "educ": 2006,
      "asses": 2007,
      "neigh": 2008,
      "indust": 2009,
      "wouldn": 2010,
      "plain": 2011,
      "reserve": 2012,
      "compet": 2013,
      "grow": 2014,
      "ground": 2015,
      "direct": 2016,
      "settle": 2017,
      "gym": 2018,
      "luck": 2019,
      "Everything": 2020,
      "stuff": 2021,
      "window": 2022,
      "Professor": 2023,
      "convenient": 2024,
      "satis": 2025,
      "Ad": 2026,
      "Next": 2027,
      "bi": 2028,
      "bath": 2029,
      "econo": 2030,
      "fall": 2031,
      "fair": 2032,
      "honey": 2033,
      "honest": 2034,
      "match": 2035,
      "mountain": 2036,
      "op": 2037,
      "pes": 2038,
      "song": 2039,
      "save": 2040,
      "ual": 2041,
      "win": 2042,
      "reci": 2043,
      "reason": 2044,
      "ordered": 2045,
      "meat": 2046,
      "ised": 2047,
      "issu": 2048,
      "icle": 2049,
      "lier": 2050,
      "abroad": 2051,
      "ants": 2052,
      "temp": 2053,
      "ific": 2054,
      "aster": 2055,
      "Isn": 2056,
      "comm": 2057,
      "club": 2058,
      "diet": 2059,
      "tried": 2060,
      "broken": 2061,
      "design": 2062,
      "Alice": 2063,
      "strong": 2064,
      "Julia": 2065,
      "okay": 2066,
      "Internet": 2067,
      "soup": 2068,
      "checking": 2069,
      "organiz": 2070,
      "bottle": 2071,
      "swimming": 2072,
      "places": 2073,
      "complain": 2074,
      "improve": 2075,
      "develop": 2076,
      "application": 2077,
      "flowers": 2078,
      "Office": 2079,
      "environment": 2080,
      "Rich": 2081,
      "Ti": 2082,
      "Um": 2083,
      "da": 2084,
      "fur": 2085,
      "ival": 2086,
      "kill": 2087,
      "lve": 2088,
      "mill": 2089,
      "pac": 2090,
      "rush": 2091,
      "ug": 2092,
      "uation": 2093,
      "vor": 2094,
      "ination": 2095,
      "erature": 2096,
      "season": 2097,
      "step": 2098,
      "lead": 2099,
      "hael": 2100,
      "esides": 2101,
      "forget": 2102,
      "lies": 2103,
      "ney": 2104,
      "cancel": 2105,
      "terms": 2106,
      "using": 2107,
      "mory": 2108,
      "compan": 2109,
      "ilk": 2110,
      "works": 2111,
      "bud": 2112,
      "trade": 2113,
      "follow": 2114,
      "appro": 2115,
      "ideas": 2116,
      "Johnson": 2117,
      "ption": 2118,
      "ruit": 2119,
      "Franc": 2120,
      "wenty": 2121,
      "collect": 2122,
      "presentation": 2123,
      "kidding": 2124,
      "cooking": 2125,
      "hurry": 2126,
      "hospital": 2127,
      "receipt": 2128,
      "George": 2129,
      "touch": 2130,
      "fashion": 2131,
      "Francis": 2132,
      "Cind": 2133,
      "Oly": 2134,
      "With": 2135,
      "dist": 2136,
      "ier": 2137,
      "ior": 2138,
      "pan": 2139,
      "phy": 2140,
      "sof": 2141,
      "sli": 2142,
      "sci": 2143,
      "sim": 2144,
      "twenty": 2145,
      "vide": 2146,
      "medi": 2147,
      "iced": 2148,
      "antastic": 2149,
      "mention": 2150,
      "conne": 2151,
      "appreci": 2152,
      "tennis": 2153,
      "final": 2154,
      "ails": 2155,
      "Most": 2156,
      "descri": 2157,
      "exciting": 2158,
      "Liu": 2159,
      "bedroom": 2160,
      "baggage": 2161,
      "graduated": 2162,
      "elect": 2163,
      "IBA": 2164,
      "thirty": 2165,
      "washing": 2166,
      "secretary": 2167,
      "introduce": 2168,
      "Cindy": 2169,
      "Olymp": 2170,
      "100": 2171,
      "Ben": 2172,
      "Cor": 2173,
      "ID": 2174,
      "James": 2175,
      "Sand": 2176,
      "Sam": 2177,
      "Sally": 2178,
      "Very": 2179,
      "Zhang": 2180,
      "fed": 2181,
      "lts": 2182,
      "uro": 2183,
      "vate": 2184,
      "wer": 2185,
      "research": 2186,
      "ann": 2187,
      "iture": 2188,
      "lend": 2189,
      "espe": 2190,
      "enti": 2191,
      "become": 2192,
      "gover": 2193,
      "roll": 2194,
      "accept": 2195,
      "amaz": 2196,
      "notice": 2197,
      "deg": 2198,
      "ention": 2199,
      "afford": 2200,
      "quali": 2201,
      "homework": 2202,
      "pale": 2203,
      "fix": 2204,
      "flat": 2205,
      "produce": 2206,
      "condition": 2207,
      "charge": 2208,
      "Thomas": 2209,
      "building": 2210,
      "solute": 2211,
      "advertise": 2212,
      "Grand": 2213,
      "benef": 2214,
      "neighbor": 2215,
      "companies": 2216,
      "especially": 2217,
      "16": 2218,
      "Cl": 2219,
      "Car": 2220,
      "Har": 2221,
      "Jason": 2222,
      "Many": 2223,
      "Res": 2224,
      "Spe": 2225,
      "Tues": 2226,
      "Uh": 2227,
      "bly": 2228,
      "bike": 2229,
      "ctive": 2230,
      "fut": 2231,
      "ks": 2232,
      "knew": 2233,
      "tain": 2234,
      "une": 2235,
      "za": 2236,
      "itation": 2237,
      "lex": 2238,
      "lebr": 2239,
      "beach": 2240,
      "active": 2241,
      "ties": 2242,
      "moved": 2243,
      "celebr": 2244,
      "explain": 2245,
      "arden": 2246,
      "takes": 2247,
      "polic": 2248,
      "trad": 2249,
      "truth": 2250,
      "write": 2251,
      "gue": 2252,
      "divor": 2253,
      "blood": 2254,
      "player": 2255,
      "answer": 2256,
      "vision": 2257,
      "rules": 2258,
      "parking": 2259,
      "born": 2260,
      "States": 2261,
      "current": 2262,
      "missed": 2263,
      "results": 2264,
      "Anything": 2265,
      "document": 2266,
      "surprise": 2267,
      "language": 2268,
      "public": 2269,
      "furniture": 2270,
      "includ": 2271,
      "employees": 2272,
      "opportunity": 2273,
      "industry": 2274,
      "further": 2275,
      "govern": 2276,
      "amazing": 2277,
      "Tuesday": 2278,
      "11": 2279,
      "Bar": 2280,
      "Emory": 2281,
      "Fo": 2282,
      "Lily": 2283,
      "Po": 2284,
      "Rick": 2285,
      "Serv": 2286,
      "Wor": 2287,
      "Wal": 2288,
      "bal": 2289,
      "bid": 2290,
      "base": 2291,
      "dad": 2292,
      "darling": 2293,
      "eight": 2294,
      "eyes": 2295,
      "nes": 2296,
      "sand": 2297,
      "yment": 2298,
      "ancial": 2299,
      "ors": 2300,
      "itch": 2301,
      "ooper": 2302,
      "beer": 2303,
      "yours": 2304,
      "Helen": 2305,
      "dead": 2306,
      "ches": 2307,
      "cheap": 2308,
      "tran": 2309,
      "bother": 2310,
      "Char": 2311,
      "shouldn": 2312,
      "ervous": 2313,
      "carry": 2314,
      "writ": 2315,
      "impress": 2316,
      "cards": 2317,
      "invite": 2318,
      "regis": 2319,
      "games": 2320,
      "confirm": 2321,
      "customer": 2322,
      "changed": 2323,
      "completely": 2324,
      "figure": 2325,
      "Michael": 2326,
      "require": 2327,
      "opin": 2328,
      "future": 2329,
      "Besides": 2330,
      "City": 2331,
      "Di": 2332,
      "Euro": 2333,
      "Sue": 2334,
      "Two": 2335,
      "Year": 2336,
      "blo": 2337,
      "cake": 2338,
      "dre": 2339,
      "fly": 2340,
      "fruit": 2341,
      "fantastic": 2342,
      "gi": 2343,
      "garden": 2344,
      "iel": 2345,
      "looked": 2346,
      "nor": 2347,
      "nine": 2348,
      "nervous": 2349,
      "od": 2350,
      "rout": 2351,
      "spo": 2352,
      "treat": 2353,
      "wat": 2354,
      "outh": 2355,
      "thro": 2356,
      "ond": 2357,
      "libr": 2358,
      "address": 2359,
      "rol": 2360,
      "iring": 2361,
      "cannot": 2362,
      "anyway": 2363,
      "ustra": 2364,
      "urgent": 2365,
      "upid": 2366,
      "teen": 2367,
      "tered": 2368,
      "exhi": 2369,
      "exchange": 2370,
      "process": 2371,
      "yeah": 2372,
      "offic": 2373,
      "tooth": 2374,
      "hasn": 2375,
      "Haven": 2376,
      "angry": 2377,
      "print": 2378,
      "stomach": 2379,
      "courses": 2380,
      "handle": 2381,
      "visiting": 2382,
      "earlier": 2383,
      "famili": 2384,
      "Frank": 2385,
      "shape": 2386,
      "colleag": 2387,
      "coln": 2388,
      "regular": 2389,
      "passed": 2390,
      "God": 2391,
      "quiet": 2392,
      "graduate": 2393,
      "chase": 2394,
      "Lee": 2395,
      "Waiter": 2396,
      "words": 2397,
      "Lincoln": 2398,
      "local": 2399,
      "People": 2400,
      "taste": 2401,
      "various": 2402,
      "Account": 2403,
      "police": 2404,
      "website": 2405,
      "commun": 2406,
      "solutely": 2407,
      "exhibit": 2408,
      "25": 2409,
      "40": 2410,
      "Hu": 2411,
      "Lis": 2412,
      "Mum": 2413,
      "Per": 2414,
      "Pret": 2415,
      "Rose": 2416,
      "RIB": 2417,
      "den": 2418,
      "danc": 2419,
      "ese": 2420,
      "ech": 2421,
      "gave": 2422,
      "itor": 2423,
      "mic": 2424,
      "phi": 2425,
      "pool": 2426,
      "squ": 2427,
      "saving": 2428,
      "rees": 2429,
      "reali": 2430,
      "mes": 2431,
      "veget": 2432,
      "seas": 2433,
      "stea": 2434,
      "stick": 2435,
      "lect": 2436,
      "asking": 2437,
      "sold": 2438,
      "irts": 2439,
      "abl": 2440,
      "tie": 2441,
      "ference": 2442,
      "useum": 2443,
      "urs": 2444,
      "decl": 2445,
      "delic": 2446,
      "nose": 2447,
      "parts": 2448,
      "items": 2449,
      "telling": 2450,
      "jobs": 2451,
      "everybody": 2452,
      "given": 2453,
      "undry": 2454,
      "history": 2455,
      "Ange": 2456,
      "Anna": 2457,
      "lights": 2458,
      "laundry": 2459,
      "services": 2460,
      "paid": 2461,
      "computers": 2462,
      "skills": 2463,
      "shipment": 2464,
      "control": 2465,
      "lugg": 2466,
      "traveling": 2467,
      "purchase": 2468,
      "pictures": 2469,
      "sweet": 2470,
      "sweater": 2471,
      "Department": 2472,
      "camer": 2473,
      "hurts": 2474,
      "private": 2475,
      "poration": 2476,
      "subway": 2477,
      "supermarket": 2478,
      "Guess": 2479,
      "management": 2480,
      "transfer": 2481,
      "express": 2482,
      "magazine": 2483,
      "issue": 2484,
      "appreciate": 2485,
      "government": 2486,
      "library": 2487,
      "Pretty": 2488,
      "delicious": 2489,
      "80": 2490,
      "Airl": 2491,
      "Austra": 2492,
      "His": 2493,
      "Hong": 2494,
      "Jones": 2495,
      "Kev": 2496,
      "Pro": 2497,
      "Right": 2498,
      "Su": 2499,
      "Wil": 2500,
      "ban": 2501,
      "bye": 2502,
      "cable": 2503,
      "dry": 2504,
      "equ": 2505,
      "fell": 2506,
      "gency": 2507,
      "hind": 2508,
      "lab": 2509,
      "oc": 2510,
      "ran": 2511,
      "rate": 2512,
      "anim": 2513,
      "total": 2514,
      "ony": 2515,
      "llen": 2516,
      "heav": 2517,
      "stru": 2518,
      "least": 2519,
      "ication": 2520,
      "behind": 2521,
      "ada": 2522,
      "ional": 2523,
      "loan": 2524,
      "load": 2525,
      "knowled": 2526,
      "rail": 2527,
      "extra": 2528,
      "promis": 2529,
      "mum": 2530,
      "space": 2531,
      "prof": 2532,
      "prices": 2533,
      "profess": 2534,
      "Didn": 2535,
      "situation": 2536,
      "dire": 2537,
      "Because": 2538,
      "dishes": 2539,
      "hands": 2540,
      "picnic": 2541,
      "boring": 2542,
      "seats": 2543,
      "Street": 2544,
      "invitation": 2545,
      "attention": 2546,
      "learning": 2547,
      "Everyone": 2548,
      "Sometimes": 2549,
      "choice": 2550,
      "camp": 2551,
      "healthy": 2552,
      "Daniel": 2553,
      "Paris": 2554,
      "basket": 2555,
      "responsib": 2556,
      "tificate": 2557,
      "delivery": 2558,
      "details": 2559,
      "Black": 2560,
      "Speaking": 2561,
      "giving": 2562,
      "throat": 2563,
      "Lisa": 2564,
      "luggage": 2565,
      "Kevin": 2566,
      "Con": 2567,
      "Has": 2568,
      "Hmm": 2569,
      "Kate": 2570,
      "Oper": 2571,
      "Tra": 2572,
      "ber": 2573,
      "cand": 2574,
      "center": 2575,
      "firm": 2576,
      "ials": 2577,
      "ki": 2578,
      "ker": 2579,
      "ls": 2580,
      "mate": 2581,
      "ned": 2582,
      "oh": 2583,
      "rad": 2584,
      "ride": 2585,
      "sco": 2586,
      "sad": 2587,
      "rew": 2588,
      "meters": 2589,
      "veh": 2590,
      "vent": 2591,
      "vered": 2592,
      "ley": 2593,
      "forms": 2594,
      "fortable": 2595,
      "soci": 2596,
      "covered": 2597,
      "necess": 2598,
      "within": 2599,
      "logy": 2600,
      "urning": 2601,
      "excuse": 2602,
      "except": 2603,
      "ineer": 2604,
      "noise": 2605,
      "comfortable": 2606,
      "ables": 2607,
      "everywhere": 2608,
      "woman": 2609,
      "bran": 2610,
      "brought": 2611,
      "financial": 2612,
      "establ": 2613,
      "guest": 2614,
      "cording": 2615,
      "rency": 2616,
      "visa": 2617,
      "student": 2618,
      "drinks": 2619,
      "stayed": 2620,
      "stead": 2621,
      "United": 2622,
      "Jimmy": 2623,
      "mployment": 2624,
      "contact": 2625,
      "prescri": 2626,
      "example": 2627,
      "allowed": 2628,
      "wanna": 2629,
      "Robert": 2630,
      "Sarah": 2631,
      "Richard": 2632,
      "celebrate": 2633,
      "written": 2634,
      "Europe": 2635,
      "ursday": 2636,
      "Australia": 2637,
      "necessary": 2638,
      "Bri": 2639,
      "Fin": 2640,
      "Get": 2641,
      "Mart": 2642,
      "Taxi": 2643,
      "bon": 2644,
      "bright": 2645,
      "dle": 2646,
      "dam": 2647,
      "dish": 2648,
      "fing": 2649,
      "fight": 2650,
      "oid": 2651,
      "pat": 2652,
      "power": 2653,
      "sn": 2654,
      "ude": 2655,
      "wake": 2656,
      "oun": 2657,
      "inside": 2658,
      "repair": 2659,
      "ons": 2660,
      "mell": 2661,
      "ises": 2662,
      "held": 2663,
      "stupid": 2664,
      "haps": 2665,
      "weak": 2666,
      "cover": 2667,
      "neare": 2668,
      "neck": 2669,
      "likes": 2670,
      "rible": 2671,
      "sometime": 2672,
      "till": 2673,
      "moving": 2674,
      "defin": 2675,
      "export": 2676,
      "ilt": 2677,
      "ieve": 2678,
      "everyday": 2679,
      "countries": 2680,
      "classes": 2681,
      "story": 2682,
      "mbers": 2683,
      "downtown": 2684,
      "sheet": 2685,
      "lap": 2686,
      "keeps": 2687,
      "keeping": 2688,
      "career": 2689,
      "skirt": 2690,
      "turned": 2691,
      "invo": 2692,
      "pull": 2693,
      "contin": 2694,
      "pressure": 2695,
      "cleaning": 2696,
      "arrive": 2697,
      "arrived": 2698,
      "surprised": 2699,
      "Japan": 2700,
      "Betty": 2701,
      "Sunday": 2702,
      "science": 2703,
      "Olympic": 2704,
      "opinion": 2705,
      "watched": 2706,
      "familiar": 2707,
      "Wilson": 2708,
      "knowledge": 2709,
      "Am": 2710,
      "Ar": 2711,
      "Fred": 2712,
      "House": 2713,
      "Last": 2714,
      "Merry": 2715,
      "Qu": 2716,
      "Zina": 2717,
      "bread": 2718,
      "crow": 2719,
      "cross": 2720,
      "dut": 2721,
      "dess": 2722,
      "fa": 2723,
      "fat": 2724,
      "green": 2725,
      "iv": 2726,
      "zz": 2727,
      "oub": 2728,
      "instead": 2729,
      "review": 2730,
      "ham": 2731,
      "kept": 2732,
      "ense": 2733,
      "icy": 2734,
      "beat": 2735,
      "alo": 2736,
      "channel": 2737,
      "idge": 2738,
      "roses": 2739,
      "acket": 2740,
      "helping": 2741,
      "worth": 2742,
      "gets": 2743,
      "Thursday": 2744,
      "note": 2745,
      "provide": 2746,
      "ilities": 2747,
      "pose": 2748,
      "calls": 2749,
      "ists": 2750,
      "prepar": 2751,
      "safe": 2752,
      "grab": 2753,
      "cla": 2754,
      "dump": 2755,
      "maybe": 2756,
      "cars": 2757,
      "Tomorrow": 2758,
      "guide": 2759,
      "stern": 2760,
      "correct": 2761,
      "file": 2762,
      "support": 2763,
      "appe": 2764,
      "leaves": 2765,
      "period": 2766,
      "ski": 2767,
      "faster": 2768,
      "difference": 2769,
      "inviting": 2770,
      "served": 2771,
      "wearing": 2772,
      "Something": 2773,
      "smoke": 2774,
      "relation": 2775,
      "employ": 2776,
      "points": 2777,
      "learned": 2778,
      "ladies": 2779,
      "third": 2780,
      "successful": 2781,
      "telephone": 2782,
      "Taiwan": 2783,
      "general": 2784,
      "promotion": 2785,
      "settled": 2786,
      "describe": 2787,
      "benefits": 2788,
      "tradition": 2789,
      "dream": 2790,
      "colleagues": 2791,
      "promised": 2792,
      "professional": 2793,
      "nearest": 2794,
      "--": 2795,
      "AT": 2796,
      "Alex": 2797,
      "BA": 2798,
      "Chen": 2799,
      "Fest": 2800,
      "Long": 2801,
      "Rest": 2802,
      "Tay": 2803,
      "Wed": 2804,
      "ais": 2805,
      "apo": 2806,
      "bow": 2807,
      "doub": 2808,
      "email": 2809,
      "egg": 2810,
      "either": 2811,
      "gate": 2812,
      "gain": 2813,
      "hon": 2814,
      "loud": 2815,
      "nut": 2816,
      "smell": 2817,
      "vious": 2818,
      "tom": 2819,
      "ison": 2820,
      "ision": 2821,
      "vey": 2822,
      "vell": 2823,
      "state": 2824,
      "bec": 2825,
      "alm": 2826,
      "god": 2827,
      "chose": 2828,
      "idence": 2829,
      "cot": 2830,
      "ution": 2831,
      "acti": 2832,
      "abo": 2833,
      "among": 2834,
      "withdraw": 2835,
      "anymore": 2836,
      "anywhere": 2837,
      "suits": 2838,
      "somewhere": 2839,
      "motor": 2840,
      "shot": 2841,
      "known": 2842,
      "raise": 2843,
      "Canada": 2844,
      "resour": 2845,
      "que": 2846,
      "speed": 2847,
      "avoid": 2848,
      "anger": 2849,
      "saying": 2850,
      "mbur": 2851,
      "finding": 2852,
      "marry": 2853,
      "others": 2854,
      "background": 2855,
      "airs": 2856,
      "showing": 2857,
      "formal": 2858,
      "enjoying": 2859,
      "accountant": 2860,
      "umn": 2861,
      "apple": 2862,
      "vacant": 2863,
      "marketing": 2864,
      "ashing": 2865,
      "usual": 2866,
      "Alright": 2867,
      "agreement": 2868,
      "Market": 2869,
      "nearly": 2870,
      "ailed": 2871,
      "painting": 2872,
      "awful": 2873,
      "dogs": 2874,
      "lady": 2875,
      "boyfriend": 2876,
      "International": 2877,
      "checked": 2878,
      "sightseeing": 2879,
      "vari": 2880,
      "sense": 2881,
      "tware": 2882,
      "responsible": 2883,
      "cream": 2884,
      "assistant": 2885,
      "drop": 2886,
      "material": 2887,
      "starving": 2888,
      "education": 2889,
      "degree": 2890,
      "Harry": 2891,
      "transport": 2892,
      "savings": 2893,
      "realize": 2894,
      "campus": 2895,
      "basketball": 2896,
      "kilo": 2897,
      "radio": 2898,
      "dessert": 2899,
      "ATM": 2900,
      "Festival": 2901,
      "Restaurant": 2902,
      "Taylor": 2903,
      "60": 2904,
      "Cur": 2905,
      "Emi": 2906,
      "Fe": 2907,
      "Karen": 2908,
      "Nancy": 2909,
      "Person": 2910,
      "Tim": 2911,
      "ao": 2912,
      "bite": 2913,
      "cooper": 2914,
      "eed": 2915,
      "fool": 2916,
      "ging": 2917,
      "mers": 2918,
      "mouth": 2919,
      "museum": 2920,
      "ror": 2921,
      "rich": 2922,
      "sw": 2923,
      "sam": 2924,
      "slow": 2925,
      "tax": 2926,
      "vin": 2927,
      "war": 2928,
      "ths": 2929,
      "remon": 2930,
      "annu": 2931,
      "measure": 2932,
      "lly": 2933,
      "hey": 2934,
      "stic": 2935,
      "stam": 2936,
      "level": 2937,
      "ens": 2938,
      "icles": 2939,
      "aret": 2940,
      "wet": 2941,
      "sore": 2942,
      "social": 2943,
      "alright": 2944,
      "roast": 2945,
      "nty": 2946,
      "absolutely": 2947,
      "sometimes": 2948,
      "hoping": 2949,
      "hobb": 2950,
      "model": 2951,
      "mobi": 2952,
      "uses": 2953,
      "shar": 2954,
      "shirts": 2955,
      "aste": 2956,
      "entr": 2957,
      "uni": 2958,
      "cheese": 2959,
      "poll": 2960,
      "built": 2961,
      "trust": 2962,
      "tration": 2963,
      "comb": 2964,
      "stories": 2965,
      "gives": 2966,
      "udy": 2967,
      "showed": 2968,
      "sia": 2969,
      "paying": 2970,
      "effect": 2971,
      "terribly": 2972,
      "experien": 2973,
      "athy": 2974,
      "strict": 2975,
      "Marry": 2976,
      "suggestions": 2977,
      "boarding": 2978,
      "beginning": 2979,
      "See": 2980,
      "changes": 2981,
      "human": 2982,
      "message": 2983,
      "catalo": 2984,
      "quickly": 2985,
      "investment": 2986,
      "middle": 2987,
      "About": 2988,
      "delay": 2989,
      "Should": 2990,
      "budget": 2991,
      "simple": 2992,
      "advertisement": 2993,
      "unemployment": 2994,
      "policy": 2995,
      "nesday": 2996,
      "declare": 2997,
      "heavy": 2998,
      "Brian": 2999,
      "definite": 3000,
      "laptop": 3001,
      "fault": 3002,
      "claim": 3003,
      "Wednesday": 3004,
      "Emily": 3005,
      "hobbies": 3006,
      "Bak": 3007,
      "Er": 3008,
      "From": 3009,
      "Hen": 3010,
      "Ind": 3011,
      "Jess": 3012,
      "Mia": 3013,
      "National": 3014,
      "Over": 3015,
      "Say": 3016,
      "Turn": 3017,
      "Tina": 3018,
      "Want": 3019,
      "ald": 3020,
      "bri": 3021,
      "cu": 3022,
      "chat": 3023,
      "cab": 3024,
      "cast": 3025,
      "gar": 3026,
      "iam": 3027,
      "ilet": 3028,
      "jacket": 3029,
      "ky": 3030,
      "mall": 3031,
      "ught": 3032,
      "uck": 3033,
      "ware": 3034,
      "wide": 3035,
      "zes": 3036,
      "refund": 3037,
      "iser": 3038,
      "sea": 3039,
      "itions": 3040,
      "haust": 3041,
      "hambur": 3042,
      "ically": 3043,
      "lip": 3044,
      "liked": 3045,
      "achel": 3046,
      "according": 3047,
      "riage": 3048,
      "amb": 3049,
      "term": 3050,
      "tern": 3051,
      "pleas": 3052,
      "ceremon": 3053,
      "text": 3054,
      "noticed": 3055,
      "dest": 3056,
      "button": 3057,
      "unk": 3058,
      "conference": 3059,
      "speech": 3060,
      "track": 3061,
      "common": 3062,
      "types": 3063,
      "acting": 3064,
      "action": 3065,
      "grou": 3066,
      "due": 3067,
      "marriage": 3068,
      "impressed": 3069,
      "achieve": 3070,
      "discount": 3071,
      "waiter": 3072,
      "students": 3073,
      "flu": 3074,
      "ips": 3075,
      "decision": 3076,
      "cents": 3077,
      "careful": 3078,
      "drinking": 3079,
      "staying": 3080,
      "missing": 3081,
      "anese": 3082,
      "Brit": 3083,
      "ances": 3084,
      "walking": 3085,
      "currency": 3086,
      "bags": 3087,
      "pressed": 3088,
      "president": 3089,
      "films": 3090,
      "nearby": 3091,
      "salad": 3092,
      "expecting": 3093,
      "subject": 3094,
      "costs": 3095,
      "raining": 3096,
      "selling": 3097,
      "virus": 3098,
      "Those": 3099,
      "stuck": 3100,
      "languages": 3101,
      "twice": 3102,
      "photos": 3103,
      "Janet": 3104,
      "fortun": 3105,
      "lucky": 3106,
      "economy": 3107,
      "temperature": 3108,
      "Time": 3109,
      "connect": 3110,
      "Reservation": 3111,
      "Charles": 3112,
      "steak": 3113,
      "equip": 3114,
      "railway": 3115,
      "vehicle": 3116,
      "Martin": 3117,
      "aisle": 3118,
      "doubt": 3119,
      "variety": 3120,
      "sample": 3121,
      "annual": 3122,
      "Henry": 3123,
      "18": 3124,
      "Dis": 3125,
      "Dick": 3126,
      "Fill": 3127,
      "Ger": 3128,
      "Gener": 3129,
      "Hur": 3130,
      "Hold": 3131,
      "Show": 3132,
      "Sounds": 3133,
      "Watch": 3134,
      "bat": 3135,
      "caf": 3136,
      "cked": 3137,
      "dat": 3138,
      "ded": 3139,
      "fancy": 3140,
      "hou": 3141,
      "hood": 3142,
      "ience": 3143,
      "kno": 3144,
      "lin": 3145,
      "nical": 3146,
      "piz": 3147,
      "range": 3148,
      "scare": 3149,
      "twe": 3150,
      "tall": 3151,
      "tough": 3152,
      "umb": 3153,
      "vase": 3154,
      "zing": 3155,
      "zhou": 3156,
      "ined": 3157,
      "incre": 3158,
      "toast": 3159,
      "toilet": 3160,
      "goti": 3161,
      "negoti": 3162,
      "fest": 3163,
      "felt": 3164,
      "Were": 3165,
      "shi": 3166,
      "knows": 3167,
      "exhaust": 3168,
      "needed": 3169,
      "novel": 3170,
      "plants": 3171,
      "perfu": 3172,
      "consu": 3173,
      "quet": 3174,
      "willing": 3175,
      "spec": 3176,
      "map": 3177,
      "trick": 3178,
      "boat": 3179,
      "events": 3180,
      "overseas": 3181,
      "glass": 3182,
      "ousing": 3183,
      "Joan": 3184,
      "Com": 3185,
      "sitting": 3186,
      "mini": 3187,
      "imag": 3188,
      "Andy": 3189,
      "Andrew": 3190,
      "cap": 3191,
      "caught": 3192,
      "histor": 3193,
      "closed": 3194,
      "played": 3195,
      "earth": 3196,
      "flower": 3197,
      "production": 3198,
      "effe": 3199,
      "opening": 3200,
      "conditions": 3201,
      "driver": 3202,
      "license": 3203,
      "Steve": 3204,
      "Mont": 3205,
      "mission": 3206,
      "wards": 3207,
      "auto": 3208,
      "register": 3209,
      "grades": 3210,
      "arming": 3211,
      "advance": 3212,
      "eteria": 3213,
      "June": 3214,
      "programs": 3215,
      "boxes": 3216,
      "voice": 3217,
      "engaged": 3218,
      "Pardon": 3219,
      "climb": 3220,
      "horrible": 3221,
      "television": 3222,
      "prepared": 3223,
      "practice": 3224,
      "jump": 3225,
      "juice": 3226,
      "quarter": 3227,
      "Japanese": 3228,
      "technical": 3229,
      "materials": 3230,
      "decorating": 3231,
      "satisfied": 3232,
      "organization": 3233,
      "daily": 3234,
      "million": 3235,
      "software": 3236,
      "Service": 3237,
      "impression": 3238,
      "blocks": 3239,
      "square": 3240,
      "vegetables": 3241,
      "camera": 3242,
      "branch": 3243,
      "above": 3244,
      "mobile": 3245,
      "Miao": 3246,
      "pleasant": 3247,
      "ceremony": 3248,
      "fortunately": 3249,
      "Hurry": 3250,
      "cafeteria": 3251,
      "13": 3252,
      "90": 3253,
      "Air": 3254,
      "Book": 3255,
      "Cer": 3256,
      "Dear": 3257,
      "Eve": 3258,
      "Her": 3259,
      "Kong": 3260,
      "List": 3261,
      "Ma": 3262,
      "Mc": 3263,
      "Mill": 3264,
      "Mel": 3265,
      "Sch": 3266,
      "Sep": 3267,
      "Wu": 3268,
      "Yang": 3269,
      "alent": 3270,
      "cry": 3271,
      "certain": 3272,
      "dd": 3273,
      "dark": 3274,
      "fry": 3275,
      "failed": 3276,
      "gon": 3277,
      "gal": 3278,
      "housing": 3279,
      "ler": 3280,
      "mir": 3281,
      "non": 3282,
      "nast": 3283,
      "ped": 3284,
      "pounds": 3285,
      "ris": 3286,
      "simp": 3287,
      "tag": 3288,
      "refri": 3289,
      "replace": 3290,
      "request": 3291,
      "anic": 3292,
      "aters": 3293,
      "attract": 3294,
      "onto": 3295,
      "stairs": 3296,
      "ays": 3297,
      "force": 3298,
      "forty": 3299,
      "andy": 3300,
      "lift": 3301,
      "alone": 3302,
      "alace": 3303,
      "goal": 3304,
      "adays": 3305,
      "ached": 3306,
      "across": 3307,
      "ama": 3308,
      "oods": 3309,
      "plenty": 3310,
      "useful": 3311,
      "washed": 3312,
      "pper": 3313,
      "Three": 3314,
      "depressed": 3315,
      "contest": 3316,
      "concer": 3317,
      "poor": 3318,
      "spect": 3319,
      "igner": 3320,
      "spring": 3321,
      "bull": 3322,
      "cough": 3323,
      "women": 3324,
      "appli": 3325,
      "stor": 3326,
      "stocks": 3327,
      "ideal": 3328,
      "blouse": 3329,
      "heading": 3330,
      "files": 3331,
      "supply": 3332,
      "standing": 3333,
      "lley": 3334,
      "survey": 3335,
      "opened": 3336,
      "share": 3337,
      "iversary": 3338,
      "parcel": 3339,
      "skin": 3340,
      "gerator": 3341,
      "invited": 3342,
      "dollar": 3343,
      "regard": 3344,
      "anced": 3345,
      "scen": 3346,
      "screen": 3347,
      "Julie": 3348,
      "spending": 3349,
      "graduation": 3350,
      "reports": 3351,
      "purse": 3352,
      "purpose": 3353,
      "paint": 3354,
      "expected": 3355,
      "porate": 3356,
      "possi": 3357,
      "particip": 3358,
      "fitness": 3359,
      "crit": 3360,
      "listening": 3361,
      "Los": 3362,
      "gentle": 3363,
      "swim": 3364,
      "deliver": 3365,
      "magazines": 3366,
      "instru": 3367,
      "Manager": 3368,
      "fifteen": 3369,
      "legs": 3370,
      "properly": 3371,
      "vote": 3372,
      "packing": 3373,
      "ential": 3374,
      "divorced": 3375,
      "including": 3376,
      "registered": 3377,
      "spoken": 3378,
      "officer": 3379,
      "Perhaps": 3380,
      "dancing": 3381,
      "animals": 3382,
      "ineering": 3383,
      "established": 3384,
      "prescription": 3385,
      "relationship": 3386,
      "cooperation": 3387,
      "stamps": 3388,
      "hamburger": 3389,
      "scared": 3390,
      "twelve": 3391,
      "perfume": 3392,
      "imagine": 3393,
      "effective": 3394,
      "refrigerator": 3395,
      "120": 3396,
      "23": 3397,
      "Aug": 3398,
      "Agency": 3399,
      "Des": 3400,
      "Dave": 3401,
      "East": 3402,
      "Lad": 3403,
      "Like": 3404,
      "Nick": 3405,
      "Open": 3406,
      "Ping": 3407,
      "Pet": 3408,
      "Ry": 3409,
      "Sy": 3410,
      "Sto": 3411,
      "Sit": 3412,
      "Ted": 3413,
      "Was": 3414,
      "Wall": 3415,
      "ato": 3416,
      "aver": 3417,
      "buses": 3418,
      "creat": 3419,
      "dating": 3420,
      "dressed": 3421,
      "fle": 3422,
      "flies": 3423,
      "hunt": 3424,
      "lp": 3425,
      "lay": 3426,
      "lines": 3427,
      "milk": 3428,
      "nie": 3429,
      "natur": 3430,
      "oil": 3431,
      "olar": 3432,
      "page": 3433,
      "snow": 3434,
      "sca": 3435,
      "silk": 3436,
      "tu": 3437,
      "tally": 3438,
      "tail": 3439,
      "waste": 3440,
      "zoo": 3441,
      "reme": 3442,
      "renew": 3443,
      "reach": 3444,
      "totally": 3445,
      "habit": 3446,
      "keys": 3447,
      "ooth": 3448,
      "west": 3449,
      "golf": 3450,
      "somebody": 3451,
      "tight": 3452,
      "mode": 3453,
      "helps": 3454,
      "agon": 3455,
      "agend": 3456,
      "worse": 3457,
      "whatever": 3458,
      "urb": 3459,
      "shut": 3460,
      "shine": 3461,
      "Help": 3462,
      "tember": 3463,
      "article": 3464,
      "depart": 3465,
      "nobody": 3466,
      "goodbye": 3467,
      "iling": 3468,
      "gotten": 3469,
      "gotta": 3470,
      "workers": 3471,
      "Aren": 3472,
      "igaret": 3473,
      "nights": 3474,
      "Channel": 3475,
      "istry": 3476,
      "printer": 3477,
      "Todd": 3478,
      "friendly": 3479,
      "tenance": 3480,
      "literature": 3481,
      "immedi": 3482,
      "Anderson": 3483,
      "mile": 3484,
      "Anne": 3485,
      "shows": 3486,
      "starting": 3487,
      "scholar": 3488,
      "England": 3489,
      "ptions": 3490,
      "studies": 3491,
      "putting": 3492,
      "beauty": 3493,
      "standard": 3494,
      "carefully": 3495,
      "favour": 3496,
      "dressing": 3497,
      "pardon": 3498,
      "terrific": 3499,
      "William": 3500,
      "brings": 3501,
      "Billy": 3502,
      "suitable": 3503,
      "alian": 3504,
      "funny": 3505,
      "series": 3506,
      "valu": 3507,
      "value": 3508,
      "understanding": 3509,
      "cookies": 3510,
      "gging": 3511,
      "Daddy": 3512,
      "returns": 3513,
      "colors": 3514,
      "medic": 3515,
      "Only": 3516,
      "tape": 3517,
      "bottom": 3518,
      "operate": 3519,
      "burger": 3520,
      "figures": 3521,
      "newspapers": 3522,
      "Parker": 3523,
      "fifty": 3524,
      "bathroom": 3525,
      "lves": 3526,
      "distance": 3527,
      "connection": 3528,
      "Corporation": 3529,
      "anniversary": 3530,
      "World": 3531,
      "flying": 3532,
      "toothache": 3533,
      "exhibition": 3534,
      "Angeles": 3535,
      "responsibility": 3536,
      "bonus": 3537,
      "crowded": 3538,
      "preparing": 3539,
      "traditional": 3540,
      "activ": 3541,
      "Jessica": 3542,
      "equipment": 3543,
      "data": 3544,
      "increase": 3545,
      "exhausted": 3546,
      "Listen": 3547,
      "September": 3548,
      "August": 3549,
      "Ryan": 3550,
      "agenda": 3551,
      "Amy": 3552,
      "Bell": 3553,
      "Bus": 3554,
      "CD": 3555,
      "Cred": 3556,
      "Dor": 3557,
      "El": 3558,
      "Easter": 3559,
      "Fair": 3560,
      "Jerry": 3561,
      "Kar": 3562,
      "Ken": 3563,
      "Kim": 3564,
      "Mac": 3565,
      "Ph": 3566,
      "Pas": 3567,
      "Sa": 3568,
      "San": 3569,
      "Sup": 3570,
      "Span": 3571,
      "Tony": 3572,
      "ale": 3573,
      "ado": 3574,
      "bby": 3575,
      "cir": 3576,
      "cking": 3577,
      "cul": 3578,
      "chair": 3579,
      "cigaret": 3580,
      "dare": 3581,
      "die": 3582,
      "dates": 3583,
      "danger": 3584,
      "em": 3585,
      "emer": 3586,
      "fy": 3587,
      "gn": 3588,
      "gre": 3589,
      "gas": 3590,
      "gress": 3591,
      "ix": 3592,
      "ire": 3593,
      "ile": 3594,
      "lton": 3595,
      "mise": 3596,
      "ore": 3597,
      "pm": 3598,
      "ron": 3599,
      "rup": 3600,
      "sl": 3601,
      "shel": 3602,
      "tan": 3603,
      "tit": 3604,
      "turning": 3605,
      "zer": 3606,
      "zen": 3607,
      "zed": 3608,
      "thor": 3609,
      "thri": 3610,
      "throw": 3611,
      "reached": 3612,
      "orig": 3613,
      "hest": 3614,
      "separ": 3615,
      "selves": 3616,
      "stress": 3617,
      "stren": 3618,
      "stret": 3619,
      "ows": 3620,
      "becoming": 3621,
      "gomer": 3622,
      "china": 3623,
      "chips": 3624,
      "adjust": 3625,
      "amp": 3626,
      "ours": 3627,
      "tery": 3628,
      "tire": 3629,
      "helpful": 3630,
      "getic": 3631,
      "seemed": 3632,
      "articles": 3633,
      "pleased": 3634,
      "delive": 3635,
      "exper": 3636,
      "ental": 3637,
      "illy": 3638,
      "unit": 3639,
      "uncle": 3640,
      "contri": 3641,
      "conside": 3642,
      "goodness": 3643,
      "ilar": 3644,
      "Exc": 3645,
      "ender": 3646,
      "hire": 3647,
      "hired": 3648,
      "cky": 3649,
      "workshop": 3650,
      "dern": 3651,
      "mangoes": 3652,
      "commit": 3653,
      "ishing": 3654,
      "glasses": 3655,
      "previous": 3656,
      "stops": 3657,
      "assign": 3658,
      "travell": 3659,
      "finance": 3660,
      "minis": 3661,
      "ester": 3662,
      "himself": 3663,
      "talked": 3664,
      "players": 3665,
      "biggest": 3666,
      "badly": 3667,
      "happening": 3668,
      "foods": 3669,
      "reservations": 3670,
      "brea": 3671,
      "accounting": 3672,
      "apartments": 3673,
      "parties": 3674,
      "personality": 3675,
      "singing": 3676,
      "offered": 3677,
      "network": 3678,
      "lives": 3679,
      "tourist": 3680,
      "larger": 3681,
      "aunt": 3682,
      "curity": 3683,
      "mistake": 3684,
      "advant": 3685,
      "papers": 3686,
      "scr": 3687,
      "energetic": 3688,
      "Maria": 3689,
      "seconds": 3690,
      "cute": 3691,
      "teams": 3692,
      "choices": 3693,
      "filled": 3694,
      "scheduled": 3695,
      "examination": 3696,
      "prize": 3697,
      "porter": 3698,
      "confident": 3699,
      "wheel": 3700,
      "completed": 3701,
      "sleeping": 3702,
      "certificate": 3703,
      "volu": 3704,
      "pieces": 3705,
      "located": 3706,
      "huh": 3707,
      "attended": 3708,
      "holidays": 3709,
      "logize": 3710,
      "considering": 3711,
      "hospit": 3712,
      "casual": 3713,
      "dropped": 3714,
      "decorate": 3715,
      "Janice": 3716,
      "property": 3717,
      "growth": 3718,
      "fairly": 3719,
      "buddy": 3720,
      "collecting": 3721,
      "medium": 3722,
      "electric": 3723,
      "announ": 3724,
      "divorce": 3725,
      "registration": 3726,
      "requirements": 3727,
      "route": 3728,
      "communication": 3729,
      "Airline": 3730,
      "direction": 3731,
      "Travel": 3732,
      "neckl": 3733,
      "Quite": 3734,
      "skiing": 3735,
      "employed": 3736,
      "apologize": 3737,
      "resources": 3738,
      "transportation": 3739,
      "Personal": 3740,
      "Baker": 3741,
      "brief": 3742,
      "Generally": 3743,
      "festival": 3744,
      "historical": 3745,
      "Montgomer": 3746,
      "simply": 3747,
      "lleyball": 3748,
      "Ladies": 3749,
      "natural": 3750,
      "Credit": 3751,
      "Spanish": 3752,
      "rupt": 3753,
      "origin": 3754,
      "streng": 3755,
      "delivered": 3756,
      "contribut": 3757,
      "considered": 3758,
      "travelling": 3759,
      "Montgomery": 3760,
      "21": 3761,
      "300": 3762,
      "Cla": 3763,
      "Dian": 3764,
      "Field": 3765,
      "Gra": 3766,
      "Games": 3767,
      "Je": 3768,
      "Ke": 3769,
      "Mmm": 3770,
      "Na": 3771,
      "Nor": 3772,
      "Or": 3773,
      "Os": 3774,
      "Put": 3775,
      "Rus": 3776,
      "Since": 3777,
      "Ter": 3778,
      "Vince": 3779,
      "Washing": 3780,
      "bes": 3781,
      "bun": 3782,
      "bie": 3783,
      "cal": 3784,
      "cru": 3785,
      "ccer": 3786,
      "ds": 3787,
      "ee": 3788,
      "eth": 3789,
      "een": 3790,
      "fare": 3791,
      "ged": 3792,
      "gorge": 3793,
      "las": 3794,
      "mics": 3795,
      "nur": 3796,
      "nap": 3797,
      "nger": 3798,
      "pity": 3799,
      "pages": 3800,
      "punch": 3801,
      "pork": 3802,
      "race": 3803,
      "sion": 3804,
      "sound": 3805,
      "uch": 3806,
      "uce": 3807,
      "ufact": 3808,
      "van": 3809,
      "ww": 3810,
      "wood": 3811,
      "wra": 3812,
      "wise": 3813,
      "warr": 3814,
      "zzy": 3815,
      "init": 3816,
      "represent": 3817,
      "anno": 3818,
      "younger": 3819,
      "erved": 3820,
      "mestic": 3821,
      "stat": 3822,
      "stri": 3823,
      "argu": 3824,
      "leather": 3825,
      "owe": 3826,
      "oof": 3827,
      "liday": 3828,
      "lder": 3829,
      "soccer": 3830,
      "ads": 3831,
      "aden": 3832,
      "irty": 3833,
      "ellow": 3834,
      "anti": 3835,
      "pei": 3836,
      "peland": 3837,
      "hobby": 3838,
      "cereal": 3839,
      "Western": 3840,
      "urch": 3841,
      "arts": 3842,
      "thern": 3843,
      "exten": 3844,
      "progress": 3845,
      "promise": 3846,
      "ently": 3847,
      "entist": 3848,
      "permit": 3849,
      "respect": 3850,
      "condu": 3851,
      "convers": 3852,
      "amed": 3853,
      "Isa": 3854,
      "chess": 3855,
      "polit": 3856,
      "igning": 3857,
      "bucks": 3858,
      "trous": 3859,
      "roommate": 3860,
      "focus": 3861,
      "angzhou": 3862,
      "typic": 3863,
      "professor": 3864,
      "Couldn": 3865,
      "stolen": 3866,
      "courage": 3867,
      "forecast": 3868,
      "fried": 3869,
      "marvel": 3870,
      "bridge": 3871,
      "Copeland": 3872,
      "hero": 3873,
      "loves": 3874,
      "mercial": 3875,
      "orders": 3876,
      "hometown": 3877,
      "shops": 3878,
      "Johnny": 3879,
      "Donald": 3880,
      "cloth": 3881,
      "Eng": 3882,
      "corporation": 3883,
      "laid": 3884,
      "pays": 3885,
      "monthly": 3886,
      "atherine": 3887,
      "handsome": 3888,
      "visitor": 3889,
      "numbers": 3890,
      "meetings": 3891,
      "Read": 3892,
      "Rebec": 3893,
      "supper": 3894,
      "breath": 3895,
      "vacancy": 3896,
      "markets": 3897,
      "Inn": 3898,
      "More": 3899,
      "trains": 3900,
      "higher": 3901,
      "appointed": 3902,
      "stere": 3903,
      "grade": 3904,
      "Brad": 3905,
      "suitcase": 3906,
      "easily": 3907,
      "Associ": 3908,
      "frank": 3909,
      "strate": 3910,
      "strange": 3911,
      "ized": 3912,
      "haircut": 3913,
      "July": 3914,
      "letters": 3915,
      "holding": 3916,
      "holders": 3917,
      "draft": 3918,
      "Chris": 3919,
      "joined": 3920,
      "Road": 3921,
      "champ": 3922,
      "applying": 3923,
      "symp": 3924,
      "related": 3925,
      "Leo": 3926,
      "charac": 3927,
      "enterpr": 3928,
      "sunny": 3929,
      "organize": 3930,
      "clients": 3931,
      "drawing": 3932,
      "tastes": 3933,
      "iction": 3934,
      "Check": 3935,
      "practical": 3936,
      "published": 3937,
      "cats": 3938,
      "potato": 3939,
      "Taipei": 3940,
      "legal": 3941,
      "graph": 3942,
      "Holiday": 3943,
      "Sara": 3944,
      "voting": 3945,
      "complaint": 3946,
      "improvement": 3947,
      "developed": 3948,
      "development": 3949,
      "steps": 3950,
      "approach": 3951,
      "similar": 3952,
      "qualific": 3953,
      "qualified": 3954,
      "conditioning": 3955,
      "neighborhood": 3956,
      "Services": 3957,
      "Walk": 3958,
      "baseball": 3959,
      "sandw": 3960,
      "deadline": 3961,
      "norm": 3962,
      "Airlines": 3963,
      "labor": 3964,
      "profit": 3965,
      "director": 3966,
      "candid": 3967,
      "guests": 3968,
      "honor": 3969,
      "entrance": 3970,
      "univer": 3971,
      "pollution": 3972,
      "catalogue": 3973,
      "definitely": 3974,
      "group": 3975,
      "pizza": 3976,
      "Certificate": 3977,
      "Miller": 3978,
      "gonna": 3979,
      "nasty": 3980,
      "gentlemen": 3981,
      "average": 3982,
      "medicine": 3983,
      "dangerous": 3984,
      "expert": 3985,
      "necklace": 3986,
      "Diana": 3987,
      "Fields": 3988,
      "Washington": 3989,
      "trousers": 3990,
      "typical": 3991,
      "marvelous": 3992,
      "Rebecca": 3993,
      "14": 3994,
      "24": 3995,
      "27": 3996,
      "500": 3997,
      "70": 3998,
      "Aw": 3999,
      "Card": 4000,
      "Dri": 4001,
      "Eli": 4002,
      "Eric": 4003,
      "Five": 4004,
      "Glad": 4005,
      "Ha": 4006,
      "King": 4007,
      "Lt": 4008,
      "Mag": 4009,
      "Main": 4010,
      "Oc": 4011,
      "PC": 4012,
      "Sim": 4013,
      "Tit": 4014,
      "VD": 4015,
      "Valent": 4016,
      "Wind": 4017,
      "XX": 4018,
      "apart": 4019,
      "award": 4020,
      "bicy": 4021,
      "cities": 4022,
      "dor": 4023,
      "dney": 4024,
      "dentist": 4025,
      "ek": 4026,
      "ey": 4027,
      "eper": 4028,
      "ges": 4029,
      "gen": 4030,
      "gro": 4031,
      "glo": 4032,
      "har": 4033,
      "lake": 4034,
      "lower": 4035,
      "mur": 4036,
      "master": 4037,
      "ners": 4038,
      "ome": 4039,
      "press": 4040,
      "rice": 4041,
      "saf": 4042,
      "tree": 4043,
      "trees": 4044,
      "va": 4045,
      "vy": 4046,
      "ying": 4047,
      "thin": 4048,
      "inspe": 4049,
      "info": 4050,
      "inten": 4051,
      "rec": 4052,
      "ref": 4053,
      "reign": 4054,
      "topic": 4055,
      "attr": 4056,
      "theater": 4057,
      "ord": 4058,
      "ory": 4059,
      "orient": 4060,
      "mere": 4061,
      "memor": 4062,
      "meals": 4063,
      "members": 4064,
      "heel": 4065,
      "ves": 4066,
      "seaf": 4067,
      "security": 4068,
      "itive": 4069,
      "arrest": 4070,
      "envelo": 4071,
      "forgive": 4072,
      "formed": 4073,
      "anda": 4074,
      "icate": 4075,
      "bey": 4076,
      "beth": 4077,
      "bell": 4078,
      "lian": 4079,
      "dom": 4080,
      "altogether": 4081,
      "gold": 4082,
      "charming": 4083,
      "rot": 4084,
      "outdoor": 4085,
      "acy": 4086,
      "acade": 4087,
      "amount": 4088,
      "ourselves": 4089,
      "However": 4090,
      "ushed": 4091,
      "ustr": 4092,
      "helped": 4093,
      "aging": 4094,
      "agency": 4095,
      "thinks": 4096,
      "ceed": 4097,
      "loso": 4098,
      "loss": 4099,
      "indeed": 4100,
      "upstairs": 4101,
      "death": 4102,
      "prov": 4103,
      "propo": 4104,
      "nology": 4105,
      "unhappy": 4106,
      "Hilton": 4107,
      "percent": 4108,
      "concl": 4109,
      "geo": 4110,
      "ques": 4111,
      "quot": 4112,
      "amen": 4113,
      "aven": 4114,
      "cheaper": 4115,
      "offers": 4116,
      "offices": 4117,
      "spill": 4118,
      "math": 4119,
      "manufact": 4120,
      "boys": 4121,
      "ishment": 4122,
      "agement": 4123,
      "fries": 4124,
      "cient": 4125,
      "tors": 4126,
      "mostly": 4127,
      "shoe": 4128,
      "speaks": 4129,
      "bling": 4130,
      "Before": 4131,
      "sets": 4132,
      "bigger": 4133,
      "returning": 4134,
      "studied": 4135,
      "rule": 4136,
      "rude": 4137,
      "supplies": 4138,
      "accounts": 4139,
      "surfing": 4140,
      "Allen": 4141,
      "Looks": 4142,
      "Neither": 4143,
      "picked": 4144,
      "shame": 4145,
      "sky": 4146,
      "News": 4147,
      "interviewer": 4148,
      "offering": 4149,
      "lifestyle": 4150,
      "Unfortunately": 4151,
      "flights": 4152,
      "miser": 4153,
      "frustr": 4154,
      "scri": 4155,
      "enery": 4156,
      "energy": 4157,
      "recommended": 4158,
      "bills": 4159,
      "sleeve": 4160,
      "Someone": 4161,
      "crime": 4162,
      "aware": 4163,
      "sweaters": 4164,
      "Deposit": 4165,
      "cases": 4166,
      "subscri": 4167,
      "straw": 4168,
      "election": 4169,
      "entertain": 4170,
      "volleyball": 4171,
      "extend": 4172,
      "discussion": 4173,
      "Loan": 4174,
      "Love": 4175,
      "huge": 4176,
      "particularly": 4177,
      "talent": 4178,
      "cashmere": 4179,
      "solve": 4180,
      "advertising": 4181,
      "logical": 4182,
      "consideration": 4183,
      "grandma": 4184,
      "operation": 4185,
      "operator": 4186,
      "thousands": 4187,
      "clearly": 4188,
      "warming": 4189,
      "requires": 4190,
      "wallet": 4191,
      "addition": 4192,
      "quarrel": 4193,
      "hundreds": 4194,
      "Better": 4195,
      "pets": 4196,
      "Both": 4197,
      "competition": 4198,
      "packed": 4199,
      "phys": 4200,
      "video": 4201,
      "Sandy": 4202,
      "Sandals": 4203,
      "entire": 4204,
      "degrees": 4205,
      "fixed": 4206,
      "Clark": 4207,
      "policies": 4208,
      "included": 4209,
      "Barbie": 4210,
      "Foreign": 4211,
      "banking": 4212,
      "responsibilities": 4213,
      "Consu": 4214,
      "Opera": 4215,
      "Operator": 4216,
      "score": 4217,
      "snack": 4218,
      "continue": 4219,
      "duty": 4220,
      "eggs": 4221,
      "nutr": 4222,
      "chosen": 4223,
      "Marketing": 4224,
      "kilometers": 4225,
      "Current": 4226,
      "sharp": 4227,
      "delayed": 4228,
      "lipstick": 4229,
      "specific": 4230,
      "School": 4231,
      "crying": 4232,
      "applied": 4233,
      "storm": 4234,
      "Desk": 4235,
      "Sydney": 4236,
      "Super": 4237,
      "Excellent": 4238,
      "Graham": 4239,
      "gorgeous": 4240,
      "warrant": 4241,
      "representative": 4242,
      "adena": 4243,
      "conduct": 4244,
      "Ltd": 4245,
      "Titanic": 4246,
      "Valentine": 4247,
      "bicycle": 4248,
      "global": 4249,
      "safety": 4250,
      "inspection": 4251,
      "seafood": 4252,
      "17": 4253,
      "56": 4254,
      "Bir": 4255,
      "Bea": 4256,
      "Chi": 4257,
      "Cool": 4258,
      "Cross": 4259,
      "Cooper": 4260,
      "Catherine": 4261,
      "Da": 4262,
      "Den": 4263,
      "Dalian": 4264,
      "DVD": 4265,
      "Ed": 4266,
      "Flight": 4267,
      "Fancy": 4268,
      "Gate": 4269,
      "Hum": 4270,
      "Imp": 4271,
      "Judy": 4272,
      "MP": 4273,
      "Mat": 4274,
      "Mid": 4275,
      "Mex": 4276,
      "Nan": 4277,
      "Net": 4278,
      "Never": 4279,
      "Pat": 4280,
      "Palace": 4281,
      "Ri": 4282,
      "Ran": 4283,
      "Rachel": 4284,
      "Squ": 4285,
      "Spr": 4286,
      "Simp": 4287,
      "Scot": 4288,
      "TO": 4289,
      "Ten": 4290,
      "Tex": 4291,
      "Tian": 4292,
      "Work": 4293,
      "Xi": 4294,
      "Yuan": 4295,
      "Ze": 4296,
      "aist": 4297,
      "aud": 4298,
      "bility": 4299,
      "cin": 4300,
      "chas": 4301,
      "cket": 4302,
      "fan": 4303,
      "fans": 4304,
      "gun": 4305,
      "groom": 4306,
      "ghest": 4307,
      "ien": 4308,
      "jour": 4309,
      "oven": 4310,
      "swee": 4311,
      "swear": 4312,
      "tz": 4313,
      "tar": 4314,
      "tion": 4315,
      "ume": 4316,
      "ury": 4317,
      "ums": 4318,
      "vit": 4319,
      "vice": 4320,
      "vator": 4321,
      "wit": 4322,
      "wro": 4323,
      "waist": 4324,
      "inic": 4325,
      "reli": 4326,
      "reco": 4327,
      "remind": 4328,
      "revo": 4329,
      "redecorating": 4330,
      "retire": 4331,
      "tober": 4332,
      "mech": 4333,
      "helle": 4334,
      "sess": 4335,
      "select": 4336,
      "stations": 4337,
      "aries": 4338,
      "leaf": 4339,
      "leep": 4340,
      "entific": 4341,
      "icing": 4342,
      "bear": 4343,
      "beli": 4344,
      "belt": 4345,
      "lid": 4346,
      "domestic": 4347,
      "lds": 4348,
      "asleep": 4349,
      "ared": 4350,
      "western": 4351,
      "solid": 4352,
      "aland": 4353,
      "alarm": 4354,
      "goals": 4355,
      "colate": 4356,
      "roy": 4357,
      "uts": 4358,
      "outfit": 4359,
      "accompl": 4360,
      "cance": 4361,
      "amble": 4362,
      "amond": 4363,
      "nowadays": 4364,
      "modern": 4365,
      "agent": 4366,
      "lored": 4367,
      "loans": 4368,
      "Web": 4369,
      "West": 4370,
      "raiser": 4371,
      "notes": 4372,
      "ify": 4373,
      "deep": 4374,
      "butter": 4375,
      "entry": 4376,
      "ille": 4377,
      "union": 4378,
      "unusual": 4379,
      "ctions": 4380,
      "resident": 4381,
      "gee": 4382,
      "highest": 4383,
      "chef": 4384,
      "chest": 4385,
      "cheated": 4386,
      "cheating": 4387,
      "ief": 4388,
      "Chica": 4389,
      "istic": 4390,
      "woke": 4391,
      "grass": 4392,
      "clinic": 4393,
      "stores": 4394,
      "dull": 4395,
      "court": 4396,
      "lets": 4397,
      "intern": 4398,
      "Toky": 4399,
      "sities": 4400,
      "sons": 4401,
      "image": 4402,
      "intend": 4403,
      "booking": 4404,
      "calend": 4405,
      "dizzy": 4406,
      "diamond": 4407,
      "miles": 4408,
      "shower": 4409,
      "Believe": 4410,
      "eaten": 4411,
      "serving": 4412,
      "paign": 4413,
      "display": 4414,
      "earn": 4415,
      "phones": 4416,
      "classmat": 4417,
      "fired": 4418,
      "Thanksgiving": 4419,
      "Front": 4420,
      "Whoa": 4421,
      "positive": 4422,
      "vacanc": 4423,
      "picking": 4424,
      "skill": 4425,
      "personnel": 4426,
      "sending": 4427,
      "singer": 4428,
      "jeans": 4429,
      "Stud": 4430,
      "Study": 4431,
      "steal": 4432,
      "Jackson": 4433,
      "waltz": 4434,
      "attack": 4435,
      "teaching": 4436,
      "facial": 4437,
      "easier": 4438,
      "advanced": 4439,
      "pump": 4440,
      "scenery": 4441,
      "mainly": 4442,
      "result": 4443,
      "traveler": 4444,
      "purchas": 4445,
      "smoker": 4446,
      "ulture": 4447,
      "Anyway": 4448,
      "sixty": 4449,
      "Rome": 4450,
      "campaign": 4451,
      "hurt": 4452,
      "prizes": 4453,
      "lessons": 4454,
      "confused": 4455,
      "relations": 4456,
      "suggestion": 4457,
      "elevator": 4458,
      "rains": 4459,
      "extreme": 4460,
      "Second": 4461,
      "locked": 4462,
      "faction": 4463,
      "customs": 4464,
      "customers": 4465,
      "client": 4466,
      "difficul": 4467,
      "Peking": 4468,
      "stockholders": 4469,
      "basis": 4470,
      "headaches": 4471,
      "messages": 4472,
      "Michelle": 4473,
      "expand": 4474,
      "fundraiser": 4475,
      "walls": 4476,
      "install": 4477,
      "199": 4478,
      "forgotten": 4479,
      "arrangements": 4480,
      "graphy": 4481,
      "educational": 4482,
      "competitive": 4483,
      "satisfaction": 4484,
      "economic": 4485,
      "mountains": 4486,
      "songs": 4487,
      "killing": 4488,
      "millan": 4489,
      "fashioned": 4490,
      "disturb": 4491,
      "elected": 4492,
      "Olympics": 4493,
      "advertisements": 4494,
      "benefit": 4495,
      "zabeth": 4496,
      "Working": 4497,
      "based": 4498,
      "impressive": 4499,
      "spoke": 4500,
      "Perfect": 4501,
      "philoso": 4502,
      "cameras": 4503,
      "struck": 4504,
      "profic": 4505,
      "venture": 4506,
      "duties": 4507,
      "appear": 4508,
      "apples": 4509,
      "models": 4510,
      "experienced": 4511,
      "cuis": 4512,
      "destination": 4513,
      "Britain": 4514,
      "Disney": 4515,
      "German": 4516,
      "shipping": 4517,
      "concerned": 4518,
      "regarding": 4519,
      "critic": 4520,
      "hunting": 4521,
      "habits": 4522,
      "Business": 4523,
      "Doris": 4524,
      "Macmillan": 4525,
      "Passport": 4526,
      "cigarette": 4527,
      "emergency": 4528,
      "shelf": 4529,
      "title": 4530,
      "separate": 4531,
      "stretch": 4532,
      "hospitality": 4533,
      "Jean": 4534,
      "extension": 4535,
      "stereo": 4536,
      "strategy": 4537,
      "character": 4538,
      "normal": 4539,
      "universities": 4540,
      "Elizabeth": 4541,
      "October": 4542,
      "intense": 4543,
      "attractive": 4544,
      "academic": 4545,
      "amenities": 4546,
      "miserable": 4547,
      "entertainment": 4548,
      "Beaut": 4549,
      "Spring": 4550,
      "Simpson": 4551,
      "Zealand": 4552,
      "wrote": 4553,
      "Chicago": 4554,
      "Tokyo": 4555,
      "classmates": 4556,
      "vacancies": 4557,
      "purchasing": 4558,
      "22": 4559,
      "36": 4560,
      "65": 4561,
      "86": 4562,
      "Apri": 4563,
      "Asia": 4564,
      "CE": 4565,
      "CP": 4566,
      "Cr": 4567,
      "Cra": 4568,
      "Coffee": 4569,
      "Clu": 4570,
      "Even": 4571,
      "Egy": 4572,
      "Econo": 4573,
      "Ellen": 4574,
      "Fri": 4575,
      "Got": 4576,
      "Gone": 4577,
      "Gold": 4578,
      "Han": 4579,
      "Hon": 4580,
      "Ham": 4581,
      "Haw": 4582,
      "Jef": 4583,
      "Kr": 4584,
      "Kell": 4585,
      "Kathy": 4586,
      "Lim": 4587,
      "Make": 4588,
      "Mother": 4589,
      "Pu": 4590,
      "Pac": 4591,
      "Play": 4592,
      "Red": 4593,
      "Ruth": 4594,
      "Sing": 4595,
      "Stop": 4596,
      "South": 4597,
      "Sons": 4598,
      "Teach": 4599,
      "UF": 4600,
      "Usu": 4601,
      "Win": 4602,
      "Yi": 4603,
      "Yo": 4604,
      "Yester": 4605,
      "bust": 4606,
      "bble": 4607,
      "cing": 4608,
      "cro": 4609,
      "cart": 4610,
      "congratulations": 4611,
      "dig": 4612,
      "dies": 4613,
      "dirty": 4614,
      "diction": 4615,
      "emp": 4616,
      "ecut": 4617,
      "fro": 4618,
      "flex": 4619,
      "ga": 4620,
      "gown": 4621,
      "gers": 4622,
      "hum": 4623,
      "ired": 4624,
      "ium": 4625,
      "lun": 4626,
      "ming": 4627,
      "mand": 4628,
      "mary": 4629,
      "mass": 4630,
      "nin": 4631,
      "oce": 4632,
      "osite": 4633,
      "options": 4634,
      "pun": 4635,
      "pig": 4636,
      "pian": 4637,
      "ray": 4638,
      "ral": 4639,
      "sin": 4640,
      "sor": 4641,
      "sour": 4642,
      "swo": 4643,
      "scar": 4644,
      "smile": 4645,
      "tv": 4646,
      "tid": 4647,
      "tur": 4648,
      "vi": 4649,
      "vill": 4650,
      "vard": 4651,
      "xi": 4652,
      "yer": 4653,
      "yellow": 4654,
      "zi": 4655,
      "thus": 4656,
      "ining": 4657,
      "income": 4658,
      "inqui": 4659,
      "rep": 4660,
      "retired": 4661,
      "remain": 4662,
      "remit": 4663,
      "reconfirm": 4664,
      "anal": 4665,
      "tow": 4666,
      "atre": 4667,
      "atic": 4668,
      "atmo": 4669,
      "oral": 4670,
      "orange": 4671,
      "ism": 4672,
      "lla": 4673,
      "heat": 4674,
      "heaven": 4675,
      "seng": 4676,
      "stir": 4677,
      "stain": 4678,
      "arant": 4679,
      "leng": 4680,
      "keen": 4681,
      "esome": 4682,
      "enthus": 4683,
      "ooting": 4684,
      "icans": 4685,
      "lim": 4686,
      "dozen": 4687,
      "eding": 4688,
      "areas": 4689,
      "sole": 4690,
      "alley": 4691,
      "alities": 4692,
      "ids": 4693,
      "iding": 4694,
      "identific": 4695,
      "cock": 4696,
      "colored": 4697,
      "wild": 4698,
      "ading": 4699,
      "ador": 4700,
      "admi": 4701,
      "robe": 4702,
      "rock": 4703,
      "rocks": 4704,
      "robb": 4705,
      "outing": 4706,
      "iron": 4707,
      "irley": 4708,
      "access": 4709,
      "anytime": 4710,
      "lyn": 4711,
      "suf": 4712,
      "superi": 4713,
      "suspect": 4714,
      "anta": 4715,
      "antic": 4716,
      "antity": 4717,
      "peace": 4718,
      "host": 4719,
      "mp4": 4720,
      "cember": 4721,
      "fee": 4722,
      "fees": 4723,
      "feet": 4724,
      "losing": 4725,
      "shy": 4726,
      "shan": 4727,
      "shooting": 4728,
      "Their": 4729,
      "Things": 4730,
      "iff": 4731,
      "demand": 4732,
      "atest": 4733,
      "plate": 4734,
      "plastic": 4735,
      "plumb": 4736,
      "units": 4737,
      "united": 4738,
      "unior": 4739,
      "reserved": 4740,
      "ulti": 4741,
      "ulous": 4742,
      "qualities": 4743,
      "quantity": 4744,
      "compli": 4745,
      "complic": 4746,
      "ended": 4747,
      "chem": 4748,
      "specially": 4749,
      "sphere": 4750,
      "managed": 4751,
      "tray": 4752,
      "commo": 4753,
      "cousin": 4754,
      "overweight": 4755,
      "owners": 4756,
      "fol": 4757,
      "lasts": 4758,
      "istics": 4759,
      "typing": 4760,
      "grown": 4761,
      "proud": 4762,
      "surely": 4763,
      "appet": 4764,
      "ston": 4765,
      "stole": 4766,
      "stopped": 4767,
      "Surely": 4768,
      "duck": 4769,
      "civ": 4770,
      "lottery": 4771,
      "marks": 4772,
      "finals": 4773,
      "imm": 4774,
      "download": 4775,
      "planned": 4776,
      "bookstore": 4777,
      "interests": 4778,
      "guarant": 4779,
      "checks": 4780,
      "died": 4781,
      "diving": 4782,
      "clothing": 4783,
      "blow": 4784,
      "venue": 4785,
      "obtain": 4786,
      "rences": 4787,
      "disappointed": 4788,
      "fewer": 4789,
      "headed": 4790,
      "schools": 4791,
      "handy": 4792,
      "handed": 4793,
      "visor": 4794,
      "visited": 4795,
      "tries": 4796,
      "trips": 4797,
      "classical": 4798,
      "happens": 4799,
      "matic": 4800,
      "breast": 4801,
      "breaking": 4802,
      "hardly": 4803,
      "Bobby": 4804,
      "designer": 4805,
      "freezing": 4806,
      "meaning": 4807,
      "managerial": 4808,
      "Step": 4809,
      "sings": 4810,
      "bird": 4811,
      "highly": 4812,
      "highway": 4813,
      "turns": 4814,
      "machines": 4815,
      "largest": 4816,
      "dolls": 4817,
      "Americans": 4818,
      "smooth": 4819,
      "function": 4820,
      "Ford": 4821,
      "serve": 4822,
      "Comput": 4823,
      "pupp": 4824,
      "signific": 4825,
      "recommendation": 4826,
      "maintenance": 4827,
      "fourth": 4828,
      "smaller": 4829,
      "chocolate": 4830,
      "worrying": 4831,
      "joining": 4832,
      "Roman": 4833,
      "challen": 4834,
      "exams": 4835,
      "December": 4836,
      "exercising": 4837,
      "charged": 4838,
      "eleven": 4839,
      "foreigners": 4840,
      "sleepy": 4841,
      "copies": 4842,
      "seller": 4843,
      "cris": 4844,
      "crab": 4845,
      "Mei": 4846,
      "Once": 4847,
      "sunshine": 4848,
      "sights": 4849,
      "invent": 4850,
      "styles": 4851,
      "atives": 4852,
      "craft": 4853,
      "depend": 4854,
      "grandpa": 4855,
      "Guangzhou": 4856,
      "opera": 4857,
      "placed": 4858,
      "opposite": 4859,
      "transaction": 4860,
      "lawyer": 4861,
      "Track": 4862,
      "Trading": 4863,
      "relaxed": 4864,
      "funds": 4865,
      "instance": 4866,
      "quarters": 4867,
      "fishing": 4868,
      "include": 4869,
      "technology": 4870,
      "Absolutely": 4871,
      "promoted": 4872,
      "records": 4873,
      "spots": 4874,
      "Holly": 4875,
      "Shirley": 4876,
      "competitor": 4877,
      "falling": 4878,
      "fallen": 4879,
      "clubs": 4880,
      "Times": 4881,
      "leader": 4882,
      "approved": 4883,
      "soft": 4884,
      "slip": 4885,
      "mentioned": 4886,
      "Corporate": 4887,
      "conditioner": 4888,
      "neighbors": 4889,
      "Harvard": 4890,
      "documentary": 4891,
      "bidden": 4892,
      "nesses": 4893,
      "routine": 4894,
      "printed": 4895,
      "regularly": 4896,
      "exhibits": 4897,
      "Hua": 4898,
      "steaks": 4899,
      "banquet": 4900,
      "occup": 4901,
      "animal": 4902,
      "struction": 4903,
      "damage": 4904,
      "damaged": 4905,
      "sheets": 4906,
      "notebook": 4907,
      "dumped": 4908,
      "correctly": 4909,
      "bowl": 4910,
      "sharing": 4911,
      "cabin": 4912,
      "achelor": 4913,
      "minibar": 4914,
      "minimum": 4915,
      "mirror": 4916,
      "bullet": 4917,
      "scene": 4918,
      "possibility": 4919,
      "scale": 4920,
      "immediately": 4921,
      "scholarship": 4922,
      "favourite": 4923,
      "activities": 4924,
      "Elvin": 4925,
      "Karl": 4926,
      "Sales": 4927,
      "greatest": 4928,
      "thrill": 4929,
      "volunt": 4930,
      "Keep": 4931,
      "Russia": 4932,
      "bungee": 4933,
      "argument": 4934,
      "conversation": 4935,
      "Isabe": 4936,
      "sandwich": 4937,
      "Simon": 4938,
      "orientation": 4939,
      "Mexican": 4940,
      "Square": 4941,
      "believ": 4942,
      "canceled": 4943,
      "calendar": 4944,
      "proficient": 4945,
      "cuisine": 4946,
      "April": 4947,
      "CEO": 4948,
      "Club": 4949,
      "Jeff": 4950,
      "Pacific": 4951,
      "Usually": 4952,
      "Yesterday": 4953,
      "swollen": 4954,
      "atmosphere": 4955,
      "enthusi": 4956,
      "identification": 4957,
      "plumbing": 4958,
      "complicated": 4959,
      "challenge": 4960,
      "1st": 4961,
      "150": 4962,
      "35": 4963,
      "63": 4964,
      "87": 4965,
      "::": 4966,
      "Aut": 4967,
      "Avenue": 4968,
      "BE": 4969,
      "Bu": 4970,
      "Bry": 4971,
      "Bye": 4972,
      "Bang": 4973,
      "Cha": 4974,
      "Cus": 4975,
      "Count": 4976,
      "Centr": 4977,
      "DD": 4978,
      "Dou": 4979,
      "Dut": 4980,
      "Dam": 4981,
      "Dun": 4982,
      "During": 4983,
      "Darling": 4984,
      "Eas": 4985,
      "Each": 4986,
      "ETV": 4987,
      "EDD": 4988,
      "Four": 4989,
      "Free": 4990,
      "Fix": 4991,
      "Gal": 4992,
      "Gree": 4993,
      "Hallow": 4994,
      "Honest": 4995,
      "Jake": 4996,
      "Kore": 4997,
      "Lou": 4998,
      "Ling": 4999,
      "Lit": 5000,
      "Lake": 5001,
      "Laur": 5002,
      "Langu": 5003,
      "Ming": 5004,
      "Mall": 5005,
      "Museum": 5006,
      "NBA": 5007,
      "Ob": 5008,
      "Ow": 5009,
      "Out": 5010,
      "Ori": 5011,
      "Ouch": 5012,
      "PL": 5013,
      "Pho": 5014,
      "Randy": 5015,
      "Sou": 5016,
      "Same": 5017,
      "Santa": 5018,
      "Ty": 5019,
      "Tre": 5020,
      "Ton": 5021,
      "Tor": 5022,
      "Tang": 5023,
      "Van": 5024,
      "Vic": 5025,
      "Wr": 5026,
      "Won": 5027,
      "Wake": 5028,
      "Wend": 5029,
      "XY": 5030,
      "Yan": 5031,
      "Yep": 5032,
      "ape": 5033,
      "aineering": 5034,
      "bour": 5035,
      "bone": 5036,
      "bound": 5037,
      "bak": 5038,
      "bunch": 5039,
      "bachelor": 5040,
      "cate": 5041,
      "calm": 5042,
      "dge": 5043,
      "dread": 5044,
      "dden": 5045,
      "emb": 5046,
      "elder": 5047,
      "fas": 5048,
      "fra": 5049,
      "fright": 5050,
      "fail": 5051,
      "fits": 5052,
      "farm": 5053,
      "gin": 5054,
      "hook": 5055,
      "hiring": 5056,
      "kar": 5057,
      "kins": 5058,
      "lan": 5059,
      "lung": 5060,
      "multi": 5061,
      "nature": 5062,
      "ored": 5063,
      "pants": 5064,
      "rates": 5065,
      "slight": 5066,
      "tance": 5067,
      "tap": 5068,
      "tadena": 5069,
      "uary": 5070,
      "wow": 5071,
      "wart": 5072,
      "wool": 5073,
      "wines": 5074,
      "yal": 5075,
      "ycho": 5076,
      "insu": 5077,
      "rear": 5078,
      "refill": 5079,
      "reporter": 5080,
      "ancient": 5081,
      "tone": 5082,
      "tori": 5083,
      "toner": 5084,
      "tories": 5085,
      "erk": 5086,
      "theast": 5087,
      "issa": 5088,
      "lleng": 5089,
      "sele": 5090,
      "semin": 5091,
      "states": 5092,
      "stressed": 5093,
      "aration": 5094,
      "argue": 5095,
      "keeper": 5096,
      "ening": 5097,
      "enny": 5098,
      "oofed": 5099,
      "beha": 5100,
      "beans": 5101,
      "assure": 5102,
      "ashed": 5103,
      "aspect": 5104,
      "wel": 5105,
      "socks": 5106,
      "cher": 5107,
      "church": 5108,
      "chief": 5109,
      "idio": 5110,
      "idential": 5111,
      "coin": 5112,
      "coke": 5113,
      "covers": 5114,
      "nee": 5115,
      "adminis": 5116,
      "role": 5117,
      "outlet": 5118,
      "accur": 5119,
      "accommo": 5120,
      "cancer": 5121,
      "cancell": 5122,
      "rimp": 5123,
      "ambling": 5124,
      "anybody": 5125,
      "summ": 5126,
      "sudden": 5127,
      "tile": 5128,
      "peel": 5129,
      "moon": 5130,
      "aked": 5131,
      "feed": 5132,
      "lover": 5133,
      "Wei": 5134,
      "shift": 5135,
      "shrimp": 5136,
      "raw": 5137,
      "ified": 5138,
      "execut": 5139,
      "prote": 5140,
      "ankle": 5141,
      "nois": 5142,
      "plat": 5143,
      "plug": 5144,
      "newly": 5145,
      "newcom": 5146,
      "perm": 5147,
      "perhaps": 5148,
      "cture": 5149,
      "affect": 5150,
      "ulation": 5151,
      "construction": 5152,
      "quiring": 5153,
      "mornings": 5154,
      "joke": 5155,
      "joint": 5156,
      "endship": 5157,
      "hiking": 5158,
      "pocket": 5159,
      "spicy": 5160,
      "Myra": 5161,
      "bug": 5162,
      "Chan": 5163,
      "Soci": 5164,
      "Sophi": 5165,
      "istant": 5166,
      "prevent": 5167,
      "wondered": 5168,
      "cloud": 5169,
      "clerk": 5170,
      "proof": 5171,
      "apped": 5172,
      "ichuan": 5173,
      "assing": 5174,
      "foreigner": 5175,
      "named": 5176,
      "torna": 5177,
      "epend": 5178,
      "feels": 5179,
      "intersection": 5180,
      "bride": 5181,
      "Coke": 5182,
      "Colle": 5183,
      "minor": 5184,
      "loved": 5185,
      "whom": 5186,
      "shocked": 5187,
      "speaker": 5188,
      "dili": 5189,
      "sian": 5190,
      "corporate": 5191,
      "Becky": 5192,
      "dining": 5193,
      "obvious": 5194,
      "sette": 5195,
      "forming": 5196,
      "headlines": 5197,
      "cycle": 5198,
      "handbag": 5199,
      "waitress": 5200,
      "ports": 5201,
      "classic": 5202,
      "autumn": 5203,
      "tables": 5204,
      "Recent": 5205,
      "Remember": 5206,
      "supplier": 5207,
      "stands": 5208,
      "flav": 5209,
      "floods": 5210,
      "harder": 5211,
      "hardware": 5212,
      "surface": 5213,
      "decade": 5214,
      "effic": 5215,
      "central": 5216,
      "Insurance": 5217,
      "deserve": 5218,
      "skirts": 5219,
      "terrified": 5220,
      "countryside": 5221,
      "balls": 5222,
      "psycho": 5223,
      "specialty": 5224,
      "author": 5225,
      "colates": 5226,
      "regret": 5227,
      "reception": 5228,
      "Almost": 5229,
      "Altadena": 5230,
      "Uncle": 5231,
      "tongue": 5232,
      "curtain": 5233,
      "facility": 5234,
      "factors": 5235,
      "passen": 5236,
      "passeng": 5237,
      "tests": 5238,
      "presents": 5239,
      "advise": 5240,
      "informal": 5241,
      "learnt": 5242,
      "fridge": 5243,
      "content": 5244,
      "contain": 5245,
      "slept": 5246,
      "Going": 5247,
      "reporting": 5248,
      "reported": 5249,
      "travelers": 5250,
      "chops": 5251,
      "chocolates": 5252,
      "passbook": 5253,
      "painful": 5254,
      "programmes": 5255,
      "programmers": 5256,
      "Roll": 5257,
      "Ross": 5258,
      "challeng": 5259,
      "ients": 5260,
      "lesson": 5261,
      "exercises": 5262,
      "Lucas": 5263,
      "confidence": 5264,
      "posted": 5265,
      "postage": 5266,
      "postcards": 5267,
      "ountaineering": 5268,
      "arrival": 5269,
      "fitting": 5270,
      "streets": 5271,
      "507": 5272,
      "ladder": 5273,
      "surprising": 5274,
      "sells": 5275,
      "credits": 5276,
      "engine": 5277,
      "expense": 5278,
      "expenses": 5279,
      "south": 5280,
      "drives": 5281,
      "searching": 5282,
      "attending": 5283,
      "tasty": 5284,
      "supervisor": 5285,
      "Paula": 5286,
      "sence": 5287,
      "senior": 5288,
      "advertised": 5289,
      "bara": 5290,
      "barbec": 5291,
      "Cheer": 5292,
      "burning": 5293,
      "horror": 5294,
      "hearts": 5295,
      "practicing": 5296,
      "laws": 5297,
      "Ahh": 5298,
      "Trust": 5299,
      "perfectly": 5300,
      "convenience": 5301,
      "quicker": 5302,
      "casion": 5303,
      "developing": 5304,
      "receiver": 5305,
      "potential": 5306,
      "seriously": 5307,
      "fifth": 5308,
      "technic": 5309,
      "Blue": 5310,
      "jamin": 5311,
      "employee": 5312,
      "opportunities": 5313,
      "Boat": 5314,
      "Adam": 5315,
      "saved": 5316,
      "saves": 5317,
      "winner": 5318,
      "designs": 5319,
      "organizational": 5320,
      "bottles": 5321,
      "killer": 5322,
      "leading": 5323,
      "following": 5324,
      "fashionable": 5325,
      "Francisco": 5326,
      "sofa": 5327,
      "slipped": 5328,
      "Benjamin": 5329,
      "accepted": 5330,
      "qualify": 5331,
      "Grandma": 5332,
      "Barbara": 5333,
      "Post": 5334,
      "Walter": 5335,
      "Walker": 5336,
      "balance": 5337,
      "bothering": 5338,
      "Charlie": 5339,
      "carrying": 5340,
      "Diane": 5341,
      "block": 5342,
      "gardening": 5343,
      "north": 5344,
      "treating": 5345,
      "community": 5346,
      "Huang": 5347,
      "lecture": 5348,
      "transferred": 5349,
      "Probably": 5350,
      "Such": 5351,
      "Supp": 5352,
      "occasion": 5353,
      "scope": 5354,
      "branches": 5355,
      "Finally": 5356,
      "pulled": 5357,
      "Amanda": 5358,
      "cotton": 5359,
      "resource": 5360,
      "switch": 5361,
      "slowly": 5362,
      "cheeseburger": 5363,
      "combination": 5364,
      "experiences": 5365,
      "Indeed": 5366,
      "ambul": 5367,
      "textbooks": 5368,
      "British": 5369,
      "Reservations": 5370,
      "samples": 5371,
      "Germany": 5372,
      "consult": 5373,
      "climbing": 5374,
      "Melissa": 5375,
      "replacement": 5376,
      "possibly": 5377,
      "participate": 5378,
      "Store": 5379,
      "creative": 5380,
      "flea": 5381,
      "niece": 5382,
      "Williams": 5383,
      "circul": 5384,
      "assignment": 5385,
      "breathe": 5386,
      "advantages": 5387,
      "scratch": 5388,
      "original": 5389,
      "strengths": 5390,
      "Nathan": 5391,
      "initi": 5392,
      "political": 5393,
      "visitors": 5394,
      "Associates": 5395,
      "champion": 5396,
      "potatoes": 5397,
      "candidate": 5398,
      "envelopes": 5399,
      "provides": 5400,
      "spilled": 5401,
      "subscribe": 5402,
      "physics": 5403,
      "warranty": 5404,
      "Daily": 5405,
      "relief": 5406,
      "recogn": 5407,
      "ambled": 5408,
      "WebTrack": 5409,
      "illegal": 5410,
      "Student": 5411,
      "extremely": 5412,
      "Egypt": 5413,
      "Economics": 5414,
      "Friendship": 5415,
      "cartrid": 5416,
      "digital": 5417,
      "ocean": 5418,
      "piano": 5419,
      "village": 5420,
      "robbery": 5421,
      "superior": 5422,
      "compliment": 5423,
      "immig": 5424,
      "guarantee": 5425,
      "obtained": 5426,
      "handyman": 5427,
      "occupied": 5428,
      "volunte": 5429,
      "believable": 5430,
      "enthusiastic": 5431,
      "Autumn": 5432,
      "Custo": 5433,
      "Central": 5434,
      "Halloween": 5435,
      "Honestly": 5436,
      "Laura": 5437,
      "Obama": 5438,
      "Toronto": 5439,
      "Wendy": 5440,
      "XYZ": 5441,
      "embarr": 5442,
      "fascin": 5443,
      "tornado": 5444,
      "Recently": 5445,
      "passenger": 5446,
      "passengers": 5447,
      "barbecue": 5448,
      "WebTracker": 5449,
      "75": 5450,
      "89": 5451,
      "8th": 5452,
      "AM": 5453,
      "Ass": 5454,
      "Award": 5455,
      "BB": 5456,
      "Bre": 5457,
      "Ban": 5458,
      "Bas": 5459,
      "Bud": 5460,
      "Bru": 5461,
      "CC": 5462,
      "Cut": 5463,
      "Cam": 5464,
      "Cent": 5465,
      "Cap": 5466,
      "Center": 5467,
      "Calm": 5468,
      "Cathy": 5469,
      "Ether": 5470,
      "Eight": 5471,
      "Especially": 5472,
      "Fu": 5473,
      "Gor": 5474,
      "Gar": 5475,
      "Gary": 5476,
      "Hor": 5477,
      "Hans": 5478,
      "IN": 5479,
      "Ja": 5480,
      "Jing": 5481,
      "Jes": 5482,
      "Jill": 5483,
      "Junior": 5484,
      "LA": 5485,
      "Lar": 5486,
      "Lab": 5487,
      "Line": 5488,
      "Law": 5489,
      "Mm": 5490,
      "Mountain": 5491,
      "MBA": 5492,
      "Old": 5493,
      "Other": 5494,
      "Part": 5495,
      "Prom": 5496,
      "President": 5497,
      "Penny": 5498,
      "PIN": 5499,
      "Ron": 5500,
      "Shi": 5501,
      "Sang": 5502,
      "Sichuan": 5503,
      "Tha": 5504,
      "Too": 5505,
      "Table": 5506,
      "Tower": 5507,
      "Terry": 5508,
      "Tech": 5509,
      "VI": 5510,
      "Ver": 5511,
      "Vick": 5512,
      "Wo": 5513,
      "Wat": 5514,
      "Whe": 5515,
      "bs": 5516,
      "brow": 5517,
      "baking": 5518,
      "bert": 5519,
      "brain": 5520,
      "besides": 5521,
      "cit": 5522,
      "cation": 5523,
      "cles": 5524,
      "cery": 5525,
      "fond": 5526,
      "gri": 5527,
      "gie": 5528,
      "hoo": 5529,
      "hill": 5530,
      "harm": 5531,
      "hills": 5532,
      "iant": 5533,
      "jin": 5534,
      "jud": 5535,
      "kick": 5536,
      "lting": 5537,
      "lash": 5538,
      "lved": 5539,
      "loose": 5540,
      "lamp": 5541,
      "mare": 5542,
      "ni": 5543,
      "nar": 5544,
      "none": 5545,
      "nific": 5546,
      "os": 5547,
      "oy": 5548,
      "oss": 5549,
      "oscope": 5550,
      "pour": 5551,
      "pink": 5552,
      "pist": 5553,
      "pitch": 5554,
      "palace": 5555,
      "rare": 5556,
      "rally": 5557,
      "rang": 5558,
      "rise": 5559,
      "rict": 5560,
      "rushed": 5561,
      "sses": 5562,
      "saturday": 5563,
      "tre": 5564,
      "tender": 5565,
      "uh": 5566,
      "vive": 5567,
      "vans": 5568,
      "via": 5569,
      "vio": 5570,
      "wrest": 5571,
      "whit": 5572,
      "yo": 5573,
      "oudy": 5574,
      "thday": 5575,
      "threat": 5576,
      "iner": 5577,
      "infe": 5578,
      "inct": 5579,
      "insp": 5580,
      "inson": 5581,
      "incred": 5582,
      "informed": 5583,
      "rer": 5584,
      "rely": 5585,
      "rehen": 5586,
      "remot": 5587,
      "resol": 5588,
      "anmen": 5589,
      "toys": 5590,
      "attor": 5591,
      "erie": 5592,
      "theatre": 5593,
      "isure": 5594,
      "lliant": 5595,
      "height": 5596,
      "vend": 5597,
      "sel": 5598,
      "ita": 5599,
      "itious": 5600,
      "itude": 5601,
      "itiner": 5602,
      "sta": 5603,
      "starr": 5604,
      "arian": 5605,
      "leisure": 5606,
      "hats": 5607,
      "forced": 5608,
      "icure": 5609,
      "beers": 5610,
      "liqu": 5611,
      "liers": 5612,
      "asse": 5613,
      "som": 5614,
      "aller": 5615,
      "Whatever": 5616,
      "chick": 5617,
      "chinese": 5618,
      "cope": 5619,
      "coach": 5620,
      "admit": 5621,
      "admission": 5622,
      "likely": 5623,
      "uted": 5624,
      "outline": 5625,
      "irin": 5626,
      "aces": 5627,
      "absent": 5628,
      "rious": 5629,
      "otic": 5630,
      "withdra": 5631,
      "termin": 5632,
      "tial": 5633,
      "agers": 5634,
      "ague": 5635,
      "agric": 5636,
      "worn": 5637,
      "feat": 5638,
      "loaf": 5639,
      "independ": 5640,
      "shor": 5641,
      "shouting": 5642,
      "ppery": 5643,
      "Theater": 5644,
      "rap": 5645,
      "raz": 5646,
      "ups": 5647,
      "Thou": 5648,
      "Think": 5649,
      "ifts": 5650,
      "deals": 5651,
      "explan": 5652,
      "prove": 5653,
      "prose": 5654,
      "proced": 5655,
      "plot": 5656,
      "plant": 5657,
      "unfortunately": 5658,
      "High": 5659,
      "persu": 5660,
      "perman": 5661,
      "persever": 5662,
      "residence": 5663,
      "ults": 5664,
      "conserv": 5665,
      "consign": 5666,
      "convin": 5667,
      "quake": 5668,
      "compar": 5669,
      "joking": 5670,
      "jogging": 5671,
      "iland": 5672,
      "hip": 5673,
      "hike": 5674,
      "aves": 5675,
      "however": 5676,
      "rights": 5677,
      "pos": 5678,
      "workout": 5679,
      "reduce": 5680,
      "bubble": 5681,
      "mathem": 5682,
      "tru": 5683,
      "trative": 5684,
      "trict": 5685,
      "comments": 5686,
      "commercial": 5687,
      "coupon": 5688,
      "Chang": 5689,
      "Chuck": 5690,
      "overview": 5691,
      "overslept": 5692,
      "owned": 5693,
      "restrict": 5694,
      "typist": 5695,
      "click": 5696,
      "prin": 5697,
      "irsty": 5698,
      "buyer": 5699,
      "stopping": 5700,
      "icks": 5701,
      "lotion": 5702,
      "mark": 5703,
      "interrupt": 5704,
      "cara": 5705,
      "brus": 5706,
      "bricks": 5707,
      "situ": 5708,
      "sitive": 5709,
      "airmail": 5710,
      "imate": 5711,
      "estimate": 5712,
      "intention": 5713,
      "planing": 5714,
      "unders": 5715,
      "ordering": 5716,
      "gues": 5717,
      "whose": 5718,
      "wonders": 5719,
      "speakers": 5720,
      "dial": 5721,
      "closing": 5722,
      "closes": 5723,
      "blind": 5724,
      "blame": 5725,
      "starts": 5726,
      "corrid": 5727,
      "lighted": 5728,
      "houses": 5729,
      "lazy": 5730,
      "Pleased": 5731,
      "paycheck": 5732,
      "inton": 5733,
      "cycl": 5734,
      "older": 5735,
      "trim": 5736,
      "ears": 5737,
      "dram": 5738,
      "drag": 5739,
      "drunk": 5740,
      "weekends": 5741,
      "classroom": 5742,
      "rug": 5743,
      "tablets": 5744,
      "caused": 5745,
      "causes": 5746,
      "fiance": 5747,
      "suppliers": 5748,
      "flash": 5749,
      "flashing": 5750,
      "France": 5751,
      "Smiths": 5752,
      "survive": 5753,
      "Allan": 5754,
      "broch": 5755,
      "centre": 5756,
      "Whose": 5757,
      "Neal": 5758,
      "vacu": 5759,
      "Nowadays": 5760,
      "talks": 5761,
      "fujing": 5762,
      "drivers": 5763,
      "runs": 5764,
      "skating": 5765,
      "skates": 5766,
      "Stewart": 5767,
      "Lili": 5768,
      "Star": 5769,
      "tours": 5770,
      "tourists": 5771,
      "throughout": 5772,
      "column": 5773,
      "Brook": 5774,
      "Jackie": 5775,
      "walked": 5776,
      "Alan": 5777,
      "Also": 5778,
      "fering": 5779,
      "bedrooms": 5780,
      "founded": 5781,
      "curities": 5782,
      "factories": 5783,
      "mistakes": 5784,
      "testing": 5785,
      "mails": 5786,
      "Form": 5787,
      "Asset": 5788,
      "identity": 5789,
      "mascara": 5790,
      "puzz": 5791,
      "signed": 5792,
      "hanging": 5793,
      "stranger": 5794,
      "bankrupt": 5795,
      "lings": 5796,
      "roads": 5797,
      "20th": 5798,
      "pursu": 5799,
      "frequ": 5800,
      "filling": 5801,
      "projects": 5802,
      "salesman": 5803,
      "Wangfujing": 5804,
      "awfully": 5805,
      "Debb": 5806,
      "camping": 5807,
      "primary": 5808,
      "arriving": 5809,
      "submit": 5810,
      "aches": 5811,
      "Christine": 5812,
      "IBM": 5813,
      "landed": 5814,
      "catching": 5815,
      "rings": 5816,
      "copier": 5817,
      "dealing": 5818,
      "lence": 5819,
      "sides": 5820,
      "sellers": 5821,
      "response": 5822,
      "engineer": 5823,
      "custom": 5824,
      "changing": 5825,
      "Loans": 5826,
      "humor": 5827,
      "magnific": 5828,
      "buildings": 5829,
      "Dragon": 5830,
      "Grant": 5831,
      "sorts": 5832,
      "accum": 5833,
      "shorten": 5834,
      "grandmother": 5835,
      "successfully": 5836,
      "Joey": 5837,
      "Cheers": 5838,
      "Checking": 5839,
      "horse": 5840,
      "horoscope": 5841,
      "15th": 5842,
      "Accord": 5843,
      "According": 5844,
      "Annie": 5845,
      "tificates": 5846,
      "improved": 5847,
      "accidents": 5848,
      "accidentally": 5849,
      "relaxing": 5850,
      "detail": 5851,
      "pots": 5852,
      "quitting": 5853,
      "2008": 5854,
      "Management": 5855,
      "furnished": 5856,
      "Abby": 5857,
      "decorated": 5858,
      "arrangement": 5859,
      "fortune": 5860,
      "directly": 5861,
      "satisfactory": 5862,
      "reasons": 5863,
      "issues": 5864,
      "tempor": 5865,
      "designed": 5866,
      "organizing": 5867,
      "approval": 5868,
      "Without": 5869,
      "description": 5870,
      "electron": 5871,
      "Corp": 5872,
      "Sandra": 5873,
      "acceptable": 5874,
      "Clinton": 5875,
      "Carl": 5876,
      "trading": 5877,
      "Follow": 5878,
      "Poor": 5879,
      "transit": 5880,
      "Dire": 5881,
      "dreamed": 5882,
      "urgently": 5883,
      "colleague": 5884,
      "communicate": 5885,
      "Huh": 5886,
      "vegetarian": 5887,
      "sticks": 5888,
      "declaration": 5889,
      "sweetie": 5890,
      "expressions": 5891,
      "Conne": 5892,
      "berty": 5893,
      "vehicles": 5894,
      "prescribe": 5895,
      "weaknesses": 5896,
      "exports": 5897,
      "invoice": 5898,
      "invoking": 5899,
      "involved": 5900,
      "continu": 5901,
      "crossing": 5902,
      "fatter": 5903,
      "dumplings": 5904,
      "appeals": 5905,
      "---": 5906,
      "bowling": 5907,
      "nuts": 5908,
      "smells": 5909,
      "paintings": 5910,
      "Currency": 5911,
      "Feel": 5912,
      "ginger": 5913,
      "warning": 5914,
      "combined": 5915,
      "Indian": 5916,
      "destroy": 5917,
      "buttons": 5918,
      "groups": 5919,
      "achievement": 5920,
      "achievements": 5921,
      "subjects": 5922,
      "connecting": 5923,
      "18th": 5924,
      "knock": 5925,
      "negotiation": 5926,
      "tricks": 5927,
      "earthquake": 5928,
      "concern": 5929,
      "blouses": 5930,
      "Pete": 5931,
      "flesh": 5932,
      "immediate": 5933,
      "activity": 5934,
      "slack": 5935,
      "advantage": 5936,
      "scrambled": 5937,
      "electricity": 5938,
      "announce": 5939,
      "contribution": 5940,
      "Claire": 5941,
      "North": 5942,
      "Terrible": 5943,
      "cruise": 5944,
      "nurse": 5945,
      "www": 5946,
      "wrap": 5947,
      "annoying": 5948,
      "status": 5949,
      "antiques": 5950,
      "enterprise": 5951,
      "enterprises": 5952,
      "qualification": 5953,
      "qualifications": 5954,
      "Maintenance": 5955,
      "dorm": 5956,
      "grocery": 5957,
      "murder": 5958,
      "heels": 5959,
      "arrested": 5960,
      "beyond": 5961,
      "proposal": 5962,
      "quote": 5963,
      "manufacture": 5964,
      "frustrated": 5965,
      "Consumer": 5966,
      "nutrition": 5967,
      "Birthday": 5968,
      "Denise": 5969,
      "Import": 5970,
      "journ": 5971,
      "target": 5972,
      "revocable": 5973,
      "mechan": 5974,
      "accomplish": 5975,
      "difficulty": 5976,
      "appearance": 5977,
      "Beautiful": 5978,
      "Honda": 5979,
      "Kelly": 5980,
      "dictionary": 5981,
      "tidy": 5982,
      "inquire": 5983,
      "length": 5984,
      "limited": 5985,
      "cocktail": 5986,
      "chemistry": 5987,
      "significant": 5988,
      "thriller": 5989,
      "Bryant": 5990,
      "Damn": 5991,
      "Fixed": 5992,
      "Greek": 5993,
      "Oriental": 5994,
      "PLS": 5995,
      "apest": 5996,
      "insured": 5997,
      "selection": 5998,
      "seminar": 5999,
      "accurate": 6000,
      "suddenly": 6001,
      "feedback": 6002,
      "executive": 6003,
      "protect": 6004,
      "noisy": 6005,
      "newcomer": 6006,
      "diligent": 6007,
      "technician": 6008,
      "ambulance": 6009,
      "initiative": 6010,
      "recognize": 6011,
      "immigr": 6012,
      "volunteer": 6013,
      "enthusiastically": 6014,
      "Customer": 6015,
      "Cambridge": 6016,
      "Ethernet": 6017,
      "Jaco": 6018,
      "Thailand": 6019,
      "citiz": 6020,
      "narrow": 6021,
      "ossible": 6022,
      "rehensive": 6023,
      "remote": 6024,
      "starring": 6025,
      "withdrawal": 6026,
      "explanation": 6027,
      "permanent": 6028,
      "convinced": 6029,
      "corridor": 6030,
      "Debbie": 6031,
      "magnificent": 6032,
      "37": 6033,
      "400": 6034,
      "486": 6035,
      "600": 6036,
      "911": 6037,
      "Au": 6038,
      "Ay": 6039,
      "Aha": 6040,
      "App": 6041,
      "Ano": 6042,
      "Action": 6043,
      "Afr": 6044,
      "Again": 6045,
      "Ber": 6046,
      "Bal": 6047,
      "Big": 6048,
      "Bread": 6049,
      "Bark": 6050,
      "Bower": 6051,
      "Braz": 6052,
      "CI": 6053,
      "Ce": 6054,
      "Call": 6055,
      "Cal": 6056,
      "Cook": 6057,
      "Cup": 6058,
      "Cali": 6059,
      "Cont": 6060,
      "Cds": 6061,
      "Dy": 6062,
      "Din": 6063,
      "Dro": 6064,
      "Ent": 6065,
      "Elect": 6066,
      "EBB": 6067,
      "Evans": 6068,
      "Fund": 6069,
      "Fortun": 6070,
      "Flor": 6071,
      "Fantastic": 6072,
      "Foods": 6073,
      "Flash": 6074,
      "Greg": 6075,
      "Hall": 6076,
      "Hao": 6077,
      "Jord": 6078,
      "La": 6079,
      "Lan": 6080,
      "Lot": 6081,
      "Link": 6082,
      "Leah": 6083,
      "Lamb": 6084,
      "Lester": 6085,
      "Lord": 6086,
      "ME": 6087,
      "MS": 6088,
      "Men": 6089,
      "Mur": 6090,
      "Mind": 6091,
      "Mine": 6092,
      "Matt": 6093,
      "Meng": 6094,
      "Master": 6095,
      "Much": 6096,
      "Nic": 6097,
      "Nine": 6098,
      "Ot": 6099,
      "PA": 6100,
      "PM": 6101,
      "Pre": 6102,
      "Por": 6103,
      "Pam": 6104,
      "Phi": 6105,
      "Piz": 6106,
      "Qing": 6107,
      "Rep": 6108,
      "SA": 6109,
      "Sof": 6110,
      "Ster": 6111,
      "Sho": 6112,
      "Send": 6113,
      "Sum": 6114,
      "Seven": 6115,
      "Scho": 6116,
      "Swit": 6117,
      "Try": 6118,
      "Tao": 6119,
      "Tours": 6120,
      "Tender": 6121,
      "UK": 6122,
      "Use": 6123,
      "Wood": 6124,
      "Winter": 6125,
      "Water": 6126,
      "While": 6127,
      "aer": 6128,
      "aid": 6129,
      "boo": 6130,
      "bra": 6131,
      "blast": 6132,
      "bage": 6133,
      "bars": 6134,
      "bbed": 6135,
      "berry": 6136,
      "blog": 6137,
      "booth": 6138,
      "blocked": 6139,
      "cil": 6140,
      "cies": 6141,
      "cret": 6142,
      "cooked": 6143,
      "centi": 6144,
      "culture": 6145,
      "dust": 6146,
      "dough": 6147,
      "dise": 6148,
      "efic": 6149,
      "fab": 6150,
      "fting": 6151,
      "gor": 6152,
      "gust": 6153,
      "garet": 6154,
      "gloves": 6155,
      "guts": 6156,
      "gambling": 6157,
      "hong": 6158,
      "hits": 6159,
      "ige": 6160,
      "iled": 6161,
      "iency": 6162,
      "jet": 6163,
      "jun": 6164,
      "ka": 6165,
      "kong": 6166,
      "lam": 6167,
      "lag": 6168,
      "lice": 6169,
      "lack": 6170,
      "lane": 6171,
      "mbe": 6172,
      "mour": 6173,
      "muse": 6174,
      "mil": 6175,
      "mbo": 6176,
      "nia": 6177,
      "ox": 6178,
      "ole": 6179,
      "obe": 6180,
      "ology": 6181,
      "pin": 6182,
      "pow": 6183,
      "pound": 6184,
      "pace": 6185,
      "patch": 6186,
      "pans": 6187,
      "padd": 6188,
      "palm": 6189,
      "rd": 6190,
      "rating": 6191,
      "roof": 6192,
      "spl": 6193,
      "stoo": 6194,
      "slot": 6195,
      "ssed": 6196,
      "slog": 6197,
      "silly": 6198,
      "signing": 6199,
      "tat": 6200,
      "tes": 6201,
      "tend": 6202,
      "taw": 6203,
      "taught": 6204,
      "tissue": 6205,
      "upper": 6206,
      "vou": 6207,
      "vior": 6208,
      "valent": 6209,
      "wing": 6210,
      "wink": 6211,
      "whis": 6212,
      "wiser": 6213,
      "wagon": 6214,
      "xcuse": 6215,
      "xim": 6216,
      "xious": 6217,
      "yno": 6218,
      "ymour": 6219,
      "zas": 6220,
      "zens": 6221,
      "thick": 6222,
      "thony": 6223,
      "thieve": 6224,
      "thirsty": 6225,
      "infer": 6226,
      "indoor": 6227,
      "inexpensive": 6228,
      "inches": 6229,
      "influ": 6230,
      "redo": 6231,
      "repre": 6232,
      "release": 6233,
      "rella": 6234,
      "anie": 6235,
      "anxious": 6236,
      "toy": 6237,
      "tobe": 6238,
      "towe": 6239,
      "toms": 6240,
      "towards": 6241,
      "atible": 6242,
      "ering": 6243,
      "eral": 6244,
      "erman": 6245,
      "eria": 6246,
      "ingred": 6247,
      "ington": 6248,
      "oring": 6249,
      "meter": 6250,
      "meant": 6251,
      "memo": 6252,
      "metal": 6253,
      "memory": 6254,
      "veal": 6255,
      "sex": 6256,
      "seph": 6257,
      "sels": 6258,
      "stit": 6259,
      "stack": 6260,
      "stars": 6261,
      "stiff": 6262,
      "army": 6263,
      "escrow": 6264,
      "ened": 6265,
      "enced": 6266,
      "forts": 6267,
      "fornia": 6268,
      "ander": 6269,
      "icke": 6270,
      "icion": 6271,
      "iculous": 6272,
      "behave": 6273,
      "belong": 6274,
      "lix": 6275,
      "liking": 6276,
      "liest": 6277,
      "lips": 6278,
      "dozens": 6279,
      "edge": 6280,
      "associ": 6281,
      "weet": 6282,
      "wered": 6283,
      "wears": 6284,
      "wealth": 6285,
      "weigh": 6286,
      "etc": 6287,
      "albu": 6288,
      "gosh": 6289,
      "chill": 6290,
      "chub": 6291,
      "coal": 6292,
      "code": 6293,
      "coins": 6294,
      "neg": 6295,
      "neys": 6296,
      "neither": 6297,
      "adband": 6298,
      "adian": 6299,
      "rose": 6300,
      "robbed": 6301,
      "outgoing": 6302,
      "ird": 6303,
      "irrevocable": 6304,
      "elled": 6305,
      "accompany": 6306,
      "ably": 6307,
      "absor": 6308,
      "amin": 6309,
      "aming": 6310,
      "Italian": 6311,
      "suite": 6312,
      "supre": 6313,
      "sustain": 6314,
      "Howdy": 6315,
      "user": 6316,
      "users": 6317,
      "Youth": 6318,
      "timer": 6319,
      "tiles": 6320,
      "holes": 6321,
      "mp3": 6322,
      "agger": 6323,
      "agrees": 6324,
      "agging": 6325,
      "feature": 6326,
      "ferences": 6327,
      "lock": 6328,
      "ural": 6329,
      "inding": 6330,
      "shoot": 6331,
      "shining": 6332,
      "seeking": 6333,
      "Head": 6334,
      "Hebes": 6335,
      "mort": 6336,
      "upon": 6337,
      "update": 6338,
      "tee": 6339,
      "teeth": 6340,
      "donations": 6341,
      "delighted": 6342,
      "Canadian": 6343,
      "exit": 6344,
      "expor": 6345,
      "exotic": 6346,
      "exagger": 6347,
      "promp": 6348,
      "entrepre": 6349,
      "illips": 6350,
      "unless": 6351,
      "unhealthy": 6352,
      "unbelievable": 6353,
      "resto": 6354,
      "resort": 6355,
      "resses": 6356,
      "aficion": 6357,
      "comedies": 6358,
      "ulpt": 6359,
      "cony": 6360,
      "concent": 6361,
      "convey": 6362,
      "quiz": 6363,
      "compact": 6364,
      "compatible": 6365,
      "romantic": 6366,
      "jog": 6367,
      "jored": 6368,
      "john": 6369,
      "ils": 6370,
      "ilad": 6371,
      "ilton": 6372,
      "Export": 6373,
      "cused": 6374,
      "ending": 6375,
      "cheque": 6376,
      "cheapest": 6377,
      "cker": 6378,
      "partner": 6379,
      "Nope": 6380,
      "Nobody": 6381,
      "Noirin": 6382,
      "workforce": 6383,
      "tools": 6384,
      "spir": 6385,
      "spite": 6386,
      "redu": 6387,
      "bush": 6388,
      "item": 6389,
      "buff": 6390,
      "buzz": 6391,
      "maths": 6392,
      "majored": 6393,
      "nightmare": 6394,
      "tram": 6395,
      "comment": 6396,
      "couver": 6397,
      "bored": 6398,
      "bomb": 6399,
      "bosses": 6400,
      "Chicken": 6401,
      "Church": 6402,
      "shoulder": 6403,
      "makeup": 6404,
      "forest": 6405,
      "isty": 6406,
      "preference": 6407,
      "pregn": 6408,
      "actual": 6409,
      "sauce": 6410,
      "grate": 6411,
      "grace": 6412,
      "dude": 6413,
      "Therefore": 6414,
      "mbly": 6415,
      "wellery": 6416,
      "forever": 6417,
      "Joseph": 6418,
      "marked": 6419,
      "brake": 6420,
      "ools": 6421,
      "airplane": 6422,
      "tenant": 6423,
      "downstairs": 6424,
      "planes": 6425,
      "bookcase": 6426,
      "sheep": 6427,
      "guided": 6428,
      "shopped": 6429,
      "impossible": 6430,
      "mium": 6431,
      "pens": 6432,
      "blank": 6433,
      "blown": 6434,
      "plays": 6435,
      "igned": 6436,
      "asks": 6437,
      "weren": 6438,
      "Anthony": 6439,
      "showroom": 6440,
      "renting": 6441,
      "rental": 6442,
      "Enjoy": 6443,
      "sizes": 6444,
      "sized": 6445,
      "corpor": 6446,
      "lighting": 6447,
      "Bean": 6448,
      "Beeth": 6449,
      "housework": 6450,
      "answered": 6451,
      "venir": 6452,
      "obic": 6453,
      "labe": 6454,
      "laun": 6455,
      "lawn": 6456,
      "fiction": 6457,
      "papar": 6458,
      "hearing": 6459,
      "disco": 6460,
      "disast": 6461,
      "discovered": 6462,
      "disconnect": 6463,
      "disgust": 6464,
      "pted": 6465,
      "heads": 6466,
      "retreat": 6467,
      "handling": 6468,
      "vised": 6469,
      "oldest": 6470,
      "famished": 6471,
      "portable": 6472,
      "drug": 6473,
      "drama": 6474,
      "phon": 6475,
      "studio": 6476,
      "placement": 6477,
      "differ": 6478,
      "rum": 6479,
      "ruined": 6480,
      "Reyno": 6481,
      "flag": 6482,
      "Frans": 6483,
      "surf": 6484,
      "surger": 6485,
      "produc": 6486,
      "produces": 6487,
      "broth": 6488,
      "broadband": 6489,
      "decent": 6490,
      "Looking": 6491,
      "efforts": 6492,
      "century": 6493,
      "thoughts": 6494,
      "careless": 6495,
      "vacate": 6496,
      "Inc": 6497,
      "axies": 6498,
      "matters": 6499,
      "shake": 6500,
      "drifting": 6501,
      "freezer": 6502,
      "parlor": 6503,
      "Steph": 6504,
      "sends": 6505,
      "Lilian": 6506,
      "fastest": 6507,
      "muscles": 6508,
      "jewel": 6509,
      "jewellery": 6510,
      "lively": 6511,
      "Stay": 6512,
      "Stars": 6513,
      "Stupid": 6514,
      "appointments": 6515,
      "cession": 6516,
      "wardess": 6517,
      "auc": 6518,
      "auction": 6519,
      "lifelong": 6520,
      "bringing": 6521,
      "regulations": 6522,
      "listing": 6523,
      "attach": 6524,
      "attitude": 6525,
      "Although": 6526,
      "Alison": 6527,
      "beds": 6528,
      "curred": 6529,
      "childhood": 6530,
      "restaurants": 6531,
      "Forbidden": 6532,
      "babies": 6533,
      "differently": 6534,
      "scre": 6535,
      "scrat": 6536,
      "sculpt": 6537,
      "signs": 6538,
      "Everybody": 6539,
      "thesis": 6540,
      "Doesn": 6541,
      "Gosh": 6542,
      "Marsha": 6543,
      "Margaret": 6544,
      "Stevens": 6545,
      "graduating": 6546,
      "209": 6547,
      "purple": 6548,
      "smoked": 6549,
      "azzi": 6550,
      "freight": 6551,
      "passion": 6552,
      "holder": 6553,
      "ultural": 6554,
      "cleaned": 6555,
      "schedules": 6556,
      "Roger": 6557,
      "awake": 6558,
      "awesome": 6559,
      "sweat": 6560,
      "sugar": 6561,
      "porcel": 6562,
      "symbo": 6563,
      "walks": 6564,
      "suburb": 6565,
      "whenever": 6566,
      "relatives": 6567,
      "Lean": 6568,
      "Leave": 6569,
      "Maddie": 6570,
      "colorful": 6571,
      "Hotels": 6572,
      "employment": 6573,
      "costume": 6574,
      "landsca": 6575,
      "ception": 6576,
      "ringing": 6577,
      "Firstly": 6578,
      "lenses": 6579,
      "beginner": 6580,
      "beginners": 6581,
      "Securities": 6582,
      "Seymour": 6583,
      "crack": 6584,
      "crashed": 6585,
      "motiv": 6586,
      "engineering": 6587,
      "engagement": 6588,
      "Mech": 6589,
      "southern": 6590,
      "souvenir": 6591,
      "Logo": 6592,
      "attendance": 6593,
      "Parsons": 6594,
      "climate": 6595,
      "123": 6596,
      "Peace": 6597,
      "ictions": 6598,
      "couples": 6599,
      "roduction": 6600,
      "evil": 6601,
      "evidence": 6602,
      "placing": 6603,
      "affairs": 6604,
      "Cheques": 6605,
      "basic": 6606,
      "basically": 6607,
      "horses": 6608,
      "introduction": 6609,
      "Trans": 6610,
      "photocopier": 6611,
      "floors": 6612,
      "USA": 6613,
      "cassette": 6614,
      "performances": 6615,
      "assistance": 6616,
      "investig": 6617,
      "benefic": 6618,
      "dete": 6619,
      "midnight": 6620,
      "polish": 6621,
      "2001": 6622,
      "2004": 6623,
      "Gee": 6624,
      "eyelas": 6625,
      "faxes": 6626,
      "generally": 6627,
      "seventh": 6628,
      "brands": 6629,
      "Robinson": 6630,
      "grap": 6631,
      "riding": 6632,
      "ridiculous": 6633,
      "Boy": 6634,
      "Boston": 6635,
      "Hope": 6636,
      "voted": 6637,
      "neighbour": 6638,
      "windows": 6639,
      "Admission": 6640,
      "Adminis": 6641,
      "biking": 6642,
      "honestly": 6643,
      "tempting": 6644,
      "complaining": 6645,
      "killed": 6646,
      "rushing": 6647,
      "approxim": 6648,
      "ruitment": 6649,
      "slim": 6650,
      "slippery": 6651,
      "appreciated": 6652,
      "Benson": 6653,
      "rolls": 6654,
      "Grandpa": 6655,
      "16th": 6656,
      "Class": 6657,
      "Caro": 6658,
      "Resume": 6659,
      "Forest": 6660,
      "Foster": 6661,
      "Police": 6662,
      "balcony": 6663,
      "confirmation": 6664,
      "opinions": 6665,
      "Division": 6666,
      "official": 6667,
      "prints": 6668,
      "families": 6669,
      "quietly": 6670,
      "dancer": 6671,
      "phies": 6672,
      "realized": 6673,
      "Angel": 6674,
      "Angela": 6675,
      "History": 6676,
      "Suzhou": 6677,
      "dryer": 6678,
      "fellow": 6679,
      "ocate": 6680,
      "occurred": 6681,
      "heavily": 6682,
      "structure": 6683,
      "loaded": 6684,
      "Travell": 6685,
      "candle": 6686,
      "candies": 6687,
      "scored": 6688,
      "society": 6689,
      "establishment": 6690,
      "Roberts": 6691,
      "European": 6692,
      "Finance": 6693,
      "Financial": 6694,
      "finger": 6695,
      "fingers": 6696,
      "pattern": 6697,
      "patience": 6698,
      "powerful": 6699,
      "repairing": 6700,
      "weakness": 6701,
      "storybooks": 6702,
      "Housekeeping": 6703,
      "crossword": 6704,
      "ivid": 6705,
      "reviewed": 6706,
      "preparation": 6707,
      "supporting": 6708,
      "appeal": 6709,
      "apore": 6710,
      "eggplants": 6711,
      "honors": 6712,
      "activate": 6713,
      "motorbike": 6714,
      "kilos": 6715,
      "desserts": 6716,
      "Few": 6717,
      "fools": 6718,
      "unique": 6719,
      "polluted": 6720,
      "Ernie": 6721,
      "brilliant": 6722,
      "chatting": 6723,
      "garage": 6724,
      "warehouse": 6725,
      "tracks": 6726,
      "battle": 6727,
      "knocked": 6728,
      "pizzas": 6729,
      "umbrella": 6730,
      "vases": 6731,
      "Joanne": 6732,
      "Joanna": 6733,
      "automobile": 6734,
      "jumping": 6735,
      "Books": 6736,
      "Evening": 6737,
      "McDonald": 6738,
      "galaxies": 6739,
      "risk": 6740,
      "attraction": 6741,
      "spectac": 6742,
      "appliances": 6743,
      "scenic": 6744,
      "criteria": 6745,
      "snowing": 6746,
      "tulips": 6747,
      "tailor": 6748,
      "remembe": 6749,
      "renewable": 6750,
      "valuables": 6751,
      "Elvis": 6752,
      "Phillips": 6753,
      "zerland": 6754,
      "wheels": 6755,
      "volume": 6756,
      "strength": 6757,
      "Norm": 6758,
      "Oscars": 6759,
      "Termin": 6760,
      "beside": 6761,
      "naps": 6762,
      "initial": 6763,
      "strike": 6764,
      "Ready": 6765,
      "Association": 6766,
      "sympathy": 6767,
      "candidates": 6768,
      "Driving": 6769,
      "XXXX": 6770,
      "recorder": 6771,
      "recruitment": 6772,
      "memorize": 6773,
      "golden": 6774,
      "conclus": 6775,
      "geography": 6776,
      "manufacturing": 6777,
      "frustrating": 6778,
      "additional": 6779,
      "nutritious": 6780,
      "conducting": 6781,
      "Childs": 6782,
      "Nanjing": 6783,
      "Ransom": 6784,
      "Scotland": 6785,
      "Textile": 6786,
      "Tiananmen": 6787,
      "Workshop": 6788,
      "audience": 6789,
      "sweethe": 6790,
      "retirement": 6791,
      "session": 6792,
      "installed": 6793,
      "philosophy": 6794,
      "philosophies": 6795,
      "Disneyworld": 6796,
      "Disneyland": 6797,
      "CPR": 6798,
      "Crane": 6799,
      "Gotcha": 6800,
      "Hanson": 6801,
      "Kristy": 6802,
      "Limited": 6803,
      "Publ": 6804,
      "Singapore": 6805,
      "UFO": 6806,
      "Yoga": 6807,
      "empty": 6808,
      "massive": 6809,
      "ninety": 6810,
      "punishment": 6811,
      "source": 6812,
      "scarf": 6813,
      "analy": 6814,
      "wildlife": 6815,
      "demanding": 6816,
      "folk": 6817,
      "appetite": 6818,
      "civil": 6819,
      "breasted": 6820,
      "Computer": 6821,
      "puppy": 6822,
      "Romans": 6823,
      "crafts": 6824,
      "Hollywood": 6825,
      "competitors": 6826,
      "cabinet": 6827,
      "Isabelle": 6828,
      "Dutch": 6829,
      "Dunlin": 6830,
      "Easy": 6831,
      "Freeze": 6832,
      "Korea": 6833,
      "Louise": 6834,
      "Little": 6835,
      "Language": 6836,
      "Tonight": 6837,
      "Vancouver": 6838,
      "Victor": 6839,
      "Writing": 6840,
      "baker": 6841,
      "dreadful": 6842,
      "frame": 6843,
      "frightened": 6844,
      "lantern": 6845,
      "behavior": 6846,
      "administrative": 6847,
      "cancelled": 6848,
      "obviously": 6849,
      "flavors": 6850,
      "psychological": 6851,
      "curtains": 6852,
      "challenging": 6853,
      "blockbust": 6854,
      "circulation": 6855,
      "scratching": 6856,
      "championship": 6857,
      "embarrassing": 6858,
      "fascinating": 6859,
      "Assistant": 6860,
      "Break": 6861,
      "Banking": 6862,
      "Centrum": 6863,
      "Capital": 6864,
      "Gordon": 6865,
      "Garage": 6866,
      "Larry": 6867,
      "Otherwise": 6868,
      "Promise": 6869,
      "Vicky": 6870,
      "Women": 6871,
      "harmful": 6872,
      "resolution": 6873,
      "attorney": 6874,
      "seldom": 6875,
      "assembly": 6876,
      "agriculture": 6877,
      "features": 6878,
      "independent": 6879,
      "procedure": 6880,
      "perseverance": 6881,
      "consignment": 6882,
      "coupons": 6883,
      "brushes": 6884,
      "cycling": 6885,
      "brochures": 6886,
      "humorous": 6887,
      "accumul": 6888,
      "Director": 6889,
      "Connell": 6890,
      "continuous": 6891,
      "Auto": 6892,
      "Another": 6893,
      "Africa": 6894,
      "Brazil": 6895,
      "CIF": 6896,
      "California": 6897,
      "Drop": 6898,
      "Fortunately": 6899,
      "Jordan": 6900,
      "Murphy": 6901,
      "Ottaw": 6902,
      "Pizza": 6903,
      "Scholar": 6904,
      "Switzerland": 6905,
      "aerobic": 6906,
      "brave": 6907,
      "centigrade": 6908,
      "museums": 6909,
      "powder": 6910,
      "split": 6911,
      "slogans": 6912,
      "tattoo": 6913,
      "thieves": 6914,
      "inferior": 6915,
      "towels": 6916,
      "chubby": 6917,
      "exporters": 6918,
      "exaggerating": 6919,
      "entreprene": 6920,
      "aficionado": 6921,
      "concentrate": 6922,
      "pregnant": 6923,
      "graceful": 6924,
      "Beethoven": 6925,
      "paparazzi": 6926,
      "Reynolds": 6927,
      "sculpture": 6928,
      "porcelain": 6929,
      "landscape": 6930,
      "eyelashes": 6931,
      "approximately": 6932,
      "Traveller": 6933,
      "remembered": 6934,
      "Ottawa": 6935,
      "130": 6936,
      "180": 6937,
      "210": 6938,
      "250": 6939,
      "3rd": 6940,
      "5000": 6941,
      "513": 6942,
      "78": 6943,
      "9th": 6944,
      "920": 6945,
      "AC": 6946,
      "Ap": 6947,
      "Alike": 6948,
      "Ask": 6949,
      "Aunt": 6950,
      "Awards": 6951,
      "Asian": 6952,
      "Bi": 6953,
      "Bor": 6954,
      "Ball": 6955,
      "Bel": 6956,
      "Bite": 6957,
      "Best": 6958,
      "Bush": 6959,
      "CV": 6960,
      "Ca": 6961,
      "Cat": 6962,
      "Cany": 6963,
      "Case": 6964,
      "Clo": 6965,
      "Cel": 6966,
      "Carri": 6967,
      "Dea": 6968,
      "Die": 6969,
      "Deve": 6970,
      "Dist": 6971,
      "Due": 6972,
      "Daw": 6973,
      "Em": 6974,
      "Ear": 6975,
      "Edu": 6976,
      "Emb": 6977,
      "Emm": 6978,
      "Ella": 6979,
      "Fit": 6980,
      "Far": 6981,
      "Fro": 6982,
      "Food": 6983,
      "Flo": 6984,
      "Fif": 6985,
      "Father": 6986,
      "Foot": 6987,
      "Flower": 6988,
      "Gen": 6989,
      "Gross": 6990,
      "Goofed": 6991,
      "HR": 6992,
      "HS": 6993,
      "Hoo": 6994,
      "Hal": 6995,
      "Hous": 6996,
      "Having": 6997,
      "Hangzhou": 6998,
      "II": 6999,
      "IV": 7000,
      "Ir": 7001,
      "Jin": 7002,
      "KL": 7003,
      "Kit": 7004,
      "Kids": 7005,
      "Kobe": 7006,
      "Lat": 7007,
      "Lic": 7008,
      "Lex": 7009,
      "LCD": 7010,
      "Min": 7011,
      "Mam": 7012,
      "Max": 7013,
      "Mason": 7014,
      "Mountaineering": 7015,
      "NO": 7016,
      "NT": 7017,
      "Nur": 7018,
      "Nile": 7019,
      "OB": 7020,
      "Pl": 7021,
      "Pan": 7022,
      "Pit": 7023,
      "Pla": 7024,
      "Power": 7025,
      "Peng": 7026,
      "Production": 7027,
      "PHS": 7028,
      "Que": 7029,
      "Ray": 7030,
      "Rice": 7031,
      "Rent": 7032,
      "Rather": 7033,
      "Sw": 7034,
      "Set": 7035,
      "Sal": 7036,
      "Swi": 7037,
      "Sain": 7038,
      "Seve": 7039,
      "Side": 7040,
      "Saving": 7041,
      "Slow": 7042,
      "Silk": 7043,
      "Sony": 7044,
      "Still": 7045,
      "Sweet": 7046,
      "TS": 7047,
      "Tv": 7048,
      "Tour": 7049,
      "Tea": 7050,
      "Tsing": 7051,
      "Une": 7052,
      "Ugh": 7053,
      "Unt": 7054,
      "Vis": 7055,
      "Ven": 7056,
      "Vers": 7057,
      "Viv": 7058,
      "Vien": 7059,
      "Valley": 7060,
      "War": 7061,
      "Way": 7062,
      "Wass": 7063,
      "Xu": 7064,
      "Ye": 7065,
      "Yup": 7066,
      "Yellow": 7067,
      "alike": 7068,
      "alive": 7069,
      "atory": 7070,
      "bou": 7071,
      "bac": 7072,
      "bree": 7073,
      "bson": 7074,
      "batch": 7075,
      "bian": 7076,
      "bends": 7077,
      "bio": 7078,
      "bins": 7079,
      "bond": 7080,
      "baked": 7081,
      "coo": 7082,
      "cong": 7083,
      "cure": 7084,
      "crun": 7085,
      "culations": 7086,
      "ckey": 7087,
      "dan": 7088,
      "dha": 7089,
      "dive": 7090,
      "dried": 7091,
      "dirt": 7092,
      "dents": 7093,
      "ditch": 7094,
      "ems": 7095,
      "equi": 7096,
      "eigh": 7097,
      "euro": 7098,
      "eks": 7099,
      "evalu": 7100,
      "fet": 7101,
      "fir": 7102,
      "ffin": 7103,
      "fru": 7104,
      "fence": 7105,
      "farming": 7106,
      "gment": 7107,
      "gang": 7108,
      "gments": 7109,
      "gross": 7110,
      "gins": 7111,
      "grew": 7112,
      "gory": 7113,
      "goofed": 7114,
      "galler": 7115,
      "gifts": 7116,
      "han": 7117,
      "ibly": 7118,
      "jail": 7119,
      "jung": 7120,
      "junk": 7121,
      "kin": 7122,
      "kic": 7123,
      "kers": 7124,
      "kok": 7125,
      "kung": 7126,
      "knee": 7127,
      "link": 7128,
      "lers": 7129,
      "lph": 7130,
      "loun": 7131,
      "mut": 7132,
      "mac": 7133,
      "mistic": 7134,
      "mountaineering": 7135,
      "nif": 7136,
      "native": 7137,
      "oma": 7138,
      "pha": 7139,
      "pand": 7140,
      "pal": 7141,
      "pam": 7142,
      "pment": 7143,
      "pra": 7144,
      "pong": 7145,
      "pul": 7146,
      "pure": 7147,
      "pend": 7148,
      "pite": 7149,
      "pread": 7150,
      "pting": 7151,
      "push": 7152,
      "pier": 7153,
      "pile": 7154,
      "pushed": 7155,
      "rs": 7156,
      "rink": 7157,
      "rick": 7158,
      "rides": 7159,
      "shave": 7160,
      "sple": 7161,
      "sink": 7162,
      "sav": 7163,
      "shad": 7164,
      "sist": 7165,
      "sby": 7166,
      "slate": 7167,
      "sert": 7168,
      "squi": 7169,
      "snee": 7170,
      "tin": 7171,
      "tack": 7172,
      "tact": 7173,
      "tub": 7174,
      "ua": 7175,
      "ued": 7176,
      "uet": 7177,
      "uri": 7178,
      "uel": 7179,
      "umber": 7180,
      "uished": 7181,
      "uries": 7182,
      "umes": 7183,
      "vic": 7184,
      "vated": 7185,
      "wis": 7186,
      "wid": 7187,
      "wars": 7188,
      "wides": 7189,
      "wings": 7190,
      "xer": 7191,
      "xpect": 7192,
      "ya": 7193,
      "yard": 7194,
      "zha": 7195,
      "zart": 7196,
      "oubling": 7197,
      "tha": 7198,
      "thand": 7199,
      "thod": 7200,
      "threw": 7201,
      "thumb": 7202,
      "inc": 7203,
      "inn": 7204,
      "inno": 7205,
      "inven": 7206,
      "incoming": 7207,
      "inum": 7208,
      "infect": 7209,
      "inued": 7210,
      "rea": 7211,
      "repe": 7212,
      "reck": 7213,
      "relate": 7214,
      "repa": 7215,
      "relieve": 7216,
      "reality": 7217,
      "refresh": 7218,
      "recovered": 7219,
      "reunion": 7220,
      "anket": 7221,
      "anuts": 7222,
      "toma": 7223,
      "toler": 7224,
      "attire": 7225,
      "erpr": 7226,
      "erial": 7227,
      "thew": 7228,
      "theft": 7229,
      "theaters": 7230,
      "theory": 7231,
      "ona": 7232,
      "oni": 7233,
      "onion": 7234,
      "onde": 7235,
      "onica": 7236,
      "onents": 7237,
      "ingly": 7238,
      "inguished": 7239,
      "orche": 7240,
      "ordin": 7241,
      "mel": 7242,
      "method": 7243,
      "vere": 7244,
      "vember": 7245,
      "veled": 7246,
      "vegg": 7247,
      "semi": 7248,
      "seals": 7249,
      "sevent": 7250,
      "severe": 7251,
      "itar": 7252,
      "itary": 7253,
      "itations": 7254,
      "stad": 7255,
      "stink": 7256,
      "stable": 7257,
      "stage": 7258,
      "stim": 7259,
      "arn": 7260,
      "arms": 7261,
      "arily": 7262,
      "arial": 7263,
      "artific": 7264,
      "arify": 7265,
      "aroma": 7266,
      "lean": 7267,
      "leaking": 7268,
      "hall": 7269,
      "hache": 7270,
      "halog": 7271,
      "encour": 7272,
      "enroll": 7273,
      "entered": 7274,
      "enrich": 7275,
      "enix": 7276,
      "encourage": 7277,
      "envy": 7278,
      "encies": 7279,
      "oomy": 7280,
      "hattan": 7281,
      "former": 7282,
      "forbidden": 7283,
      "andler": 7284,
      "icip": 7285,
      "icts": 7286,
      "icals": 7287,
      "iches": 7288,
      "icapped": 7289,
      "bean": 7290,
      "behalf": 7291,
      "below": 7292,
      "beaches": 7293,
      "lied": 7294,
      "dot": 7295,
      "editor": 7296,
      "asing": 7297,
      "assu": 7298,
      "assed": 7299,
      "assum": 7300,
      "assets": 7301,
      "asury": 7302,
      "arent": 7303,
      "wei": 7304,
      "weed": 7305,
      "weeding": 7306,
      "weird": 7307,
      "soda": 7308,
      "etics": 7309,
      "allocate": 7310,
      "aly": 7311,
      "goss": 7312,
      "chi": 7313,
      "chy": 7314,
      "chart": 7315,
      "chron": 7316,
      "ida": 7317,
      "core": 7318,
      "copper": 7319,
      "wire": 7320,
      "wiped": 7321,
      "neat": 7322,
      "ades": 7323,
      "admir": 7324,
      "adults": 7325,
      "rope": 7326,
      "rovert": 7327,
      "outlook": 7328,
      "acce": 7329,
      "accord": 7330,
      "absolute": 7331,
      "abilities": 7332,
      "rito": 7333,
      "ripped": 7334,
      "amer": 7335,
      "ambit": 7336,
      "Italy": 7337,
      "ources": 7338,
      "teries": 7339,
      "nowhere": 7340,
      "lying": 7341,
      "plea": 7342,
      "antly": 7343,
      "someplace": 7344,
      "ussels": 7345,
      "nder": 7346,
      "ndid": 7347,
      "Young": 7348,
      "tied": 7349,
      "timid": 7350,
      "tified": 7351,
      "timistic": 7352,
      "pear": 7353,
      "peach": 7354,
      "pepper": 7355,
      "peanuts": 7356,
      "inkles": 7357,
      "hop": 7358,
      "hole": 7359,
      "hockey": 7360,
      "moist": 7361,
      "mosqui": 7362,
      "mption": 7363,
      "ased": 7364,
      "worst": 7365,
      "ceil": 7366,
      "feast": 7367,
      "loyal": 7368,
      "lopment": 7369,
      "urt": 7370,
      "urine": 7371,
      "indication": 7372,
      "indicate": 7373,
      "individ": 7374,
      "washer": 7375,
      "shown": 7376,
      "shang": 7377,
      "Doll": 7378,
      "timetable": 7379,
      "raising": 7380,
      "raised": 7381,
      "morial": 7382,
      "upgrade": 7383,
      "Though": 7384,
      "Thirty": 7385,
      "tem": 7386,
      "notify": 7387,
      "thered": 7388,
      "demon": 7389,
      "departs": 7390,
      "exist": 7391,
      "exceed": 7392,
      "prob": 7393,
      "proceed": 7394,
      "inevit": 7395,
      "nover": 7396,
      "plum": 7397,
      "ented": 7398,
      "entists": 7399,
      "unable": 7400,
      "unication": 7401,
      "uncomfortable": 7402,
      "unavoid": 7403,
      "unbear": 7404,
      "unacceptable": 7405,
      "pers": 7406,
      "ctic": 7407,
      "ards": 7408,
      "resche": 7409,
      "reshed": 7410,
      "afia": 7411,
      "ainan": 7412,
      "ula": 7413,
      "ulates": 7414,
      "conver": 7415,
      "contr": 7416,
      "confl": 7417,
      "consum": 7418,
      "consist": 7419,
      "compo": 7420,
      "compens": 7421,
      "components": 7422,
      "bleeding": 7423,
      "ilty": 7424,
      "Exact": 7425,
      "Exchange": 7426,
      "Excel": 7427,
      "elphi": 7428,
      "chew": 7429,
      "cheon": 7430,
      "cheeks": 7431,
      "pover": 7432,
      "poster": 7433,
      "poems": 7434,
      "ckily": 7435,
      "ckham": 7436,
      "November": 7437,
      "worker": 7438,
      "mug": 7439,
      "muffin": 7440,
      "spelt": 7441,
      "igno": 7442,
      "iew": 7443,
      "span": 7444,
      "spital": 7445,
      "spaces": 7446,
      "buried": 7447,
      "max": 7448,
      "weeping": 7449,
      "manner": 7450,
      "manicure": 7451,
      "managers": 7452,
      "truck": 7453,
      "troubling": 7454,
      "tells": 7455,
      "teller": 7456,
      "commemor": 7457,
      "couch": 7458,
      "event": 7459,
      "Chandler": 7460,
      "overall": 7461,
      "overflow": 7462,
      "overcast": 7463,
      "owns": 7464,
      "owner": 7465,
      "avy": 7466,
      "callous": 7467,
      "resting": 7468,
      "folder": 7469,
      "aky": 7470,
      "akers": 7471,
      "ketball": 7472,
      "gloomy": 7473,
      "prev": 7474,
      "presence": 7475,
      "preferences": 7476,
      "yearly": 7477,
      "typho": 7478,
      "typed": 7479,
      "woken": 7480,
      "sailing": 7481,
      "grind": 7482,
      "clue": 7483,
      "clarify": 7484,
      "pride": 7485,
      "prison": 7486,
      "wherever": 7487,
      "stocking": 7488,
      "stomac": 7489,
      "mson": 7490,
      "kindness": 7491,
      "acelet": 7492,
      "greater": 7493,
      "greatly": 7494,
      "finds": 7495,
      "torch": 7496,
      "Joy": 7497,
      "traveled": 7498,
      "letting": 7499,
      "martial": 7500,
      "margins": 7501,
      "happiness": 7502,
      "carried": 7503,
      "carries": 7504,
      "bruary": 7505,
      "bracelet": 7506,
      "Col": 7507,
      "Color": 7508,
      "Cosby": 7509,
      "sitcom": 7510,
      "backs": 7511,
      "backward": 7512,
      "backpack": 7513,
      "airsick": 7514,
      "wrinkles": 7515,
      "finite": 7516,
      "minster": 7517,
      "merous": 7518,
      "merger": 7519,
      "Andrea": 7520,
      "bookshop": 7521,
      "udes": 7522,
      "shell": 7523,
      "guitar": 7524,
      "guilty": 7525,
      "homesick": 7526,
      "homeless": 7527,
      "cape": 7528,
      "causing": 7529,
      "whoa": 7530,
      "ressing": 7531,
      "dia": 7532,
      "dip": 7533,
      "div": 7534,
      "divers": 7535,
      "digest": 7536,
      "division": 7537,
      "mild": 7538,
      "mitory": 7539,
      "clogging": 7540,
      "pencil": 7541,
      "blush": 7542,
      "blanket": 7543,
      "blonde": 7544,
      "aska": 7545,
      "Anita": 7546,
      "silent": 7547,
      "evenings": 7548,
      "corn": 7549,
      "Beth": 7550,
      "Being": 7551,
      "household": 7552,
      "housekeeping": 7553,
      "mustn": 7554,
      "minded": 7555,
      "ansion": 7556,
      "venues": 7557,
      "obje": 7558,
      "achie": 7559,
      "payable": 7560,
      "tical": 7561,
      "disk": 7562,
      "disput": 7563,
      "district": 7564,
      "disagrees": 7565,
      "handset": 7566,
      "handled": 7567,
      "handwriting": 7568,
      "handicapped": 7569,
      "waited": 7570,
      "earrings": 7571,
      "earliest": 7572,
      "watcher": 7573,
      "numerous": 7574,
      "phlets": 7575,
      "classified": 7576,
      "Notice": 7577,
      "enjoys": 7578,
      "clever": 7579,
      "cleared": 7580,
      "rumor": 7581,
      "Remit": 7582,
      "biting": 7583,
      "fling": 7584,
      "flick": 7585,
      "flush": 7586,
      "Tommy": 7587,
      "producer": 7588,
      "Allison": 7589,
      "effort": 7590,
      "centuries": 7591,
      "Whole": 7592,
      "Neil": 7593,
      "Incorpor": 7594,
      "Insert": 7595,
      "Modern": 7596,
      "Mozart": 7597,
      "dyed": 7598,
      "desc": 7599,
      "desire": 7600,
      "deserved": 7601,
      "designing": 7602,
      "axing": 7603,
      "shaking": 7604,
      "drigue": 7605,
      "freeway": 7606,
      "runny": 7607,
      "skip": 7608,
      "favorable": 7609,
      "ashtray": 7610,
      "persons": 7611,
      "importance": 7612,
      "Willie": 7613,
      "singsong": 7614,
      "collection": 7615,
      "Liz": 7616,
      "Life": 7617,
      "Liang": 7618,
      "Liberty": 7619,
      "mush": 7620,
      "lived": 7621,
      "ballot": 7622,
      "Stat": 7623,
      "Station": 7624,
      "Stacy": 7625,
      "tourism": 7626,
      "differences": 7627,
      "membership": 7628,
      "invitations": 7629,
      "steam": 7630,
      "stepped": 7631,
      "steering": 7632,
      "stewardess": 7633,
      "colour": 7634,
      "Bring": 7635,
      "Brussels": 7636,
      "ancing": 7637,
      "suites": 7638,
      "Alps": 7639,
      "Alaska": 7640,
      "teachers": 7641,
      "parent": 7642,
      "coffeehouse": 7643,
      "founding": 7644,
      "tonic": 7645,
      "curfew": 7646,
      "facing": 7647,
      "faces": 7648,
      "factor": 7649,
      "smart": 7650,
      "smiling": 7651,
      "alia": 7652,
      "alized": 7653,
      "funeral": 7654,
      "gesture": 7655,
      "10th": 7656,
      "reetings": 7657,
      "areness": 7658,
      "Comprehensive": 7659,
      "feelings": 7660,
      "athle": 7661,
      "athlet": 7662,
      "naments": 7663,
      "watering": 7664,
      "contents": 7665,
      "bands": 7666,
      "maintain": 7667,
      "presidential": 7668,
      "lingerie": 7669,
      "Marquet": 7670,
      "Martha": 7671,
      "filing": 7672,
      "ysis": 7673,
      "seemingly": 7674,
      "graduates": 7675,
      "scheme": 7676,
      "salt": 7677,
      "salty": 7678,
      "chop": 7679,
      "freaking": 7680,
      "passive": 7681,
      "drawn": 7682,
      "painted": 7683,
      "salesperson": 7684,
      "gged": 7685,
      "sixth": 7686,
      "cript": 7687,
      "pairs": 7688,
      "expectancy": 7689,
      "Rock": 7690,
      "Rocky": 7691,
      "Royal": 7692,
      "Rodrigue": 7693,
      "sweating": 7694,
      "Luckily": 7695,
      "confess": 7696,
      "confusing": 7697,
      "Jennif": 7698,
      "arriors": 7699,
      "returned": 7700,
      "Lei": 7701,
      "Madrid": 7702,
      "charity": 7703,
      "charges": 7704,
      "hotels": 7705,
      "Waitress": 7706,
      "medical": 7707,
      "medication": 7708,
      "costumes": 7709,
      "landlor": 7710,
      "celona": 7711,
      "certified": 7712,
      "ators": 7713,
      "packaging": 7714,
      "ringer": 7715,
      "doors": 7716,
      "rained": 7717,
      "vom": 7718,
      "extent": 7719,
      "freshness": 7720,
      "Seinfe": 7721,
      "Secret": 7722,
      "forwards": 7723,
      "movements": 7724,
      "location": 7725,
      "brothers": 7726,
      "Interior": 7727,
      "facts": 7728,
      "Danny": 7729,
      "Thomp": 7730,
      "Thomson": 7731,
      "stationary": 7732,
      "Memorial": 7733,
      "sunday": 7734,
      "sunscreen": 7735,
      "magic": 7736,
      "investor": 7737,
      "cliff": 7738,
      "Peckham": 7739,
      "daughters": 7740,
      "wholesale": 7741,
      "Morris": 7742,
      "sensitive": 7743,
      "allowance": 7744,
      "depressing": 7745,
      "counterpart": 7746,
      "Grace": 7747,
      "bargain": 7748,
      "grandson": 7749,
      "grandchild": 7750,
      "grandfather": 7751,
      "Atl": 7752,
      "Attit": 7753,
      "Guide": 7754,
      "eviction": 7755,
      "straightforward": 7756,
      "secretarial": 7757,
      "Chez": 7758,
      "Cheese": 7759,
      "burgl": 7760,
      "burgers": 7761,
      "burrito": 7762,
      "figuring": 7763,
      "twist": 7764,
      "transcript": 7765,
      "Acade": 7766,
      "deposits": 7767,
      "Mickey": 7768,
      "insert": 7769,
      "practiced": 7770,
      "True": 7771,
      "Trade": 7772,
      "explo": 7773,
      "photograph": 7774,
      "cashed": 7775,
      "richest": 7776,
      "applications": 7777,
      "investing": 7778,
      "detailed": 7779,
      "dropping": 7780,
      "juicy": 7781,
      "midt": 7782,
      "quarre": 7783,
      "polite": 7784,
      "closely": 7785,
      "19th": 7786,
      "1980": 7787,
      "1963": 7788,
      "Manhattan": 7789,
      "Blake": 7790,
      "Sunshine": 7791,
      "nicer": 7792,
      "promoting": 7793,
      "blackout": 7794,
      "grapes": 7795,
      "jams": 7796,
      "spotless": 7797,
      "blueberry": 7798,
      "borrowed": 7799,
      "Hospital": 7800,
      "Shar": 7801,
      "educated": 7802,
      "compete": 7803,
      "growing": 7804,
      "gymn": 7805,
      "satisfy": 7806,
      "Advice": 7807,
      "bathtub": 7808,
      "econom": 7809,
      "economics": 7810,
      "falls": 7811,
      "optimistic": 7812,
      "winning": 7813,
      "tempt": 7814,
      "command": 7815,
      "commut": 7816,
      "diets": 7817,
      "dieting": 7818,
      "stronger": 7819,
      "strongly": 7820,
      "improvements": 7821,
      "developments": 7822,
      "Tibet": 7823,
      "dao": 7824,
      "ugly": 7825,
      "leaded": 7826,
      "leaders": 7827,
      "distinguished": 7828,
      "slips": 7829,
      "scientists": 7830,
      "Mostly": 7831,
      "flattered": 7832,
      "160": 7833,
      "Cloudy": 7834,
      "Resources": 7835,
      "unexpect": 7836,
      "bloody": 7837,
      "includes": 7838,
      "Barcelona": 7839,
      "Ricky": 7840,
      "Word": 7841,
      "balanced": 7842,
      "daddy": 7843,
      "itching": 7844,
      "writer": 7845,
      "treated": 7846,
      "teenth": 7847,
      "officers": 7848,
      "Godfather": 7849,
      "policeman": 7850,
      "exhibitions": 7851,
      "256": 7852,
      "407": 7853,
      "Human": 7854,
      "dances": 7855,
      "squee": 7856,
      "vegetable": 7857,
      "seaside": 7858,
      "lectures": 7859,
      "transferring": 7860,
      "Project": 7861,
      "Program": 7862,
      "drying": 7863,
      "equal": 7864,
      "fellows": 7865,
      "loading": 7866,
      "promising": 7867,
      "profession": 7868,
      "picnicking": 7869,
      "Traffic": 7870,
      "firmly": 7871,
      "exception": 7872,
      "damn": 7873,
      "dishonest": 7874,
      "fighting": 7875,
      "patient": 7876,
      "patties": 7877,
      "patients": 7878,
      "snail": 7879,
      "ounce": 7880,
      "covering": 7881,
      "pulling": 7882,
      "continental": 7883,
      "Art": 7884,
      "Arden": 7885,
      "ivity": 7886,
      "channels": 7887,
      "dumps": 7888,
      "periodicals": 7889,
      "dreams": 7890,
      "gaining": 7891,
      "honored": 7892,
      "statement": 7893,
      "statements": 7894,
      "aboard": 7895,
      "motorcycle": 7896,
      "queer": 7897,
      "kilogram": 7898,
      "Felix": 7899,
      "February": 7900,
      "Personnel": 7901,
      "aoke": 7902,
      "measurements": 7903,
      "sticking": 7904,
      "stamp": 7905,
      "levels": 7906,
      "astered": 7907,
      "combines": 7908,
      "catalog": 7909,
      "catalogues": 7910,
      "Shouldn": 7911,
      "declared": 7912,
      "Bakery": 7913,
      "Indust": 7914,
      "Overseas": 7915,
      "curious": 7916,
      "chatter": 7917,
      "jackets": 7918,
      "ternal": 7919,
      "fluently": 7920,
      "General": 7921,
      "battery": 7922,
      "batteries": 7923,
      "knocking": 7924,
      "negotiate": 7925,
      "festiv": 7926,
      "shipped": 7927,
      "novels": 7928,
      "consumer": 7929,
      "consumption": 7930,
      "species": 7931,
      "tricky": 7932,
      "boats": 7933,
      "Coming": 7934,
      "Comfort": 7935,
      "Commercial": 7936,
      "capable": 7937,
      "capital": 7938,
      "historic": 7939,
      "Montreal": 7940,
      "automat": 7941,
      "automatic": 7942,
      "Certificates": 7943,
      "McNeal": 7944,
      "Schmidt": 7945,
      "tags": 7946,
      "requested": 7947,
      "participants": 7948,
      "instrument": 7949,
      "instruction": 7950,
      "instructor": 7951,
      "instructions": 7952,
      "effectively": 7953,
      "Stone": 7954,
      "creating": 7955,
      "hunter": 7956,
      "tutor": 7957,
      "renewed": 7958,
      "shuttle": 7959,
      "departing": 7960,
      "departure": 7961,
      "valuable": 7962,
      "increases": 7963,
      "Dora": 7964,
      "Eastern": 7965,
      "Kara": 7966,
      "Kenny": 7967,
      "Philad": 7968,
      "Pasadena": 7969,
      "cigarettes": 7970,
      "thorough": 7971,
      "stretched": 7972,
      "commitment": 7973,
      "committed": 7974,
      "committee": 7975,
      "assigned": 7976,
      "breathing": 7977,
      "announces": 7978,
      "originally": 7979,
      "contribute": 7980,
      "21st": 7981,
      "Claim": 7982,
      "Keith": 7983,
      "Mmmm": 7984,
      "Order": 7985,
      "Oscar": 7986,
      "Russian": 7987,
      "calcul": 7988,
      "calculations": 7989,
      "nurses": 7990,
      "punching": 7991,
      "wrapped": 7992,
      "annoy": 7993,
      "professors": 7994,
      "Engineering": 7995,
      "Reader": 7996,
      "frankly": 7997,
      "symptoms": 7998,
      "approaching": 7999,
      "sandwiches": 8000,
      "Awesome": 8001,
      "Drive": 8002,
      "Maggie": 8003,
      "PCC": 8004,
      "Windows": 8005,
      "dormitory": 8006,
      "refreshed": 8007,
      "envelope": 8008,
      "bellboy": 8009,
      "proposed": 8010,
      "concludes": 8011,
      "geology": 8012,
      "quotation": 8013,
      "entirely": 8014,
      "Consulting": 8015,
      "Superbad": 8016,
      "conducted": 8017,
      "MP4": 8018,
      "Matthew": 8019,
      "Middle": 8020,
      "Midwest": 8021,
      "Patrick": 8022,
      "River": 8023,
      "Texas": 8024,
      "Tianjin": 8025,
      "iences": 8026,
      "vitamin": 8027,
      "mechanic": 8028,
      "selecting": 8029,
      "Westminster": 8030,
      "butterflies": 8031,
      "residents": 8032,
      "pumps": 8033,
      "difficulties": 8034,
      "expanding": 8035,
      "characteristics": 8036,
      "CPU": 8037,
      "Craft": 8038,
      "Hamilton": 8039,
      "Hawkins": 8040,
      "Kramer": 8041,
      "Pull": 8042,
      "Teacher": 8043,
      "UFOs": 8044,
      "frozen": 8045,
      "flexible": 8046,
      "humble": 8047,
      "lunar": 8048,
      "luncheon": 8049,
      "scarves": 8050,
      "turnover": 8051,
      "reply": 8052,
      "remains": 8053,
      "analysis": 8054,
      "atician": 8055,
      "admirer": 8056,
      "ironing": 8057,
      "ironed": 8058,
      "suffering": 8059,
      "peaceful": 8060,
      "folks": 8061,
      "appetiz": 8062,
      "civili": 8063,
      "Stephen": 8064,
      "smoothly": 8065,
      "functioning": 8066,
      "functional": 8067,
      "Computers": 8068,
      "puppies": 8069,
      "crisp": 8070,
      "crabs": 8071,
      "inventions": 8072,
      "softball": 8073,
      "bulletin": 8074,
      "Isabel": 8075,
      "Bangkok": 8076,
      "Counter": 8077,
      "Lakeside": 8078,
      "Phoenix": 8079,
      "Southern": 8080,
      "Southeast": 8081,
      "Treasury": 8082,
      "Wonder": 8083,
      "elderly": 8084,
      "failure": 8085,
      "karren": 8086,
      "slightly": 8087,
      "refills": 8088,
      "torian": 8089,
      "keepers": 8090,
      "idioms": 8091,
      "idiomatic": 8092,
      "accommod": 8093,
      "accommodate": 8094,
      "summary": 8095,
      "summers": 8096,
      "platinum": 8097,
      "affects": 8098,
      "Chanel": 8099,
      "Society": 8100,
      "Sociology": 8101,
      "Sophia": 8102,
      "Sophie": 8103,
      "preventatives": 8104,
      "clouds": 8105,
      "proofread": 8106,
      "College": 8107,
      "efficient": 8108,
      "efficiency": 8109,
      "deserves": 8110,
      "contains": 8111,
      "Supplies": 8112,
      "consultant": 8113,
      "cartridge": 8114,
      "cartridges": 8115,
      "complimentary": 8116,
      "Basketball": 8117,
      "Buddha": 8118,
      "Bruce": 8119,
      "Fully": 8120,
      "Labor": 8121,
      "Mountains": 8122,
      "VISA": 8123,
      "Veronica": 8124,
      "Whenever": 8125,
      "browsing": 8126,
      "grill": 8127,
      "oyster": 8128,
      "violence": 8129,
      "whites": 8130,
      "inspiring": 8131,
      "incredible": 8132,
      "vendors": 8133,
      "itinerary": 8134,
      "rapid": 8135,
      "persuade": 8136,
      "conservative": 8137,
      "mathematician": 8138,
      "truly": 8139,
      "princi": 8140,
      "situations": 8141,
      "dramatic": 8142,
      "rugby": 8143,
      "vacuum": 8144,
      "Brooks": 8145,
      "pursuing": 8146,
      "frequent": 8147,
      "submitted": 8148,
      "Granting": 8149,
      "temporary": 8150,
      "electronics": 8151,
      "destroyed": 8152,
      "manufacturers": 8153,
      "journal": 8154,
      "Jacob": 8155,
      "citizen": 8156,
      "Barkley": 8157,
      "Celia": 8158,
      "Continued": 8159,
      "Dynasty": 8160,
      "Dinner": 8161,
      "Enterpr": 8162,
      "Electron": 8163,
      "Florida": 8164,
      "MET": 8165,
      "Nicole": 8166,
      "Portobe": 8167,
      "Philip": 8168,
      "Qingdao": 8169,
      "Software": 8170,
      "Sterling": 8171,
      "Shogun": 8172,
      "disease": 8173,
      "military": 8174,
      "stood": 8175,
      "whisky": 8176,
      "influenced": 8177,
      "ingredients": 8178,
      "negative": 8179,
      "absorbed": 8180,
      "supreme": 8181,
      "sustainability": 8182,
      "mortgage": 8183,
      "prompt": 8184,
      "conveyor": 8185,
      "spirit": 8186,
      "reduction": 8187,
      "grateful": 8188,
      "disconnected": 8189,
      "drugs": 8190,
      "phoned": 8191,
      "surgery": 8192,
      "producers": 8193,
      "Stephanie": 8194,
      "jewelry": 8195,
      "symbol": 8196,
      "suburbs": 8197,
      "Mechan": 8198,
      "beneficial": 8199,
      "grapher": 8200,
      "Administration": 8201,
      "Angelina": 8202,
      "Normally": 8203,
      "Terminator": 8204,
      "conclusion": 8205,
      "sweetheart": 8206,
      "lanterns": 8207,
      "blockbuster": 8208,
      "accumulated": 8209,
      "entrepreneur": 8210,
      "Cats": 8211,
      "Canyon": 8212,
      "Carrie": 8213,
      "Death": 8214,
      "Diego": 8215,
      "Development": 8216,
      "Dawson": 8217,
      "Education": 8218,
      "Florence": 8219,
      "Fifth": 8220,
      "Houston": 8221,
      "Lexington": 8222,
      "Nurse": 8223,
      "Pitt": 8224,
      "Plaza": 8225,
      "Queen": 8226,
      "Swimming": 8227,
      "Seventy": 8228,
      "Savings": 8229,
      "Unemployment": 8230,
      "Vienna": 8231,
      "Wasserman": 8232,
      "bouquet": 8233,
      "bonds": 8234,
      "equivalent": 8235,
      "eighth": 8236,
      "fetch": 8237,
      "fruits": 8238,
      "galleries": 8239,
      "jungle": 8240,
      "kicking": 8241,
      "lounge": 8242,
      "pandas": 8243,
      "pamphlets": 8244,
      "splendid": 8245,
      "shadow": 8246,
      "victory": 8247,
      "widespread": 8248,
      "xerox": 8249,
      "inventory": 8250,
      "repeat": 8251,
      "repaired": 8252,
      "relieved": 8253,
      "tomato": 8254,
      "orchestra": 8255,
      "ordinary": 8256,
      "veggies": 8257,
      "stadium": 8258,
      "stimul": 8259,
      "artificial": 8260,
      "assuming": 8261,
      "gossip": 8262,
      "roverted": 8263,
      "accepting": 8264,
      "ambitious": 8265,
      "pepperoni": 8266,
      "mosquito": 8267,
      "ceilings": 8268,
      "loyalty": 8269,
      "shanghai": 8270,
      "unavoidable": 8271,
      "unbearable": 8272,
      "reschedu": 8273,
      "contrary": 8274,
      "conflicts": 8275,
      "consumers": 8276,
      "consistently": 8277,
      "Exactly": 8278,
      "elphia": 8279,
      "muffins": 8280,
      "commemorate": 8281,
      "overflowed": 8282,
      "typhoon": 8283,
      "stockings": 8284,
      "stomachache": 8285,
      "Colorado": 8286,
      "objective": 8287,
      "dispute": 8288,
      "Remittance": 8289,
      "Incorporated": 8290,
      "Rodriguez": 8291,
      "Jennifer": 8292,
      "landlord": 8293,
      "Seinfeld": 8294,
      "Attitude": 8295,
      "unexpected": 8296,
      "squeeze": 8297,
      "Philadelphia": 8298,
      "Enterprises": 8299,
      "Portobello": 8300,
      "110": 8301,
      "1000": 8302,
      "26": 8303,
      "2nd": 8304,
      "2000": 8305,
      "213": 8306,
      "32": 8307,
      "38": 8308,
      "39": 8309,
      "3G": 8310,
      "350": 8311,
      "3000": 8312,
      "41": 8313,
      "42": 8314,
      "44": 8315,
      "45": 8316,
      "53": 8317,
      "57": 8318,
      "67": 8319,
      "700": 8320,
      "85": 8321,
      "800": 8322,
      "880": 8323,
      "900": 8324,
      "987": 8325,
      "AN": 8326,
      "Ais": 8327,
      "Ave": 8328,
      "Ant": 8329,
      "Abig": 8330,
      "Bs": 8331,
      "Bon": 8332,
      "Bad": 8333,
      "Bot": 8334,
      "Bour": 8335,
      "Bur": 8336,
      "Beach": 8337,
      "Broad": 8338,
      "Buc": 8339,
      "CN": 8340,
      "Cu": 8341,
      "Cy": 8342,
      "Cou": 8343,
      "Cli": 8344,
      "Care": 8345,
      "Cly": 8346,
      "Chel": 8347,
      "Cho": 8348,
      "Catch": 8349,
      "Cater": 8350,
      "Cren": 8351,
      "Clive": 8352,
      "Carm": 8353,
      "Cath": 8354,
      "Congrat": 8355,
      "Close": 8356,
      "Cinema": 8357,
      "Coun": 8358,
      "Candy": 8359,
      "Camp": 8360,
      "Cinct": 8361,
      "Clean": 8362,
      "DA": 8363,
      "DI": 8364,
      "Dar": 8365,
      "Det": 8366,
      "Del": 8367,
      "Dest": 8368,
      "Dress": 8369,
      "Dah": 8370,
      "Dub": 8371,
      "Dicken": 8372,
      "Dude": 8373,
      "Dais": 8374,
      "Duck": 8375,
      "Dental": 8376,
      "Duh": 8377,
      "EX": 8378,
      "EY": 8379,
      "Eh": 8380,
      "Eth": 8381,
      "Eat": 8382,
      "Ell": 8383,
      "Emp": 8384,
      "Eif": 8385,
      "Esp": 8386,
      "Ener": 8387,
      "Ela": 8388,
      "Ethan": 8389,
      "Emplo": 8390,
      "Either": 8391,
      "Ecu": 8392,
      "Evan": 8393,
      "Fi": 8394,
      "Fan": 8395,
      "Fed": 8396,
      "Fare": 8397,
      "Fac": 8398,
      "Fab": 8399,
      "Fast": 8400,
      "Fort": 8401,
      "Fang": 8402,
      "Firm": 8403,
      "Flow": 8404,
      "Finding": 8405,
      "FOB": 8406,
      "Gin": 8407,
      "Gent": 8408,
      "Gav": 8409,
      "Gret": 8410,
      "Girl": 8411,
      "Gates": 8412,
      "Gator": 8413,
      "Garden": 8414,
      "Gambling": 8415,
      "GPA": 8416,
      "Greetings": 8417,
      "Hill": 8418,
      "Hend": 8419,
      "Hang": 8420,
      "Hair": 8421,
      "Hait": 8422,
      "Hunt": 8423,
      "Hung": 8424,
      "Hub": 8425,
      "Haunt": 8426,
      "Hainan": 8427,
      "IC": 8428,
      "Ike": 8429,
      "Irel": 8430,
      "Iris": 8431,
      "Ivy": 8432,
      "IMP": 8433,
      "ICC": 8434,
      "Ji": 8435,
      "Junk": 8436,
      "Jared": 8437,
      "KF": 8438,
      "Ker": 8439,
      "Kind": 8440,
      "Knight": 8441,
      "Kait": 8442,
      "Kung": 8443,
      "Kings": 8444,
      "Kith": 8445,
      "Katherine": 8446,
      "Kula": 8447,
      "Kathle": 8448,
      "Ly": 8449,
      "Lind": 8450,
      "Lul": 8451,
      "Lina": 8452,
      "Lap": 8453,
      "Lane": 8454,
      "Lau": 8455,
      "Lately": 8456,
      "Landy": 8457,
      "Lilly": 8458,
      "Lvan": 8459,
      "Lander": 8460,
      "LTS": 8461,
      "Lakers": 8462,
      "Mi": 8463,
      "Mand": 8464,
      "Mal": 8465,
      "Mus": 8466,
      "Must": 8467,
      "Mort": 8468,
      "Making": 8469,
      "Mob": 8470,
      "Map": 8471,
      "Mars": 8472,
      "Mount": 8473,
      "Miam": 8474,
      "Mandy": 8475,
      "Mafia": 8476,
      "Nat": 8477,
      "Non": 8478,
      "Ning": 8479,
      "Name": 8480,
      "Nada": 8481,
      "Nige": 8482,
      "OH": 8483,
      "OR": 8484,
      "OT": 8485,
      "Opp": 8486,
      "PB": 8487,
      "PD": 8488,
      "PG": 8489,
      "PR": 8490,
      "Pay": 8491,
      "Pic": 8492,
      "Pri": 8493,
      "Pot": 8494,
      "Pink": 8495,
      "Past": 8496,
      "Pine": 8497,
      "Pame": 8498,
      "Phy": 8499,
      "Port": 8500,
      "Pity": 8501,
      "Pass": 8502,
      "Pick": 8503,
      "Pinto": 8504,
      "Pau": 8505,
      "Pict": 8506,
      "Pop": 8507,
      "Palm": 8508,
      "QQ": 8509,
      "Qi": 8510,
      "RC": 8511,
      "Ru": 8512,
      "Ral": 8513,
      "Rac": 8514,
      "Rank": 8515,
      "Rain": 8516,
      "Rel": 8517,
      "Rings": 8518,
      "Rita": 8519,
      "Si": 8520,
      "Son": 8521,
      "Sis": 8522,
      "Sne": 8523,
      "Sut": 8524,
      "Sell": 8525,
      "Sany": 8526,
      "Song": 8527,
      "Sel": 8528,
      "Shen": 8529,
      "Sher": 8530,
      "Seat": 8531,
      "Sever": 8532,
      "Size": 8533,
      "Spac": 8534,
      "Smell": 8535,
      "Small": 8536,
      "Six": 8537,
      "Scrab": 8538,
      "Sports": 8539,
      "Slam": 8540,
      "SRC": 8541,
      "Te": 8542,
      "Tic": 8543,
      "Tam": 8544,
      "Tur": 8545,
      "Tun": 8546,
      "Tong": 8547,
      "Tel": 8548,
      "Tig": 8549,
      "Tele": 8550,
      "Thai": 8551,
      "Tem": 8552,
      "Tools": 8553,
      "Uk": 8554,
      "Ul": 8555,
      "Umm": 8556,
      "Vo": 8557,
      "Val": 8558,
      "Vac": 8559,
      "Vane": 8560,
      "Vale": 8561,
      "Wy": 8562,
      "Wan": 8563,
      "Wen": 8564,
      "Woo": 8565,
      "Wud": 8566,
      "Wily": 8567,
      "Yet": 8568,
      "Yong": 8569,
      "Yeas": 8570,
      "Yale": 8571,
      "Zu": 8572,
      "Zone": 8573,
      "Zhu": 8574,
      "athe": 8575,
      "awe": 8576,
      "aok": 8577,
      "apol": 8578,
      "awards": 8579,
      "alegal": 8580,
      "bf": 8581,
      "bin": 8582,
      "bing": 8583,
      "bay": 8584,
      "bli": 8585,
      "bare": 8586,
      "bind": 8587,
      "bart": 8588,
      "bate": 8589,
      "bure": 8590,
      "bail": 8591,
      "biz": 8592,
      "barri": 8593,
      "bones": 8594,
      "bilities": 8595,
      "bald": 8596,
      "bamb": 8597,
      "biling": 8598,
      "brains": 8599,
      "cow": 8600,
      "cen": 8601,
      "cie": 8602,
      "cree": 8603,
      "cci": 8604,
      "clove": 8605,
      "corder": 8606,
      "cum": 8607,
      "ctory": 8608,
      "cision": 8609,
      "cultural": 8610,
      "daf": 8611,
      "dity": 8612,
      "dav": 8613,
      "drow": 8614,
      "diss": 8615,
      "dated": 8616,
      "deter": 8617,
      "dresses": 8618,
      "dils": 8619,
      "eh": 8620,
      "ebe": 8621,
      "eld": 8622,
      "eag": 8623,
      "ered": 8624,
      "eval": 8625,
      "fis": 8626,
      "fen": 8627,
      "fal": 8628,
      "fant": 8629,
      "fus": 8630,
      "ffe": 8631,
      "fate": 8632,
      "fers": 8633,
      "fai": 8634,
      "font": 8635,
      "french": 8636,
      "firing": 8637,
      "flip": 8638,
      "fauc": 8639,
      "gs": 8640,
      "gic": 8641,
      "gart": 8642,
      "gree": 8643,
      "ghed": 8644,
      "gap": 8645,
      "gones": 8646,
      "ggets": 8647,
      "gized": 8648,
      "gamble": 8649,
      "hust": 8650,
      "hight": 8651,
      "hers": 8652,
      "hist": 8653,
      "hony": 8654,
      "hiding": 8655,
      "ime": 8656,
      "ido": 8657,
      "ius": 8658,
      "ipe": 8659,
      "iers": 8660,
      "irect": 8661,
      "imbur": 8662,
      "ibilities": 8663,
      "ji": 8664,
      "jer": 8665,
      "jar": 8666,
      "jure": 8667,
      "jade": 8668,
      "junior": 8669,
      "kk": 8670,
      "knot": 8671,
      "kore": 8672,
      "kni": 8673,
      "lou": 8674,
      "lat": 8675,
      "lone": 8676,
      "lorry": 8677,
      "lary": 8678,
      "lish": 8679,
      "lson": 8680,
      "louse": 8681,
      "lution": 8682,
      "lamb": 8683,
      "mble": 8684,
      "mist": 8685,
      "mouse": 8686,
      "mask": 8687,
      "munch": 8688,
      "mult": 8689,
      "mastered": 8690,
      "nen": 8691,
      "nation": 8692,
      "nup": 8693,
      "nations": 8694,
      "nagging": 8695,
      "navy": 8696,
      "nalia": 8697,
      "oin": 8698,
      "ost": 8699,
      "ode": 8700,
      "olives": 8701,
      "ological": 8702,
      "pis": 8703,
      "pad": 8704,
      "pil": 8705,
      "pager": 8706,
      "peter": 8707,
      "pills": 8708,
      "praise": 8709,
      "powe": 8710,
      "qi": 8711,
      "rac": 8712,
      "ram": 8713,
      "ration": 8714,
      "rist": 8715,
      "rous": 8716,
      "rash": 8717,
      "rounds": 8718,
      "rics": 8719,
      "root": 8720,
      "rising": 8721,
      "rors": 8722,
      "rises": 8723,
      "racket": 8724,
      "rison": 8725,
      "san": 8726,
      "sis": 8727,
      "sic": 8728,
      "sso": 8729,
      "sac": 8730,
      "scan": 8731,
      "sly": 8732,
      "slo": 8733,
      "sman": 8734,
      "scor": 8735,
      "smith": 8736,
      "scent": 8737,
      "slu": 8738,
      "scold": 8739,
      "sagging": 8740,
      "tab": 8741,
      "tread": 8742,
      "tress": 8743,
      "tai": 8744,
      "tails": 8745,
      "tiring": 8746,
      "uing": 8747,
      "ugh": 8748,
      "ument": 8749,
      "uals": 8750,
      "ully": 8751,
      "uzha": 8752,
      "uencies": 8753,
      "vre": 8754,
      "von": 8755,
      "vid": 8756,
      "vast": 8757,
      "vine": 8758,
      "vity": 8759,
      "vint": 8760,
      "vals": 8761,
      "vali": 8762,
      "vince": 8763,
      "vied": 8764,
      "vows": 8765,
      "wen": 8766,
      "woo": 8767,
      "wic": 8768,
      "whel": 8769,
      "wits": 8770,
      "wins": 8771,
      "woods": 8772,
      "warriors": 8773,
      "whist": 8774,
      "xon": 8775,
      "xtiles": 8776,
      "yon": 8777,
      "yen": 8778,
      "yage": 8779,
      "yware": 8780,
      "yelled": 8781,
      "zu": 8782,
      "zation": 8783,
      "zhi": 8784,
      "zhen": 8785,
      "zier": 8786,
      "oup": 8787,
      "thur": 8788,
      "thread": 8789,
      "thursday": 8790,
      "thief": 8791,
      "thunders": 8792,
      "thicke": 8793,
      "ini": 8794,
      "inse": 8795,
      "inas": 8796,
      "inning": 8797,
      "injust": 8798,
      "inary": 8799,
      "intle": 8800,
      "infl": 8801,
      "inated": 8802,
      "inational": 8803,
      "inery": 8804,
      "insight": 8805,
      "informs": 8806,
      "inspect": 8807,
      "inquiring": 8808,
      "inos": 8809,
      "insignificant": 8810,
      "inaccurate": 8811,
      "injure": 8812,
      "rey": 8813,
      "rehe": 8814,
      "reed": 8815,
      "remy": 8816,
      "renow": 8817,
      "rend": 8818,
      "rease": 8819,
      "rede": 8820,
      "reno": 8821,
      "recall": 8822,
      "recourse": 8823,
      "repay": 8824,
      "reform": 8825,
      "rehear": 8826,
      "reput": 8827,
      "relic": 8828,
      "reward": 8829,
      "refour": 8830,
      "remove": 8831,
      "reference": 8832,
      "reorganization": 8833,
      "repaint": 8834,
      "redecorate": 8835,
      "resolve": 8836,
      "rebound": 8837,
      "recycle": 8838,
      "redecorated": 8839,
      "recession": 8840,
      "revenues": 8841,
      "recovering": 8842,
      "reimbur": 8843,
      "anine": 8844,
      "anche": 8845,
      "anley": 8846,
      "toes": 8847,
      "toss": 8848,
      "toward": 8849,
      "toaster": 8850,
      "atics": 8851,
      "attered": 8852,
      "atically": 8853,
      "atlas": 8854,
      "erly": 8855,
      "erful": 8856,
      "error": 8857,
      "ergart": 8858,
      "erinas": 8859,
      "theme": 8860,
      "thead": 8861,
      "thent": 8862,
      "ority": 8863,
      "orang": 8864,
      "ories": 8865,
      "orities": 8866,
      "ornaments": 8867,
      "orological": 8868,
      "mew": 8869,
      "mete": 8870,
      "mezz": 8871,
      "islam": 8872,
      "ispens": 8873,
      "isode": 8874,
      "llis": 8875,
      "lland": 8876,
      "llins": 8877,
      "hea": 8878,
      "hew": 8879,
      "hell": 8880,
      "hesive": 8881,
      "sement": 8882,
      "seated": 8883,
      "sector": 8884,
      "selor": 8885,
      "sections": 8886,
      "ites": 8887,
      "stal": 8888,
      "stro": 8889,
      "stry": 8890,
      "starch": 8891,
      "staging": 8892,
      "arin": 8893,
      "aring": 8894,
      "arbit": 8895,
      "lest": 8896,
      "lene": 8897,
      "lemon": 8898,
      "lemen": 8899,
      "lesen": 8900,
      "league": 8901,
      "kespe": 8902,
      "esy": 8903,
      "esis": 8904,
      "essent": 8905,
      "espres": 8906,
      "esize": 8907,
      "esigned": 8908,
      "escape": 8909,
      "aying": 8910,
      "aysia": 8911,
      "ench": 8912,
      "enary": 8913,
      "encount": 8914,
      "engl": 8915,
      "ensure": 8916,
      "enlarge": 8917,
      "encounter": 8918,
      "enables": 8919,
      "enem": 8920,
      "enquiring": 8921,
      "envied": 8922,
      "ooke": 8923,
      "oooo": 8924,
      "oosing": 8925,
      "oovy": 8926,
      "hates": 8927,
      "fork": 8928,
      "forth": 8929,
      "forgetting": 8930,
      "forum": 8931,
      "forums": 8932,
      "ands": 8933,
      "andum": 8934,
      "icon": 8935,
      "ichael": 8936,
      "ictorian": 8937,
      "bever": 8938,
      "beep": 8939,
      "bears": 8940,
      "beating": 8941,
      "became": 8942,
      "liar": 8943,
      "ligh": 8944,
      "lily": 8945,
      "liber": 8946,
      "dolen": 8947,
      "eddon": 8948,
      "edgy": 8949,
      "asy": 8950,
      "asha": 8951,
      "asive": 8952,
      "asset": 8953,
      "asia": 8954,
      "assess": 8955,
      "weake": 8956,
      "welf": 8957,
      "sob": 8958,
      "soy": 8959,
      "solar": 8960,
      "etic": 8961,
      "etary": 8962,
      "eties": 8963,
      "allone": 8964,
      "allel": 8965,
      "albe": 8966,
      "alco": 8967,
      "alter": 8968,
      "alway": 8969,
      "alous": 8970,
      "alanche": 8971,
      "gos": 8972,
      "ching": 8973,
      "chim": 8974,
      "chili": 8975,
      "chuck": 8976,
      "chances": 8977,
      "chilly": 8978,
      "charts": 8979,
      "idle": 8980,
      "coast": 8981,
      "coca": 8982,
      "cozy": 8983,
      "wipe": 8984,
      "wilson": 8985,
      "nest": 8986,
      "necks": 8987,
      "newest": 8988,
      "neapol": 8989,
      "vering": 8990,
      "ghost": 8991,
      "admin": 8992,
      "adventure": 8993,
      "advised": 8994,
      "adhesive": 8995,
      "roit": 8996,
      "roars": 8997,
      "rots": 8998,
      "robot": 8999,
      "utious": 9000,
      "output": 9001,
      "outstanding": 9002,
      "outskirts": 9003,
      "myster": 9004,
      "ntan": 9005,
      "irmed": 9006,
      "irresponsibility": 9007,
      "acri": 9008,
      "acking": 9009,
      "acqu": 9010,
      "accent": 9011,
      "acious": 9012,
      "acute": 9013,
      "accused": 9014,
      "aby": 9015,
      "abase": 9016,
      "abund": 9017,
      "abber": 9018,
      "abbey": 9019,
      "absence": 9020,
      "cann": 9021,
      "rier": 9022,
      "river": 9023,
      "ribut": 9024,
      "oty": 9025,
      "amate": 9026,
      "ambi": 9027,
      "amped": 9028,
      "amming": 9029,
      "daylight": 9030,
      "terra": 9031,
      "lyrics": 9032,
      "sus": 9033,
      "sung": 9034,
      "sucks": 9035,
      "suntan": 9036,
      "ples": 9037,
      "antsy": 9038,
      "oneself": 9039,
      "usive": 9040,
      "usher": 9041,
      "usages": 9042,
      "tip": 9043,
      "tian": 9044,
      "tiger": 9045,
      "peas": 9046,
      "pered": 9047,
      "peak": 9048,
      "pective": 9049,
      "pevine": 9050,
      "inkill": 9051,
      "hore": 9052,
      "homer": 9053,
      "hopping": 9054,
      "hollow": 9055,
      "hogging": 9056,
      "mph": 9057,
      "mping": 9058,
      "agno": 9059,
      "agreed": 9060,
      "akes": 9061,
      "worries": 9062,
      "getaway": 9063,
      "cement": 9064,
      "fel": 9065,
      "feit": 9066,
      "fever": 9067,
      "fered": 9068,
      "feather": 9069,
      "lob": 9070,
      "loe": 9071,
      "loving": 9072,
      "lovers": 9073,
      "loses": 9074,
      "lodge": 9075,
      "loaves": 9076,
      "logged": 9077,
      "logos": 9078,
      "Wealth": 9079,
      "Week": 9080,
      "urred": 9081,
      "urable": 9082,
      "indirect": 9083,
      "indispens": 9084,
      "wasbuilt": 9085,
      "shout": 9086,
      "shifts": 9087,
      "shrink": 9088,
      "ppy": 9089,
      "ppie": 9090,
      "Theatre": 9091,
      "seek": 9092,
      "Dome": 9093,
      "Domestic": 9094,
      "Dolph": 9095,
      "Dogs": 9096,
      "mentally": 9097,
      "mentary": 9098,
      "wanting": 9099,
      "Heard": 9100,
      "Health": 9101,
      "timesheet": 9102,
      "timesheets": 9103,
      "rais": 9104,
      "raine": 9105,
      "mors": 9106,
      "morale": 9107,
      "Than": 9108,
      "Throw": 9109,
      "Through": 9110,
      "Thousand": 9111,
      "teap": 9112,
      "tears": 9113,
      "textiles": 9114,
      "artwork": 9115,
      "artist": 9116,
      "artists": 9117,
      "notion": 9118,
      "notices": 9119,
      "demo": 9120,
      "deaf": 9121,
      "deck": 9122,
      "defic": 9123,
      "debit": 9124,
      "depri": 9125,
      "demot": 9126,
      "devote": 9127,
      "device": 9128,
      "derer": 9129,
      "deception": 9130,
      "devoted": 9131,
      "debate": 9132,
      "thermost": 9133,
      "extr": 9134,
      "exiting": 9135,
      "extract": 9136,
      "excel": 9137,
      "exporter": 9138,
      "extermin": 9139,
      "external": 9140,
      "asted": 9141,
      "kingham": 9142,
      "protest": 9143,
      "propose": 9144,
      "protesting": 9145,
      "ineers": 9146,
      "butting": 9147,
      "Goodness": 9148,
      "needing": 9149,
      "nod": 9150,
      "nold": 9151,
      "noble": 9152,
      "plin": 9153,
      "pler": 9154,
      "plic": 9155,
      "plus": 9156,
      "plumber": 9157,
      "entail": 9158,
      "entries": 9159,
      "illustra": 9160,
      "una": 9161,
      "unpre": 9162,
      "unreal": 9163,
      "unfair": 9164,
      "unker": 9165,
      "unnecessary": 9166,
      "unlimited": 9167,
      "uninspiring": 9168,
      "Hilary": 9169,
      "perspe": 9170,
      "perform": 9171,
      "cts": 9172,
      "ctual": 9173,
      "ctuation": 9174,
      "resso": 9175,
      "resili": 9176,
      "resigning": 9177,
      "residential": 9178,
      "resistant": 9179,
      "resigned": 9180,
      "respective": 9181,
      "ainment": 9182,
      "ainted": 9183,
      "comedy": 9184,
      "contra": 9185,
      "concept": 9186,
      "convert": 9187,
      "convent": 9188,
      "constit": 9189,
      "concession": 9190,
      "condolen": 9191,
      "quis": 9192,
      "quille": 9193,
      "quicke": 9194,
      "compile": 9195,
      "compared": 9196,
      "comprehensive": 9197,
      "comprises": 9198,
      "comprehe": 9199,
      "romance": 9200,
      "uren": 9201,
      "bleed": 9202,
      "bless": 9203,
      "ila": 9204,
      "ilin": 9205,
      "cuses": 9206,
      "cheat": 9207,
      "chester": 9208,
      "cheater": 9209,
      "cheek": 9210,
      "cheerful": 9211,
      "cheesy": 9212,
      "pole": 9213,
      "poet": 9214,
      "posh": 9215,
      "posi": 9216,
      "posed": 9217,
      "pointle": 9218,
      "ckles": 9219,
      "parting": 9220,
      "partly": 9221,
      "Nova": 9222,
      "workday": 9223,
      "workman": 9224,
      "essa": 9225,
      "muff": 9226,
      "spewing": 9227,
      "igou": 9228,
      "spell": 9229,
      "spread": 9230,
      "sprout": 9231,
      "spons": 9232,
      "spelled": 9233,
      "spyware": 9234,
      "spacious": 9235,
      "redesigned": 9236,
      "iteers": 9237,
      "itecture": 9238,
      "bury": 9239,
      "bump": 9240,
      "bucket": 9241,
      "maid": 9242,
      "maple": 9243,
      "maker": 9244,
      "maxi": 9245,
      "mailed": 9246,
      "mans": 9247,
      "manger": 9248,
      "manual": 9249,
      "trash": 9250,
      "trunk": 9251,
      "tracking": 9252,
      "reads": 9253,
      "commer": 9254,
      "commen": 9255,
      "comfort": 9256,
      "coun": 9257,
      "coughed": 9258,
      "bob": 9259,
      "bore": 9260,
      "boil": 9261,
      "boating": 9262,
      "bodies": 9263,
      "bothered": 9264,
      "boasted": 9265,
      "Chill": 9266,
      "Chloe": 9267,
      "Chilin": 9268,
      "overnight": 9269,
      "overcoat": 9270,
      "overcharge": 9271,
      "overpowe": 9272,
      "overwhel": 9273,
      "avalanche": 9274,
      "restroom": 9275,
      "erview": 9276,
      "hadn": 9277,
      "fog": 9278,
      "fox": 9279,
      "foxt": 9280,
      "focused": 9281,
      "fodils": 9282,
      "focuses": 9283,
      "lasted": 9284,
      "lastly": 9285,
      "Soon": 9286,
      "kets": 9287,
      "kettle": 9288,
      "ista": 9289,
      "istan": 9290,
      "istles": 9291,
      "istically": 9292,
      "Lets": 9293,
      "Letter": 9294,
      "bygones": 9295,
      "anged": 9296,
      "angqi": 9297,
      "glas": 9298,
      "glue": 9299,
      "preter": 9300,
      "preci": 9301,
      "premis": 9302,
      "prepaid": 9303,
      "prejud": 9304,
      "premium": 9305,
      "precision": 9306,
      "prefers": 9307,
      "wore": 9308,
      "sausages": 9309,
      "sauna": 9310,
      "grant": 9311,
      "groovy": 9312,
      "clamp": 9313,
      "cloudy": 9314,
      "clunker": 9315,
      "praying": 9316,
      "sson": 9317,
      "appoin": 9318,
      "stone": 9319,
      "assy": 9320,
      "assment": 9321,
      "ducks": 9322,
      "tlement": 9323,
      "kindergart": 9324,
      "rows": 9325,
      "rowave": 9326,
      "forehead": 9327,
      "weekly": 9328,
      "themselves": 9329,
      "lotte": 9330,
      "names": 9331,
      "torms": 9332,
      "Job": 9333,
      "Josh": 9334,
      "Jolie": 9335,
      "episode": 9336,
      "trait": 9337,
      "afternoons": 9338,
      "mayo": 9339,
      "march": 9340,
      "marath": 9341,
      "marvell": 9342,
      "marinated": 9343,
      "intervie": 9344,
      "interpersonal": 9345,
      "interior": 9346,
      "interfering": 9347,
      "interpreter": 9348,
      "carton": 9349,
      "carpet": 9350,
      "carrot": 9351,
      "carnations": 9352,
      "carrots": 9353,
      "broo": 9354,
      "brook": 9355,
      "brink": 9356,
      "bration": 9357,
      "brown": 9358,
      "Coast": 9359,
      "Cody": 9360,
      "Comm": 9361,
      "Corey": 9362,
      "Collins": 9363,
      "sites": 9364,
      "sition": 9365,
      "herself": 9366,
      "hernalia": 9367,
      "friendship": 9368,
[...]
