{
  "version": "1.0",
  "truncation": null,
  "padding": null,
  "added_tokens": [
    {
      "id": 0,
      "content": "<unk>",
      "single_word": false,
      "lstrip": false,
      "rstrip": false,
      "normalized": false,
      "special": true
    },
    {
      "id": 1,
      "content": "</s>",
      "single_word": false,
      "lstrip": false,
      "rstrip": false,
      "normalized": false,
      "special": true
    },
    {
      "id": 2,
      "content": "<pad>",
      "single_word": false,
      "lstrip": false,
      "rstrip": false,
      "normalized": false,
      "special": true
    },
    {
      "id": 3,
      "content": "<src>",
      "single_word": false,
      "lstrip": false,
      "rstrip": false,
      "normalized": false,
      "special": true
    },
    {
      "id": 4,
      "content": "<tgt>",
      "single_word": false,
      "lstrip": false,
      "rstrip": false,
      "normalized": false,
      "special": true
    }
  ],
  "normalizer": null,
  "pre_tokenizer": {
    "type": "Whitespace"
  },
  "post_processor": null,
  "decoder": null,
  "model": {
    "type": "BPE",
    "dropout": null,
    "unk_token": "<unk>",
    "continuing_subword_prefix": null,
    "end_of_word_suffix": null,
    "fuse_unk": false,
    "byte_fallback": false,
    "ignore_merges": false,
    "vocab": {
      "<unk>": 0,
      "</s>": 1,
      "<pad>": 2,
      "<src>": 3,
      "<tgt>": 4,
      "!": 5,
      "\"": 6,
      "#": 7,
      "$": 8,
      "%": 9,
      "&": 10,
      "'": 11,
      "(": 12,
      ")": 13,
      "*": 14,
      "+": 15,
      ",": 16,
      "-": 17,
      ".": 18,
      "/": 19,
      "0": 20,
      "1": 21,
      "2": 22,
      "3": 23,
      "4": 24,
      "5": 25,
      "6": 26,
      "7": 27,
      "8": 28,
      "9": 29,
      ":": 30,
      ";": 31,
      "<": 32,
      "=": 33,
      ">": 34,
      "?": 35,
      "[": 36,
      "]": 37,
      "`": 38,
      "a": 39,
      "b": 40,
      "c": 41,
      "d": 42,
      "e": 43,
      "f": 44,
      "g": 45,
      "h": 46,
      "i": 47,
      "j": 48,
      "k": 49,
      "l": 50,
      "m": 51,
      "n": 52,
      "o": 53,
      "p": 54,
      "q": 55,
      "r": 56,
      "s": 57,
      "t": 58,
      "u": 59,
      "v": 60,
      "w": 61,
      "x": 62,
      "y": 63,
      "z": 64,
      "": 65,
      "": 66,
      "": 67,
      "½": 68,
      "É": 69,
      "Ú": 70,
      "à": 71,
      "á": 72,
      "â": 73,
      "ã": 74,
      "æ": 75,
      "ç": 76,
      "è": 77,
      "é": 78,
      "ê": 79,
      "í": 80,
      "ï": 81,
      "ñ": 82,
      "ó": 83,
      "ô": 84,
      "õ": 85,
      "ö": 86,
      "ú": 87,
      "û": 88,
      "ü": 89,
      "th": 90,
      "in": 91,
      "an": 92,
      "er": 93,
      "the": 94,
      "re": 95,
      "en": 96,
      "on": 97,
      "at": 98,
      "is": 99,
      "it": 100,
      "es": 101,
      "ing": 102,
      "or": 103,
      "ou": 104,
      "al": 105,
      "and": 106,
      "of": 107,
      "ar": 108,
      "st": 109,
      "to": 110,
      "ly": 111,
      "ed": 112,
      "il": 113,
      "ic": 114,
      "as": 115,
      "le": 116,
      "om": 117,
      "ch": 118,
      "mo": 119,
      "el": 120,
      "ct": 121,
      "ent": 122,
      "ion": 123,
      "se": 124,
      "ut": 125,
      "be": 126,
      "ma": 127,
      "that": 128,
      "un": 129,
      "ve": 130,
      "vi": 131,
      "ra": 132,
      "de": 133,
      "for": 134,
      "gh": 135,
      "li": 136,
      "lo": 137,
      "wh": 138,
      "ab": 139,
      "ver": 140,
      "im": 141,
      "ro": 142,
      "ul": 143,
      "no": 144,
      "fil": 145,
      "ce": 146,
      "film": 147,
      "ith": 148,
      "com": 149,
      "su": 150,
      "ke": 151,
      "am": 152,
      "ad": 153,
      "with": 154,
      "but": 155,
      "ri": 156,
      "sh": 157,
      "movi": 158,
      "you": 159,
      "its": 160,
      "ol": 161,
      "ess": 162,
      "di": 163,
      "out": 164,
      "la": 165,
      "ge": 166,
      "act": 167,
      "this": 168,
      "ers": 169,
      "movie": 170,
      "ir": 171,
      "fe": 172,
      "one": 173,
      "ter": 174,
      "ex": 175,
      "do": 176,
      "po": 177,
      "ther": 178,
      "ne": 179,
      "pe": 180,
      "con": 181,
      "are": 182,
      "all": 183,
      "est": 184,
      "od": 185,
      "man": 186,
      "sc": 187,
      "per": 188,
      "ta": 189,
      "so": 190,
      "ck": 191,
      "ill": 192,
      "ous": 193,
      "ght": 194,
      "ha": 195,
      "em": 196,
      "qu": 197,
      "ay": 198,
      "art": 199,
      "go": 200,
      "rom": 201,
      "ant": 202,
      "um": 203,
      "ation": 204,
      "ur": 205,
      "ally": 206,
      "ist": 207,
      "not": 208,
      "ful": 209,
      "us": 210,
      "ive": 211,
      "pre": 212,
      "he": 213,
      "wor": 214,
      "ld": 215,
      "by": 216,
      "we": 217,
      "ure": 218,
      "pro": 219,
      "ome": 220,
      "tim": 221,
      "id": 222,
      "ap": 223,
      "like": 224,
      "sp": 225,
      "ity": 226,
      "ate": 227,
      "ell": 228,
      "if": 229,
      "ough": 230,
      "thing": 231,
      "some": 232,
      "ory": 233,
      "char": 234,
      "able": 235,
      "ust": 236,
      "has": 237,
      "more": 238,
      "end": 239,
      "ow": 240,
      "than": 241,
      "about": 242,
      "ev": 243,
      "ig": 244,
      "ag": 245,
      "int": 246,
      "ind": 247,
      "ould": 248,
      "up": 249,
      "from": 250,
      "--": 251,
      "op": 252,
      "ast": 253,
      "his": 254,
      "very": 255,
      "ts": 256,
      "have": 257,
      "der": 258,
      "ine": 259,
      "who": 260,
      "bo": 261,
      "tr": 262,
      "ss": 263,
      "ok": 264,
      "most": 265,
      "her": 266,
      "me": 267,
      "fun": 268,
      "ard": 269,
      "story": 270,
      "mak": 271,
      "ight": 272,
      "way": 273,
      "itt": 274,
      "ong": 275,
      "rect": 276,
      "can": 277,
      "au": 278,
      "ence": 279,
      "ac": 280,
      "direct": 281,
      "charact": 282,
      "oun": 283,
      "te": 284,
      "our": 285,
      "what": 286,
      "pla": 287,
      "pt": 288,
      "ble": 289,
      "et": 290,
      "too": 291,
      "ious": 292,
      "less": 293,
      "mu": 294,
      "ial": 295,
      "just": 296,
      "tra": 297,
      "there": 298,
      "ces": 299,
      "ep": 300,
      "any": 301,
      "cl": 302,
      "ich": 303,
      "ish": 304,
      "ick": 305,
      "gu": 306,
      "comp": 307,
      "over": 308,
      "even": 309,
      "thr": 310,
      "good": 311,
      "comed": 312,
      "time": 313,
      "ph": 314,
      "mat": 315,
      "off": 316,
      "ment": 317,
      "into": 318,
      "ff": 319,
      "ict": 320,
      "ves": 321,
      "cre": 322,
      "ary": 323,
      "work": 324,
      "wo": 325,
      "dra": 326,
      "ite": 327,
      "ies": 328,
      "does": 329,
      "ins": 330,
      "will": 331,
      "jo": 332,
      "ass": 333,
      "co": 334,
      "wn": 335,
      "des": 336,
      "ical": 337,
      "ere": 338,
      "ire": 339,
      "much": 340,
      "fa": 341,
      "pr": 342,
      "dis": 343,
      "ear": 344,
      "ie": 345,
      "pa": 346,
      "comedy": 347,
      "tt": 348,
      "elf": 349,
      "low": 350,
      "br": 351,
      "tal": 352,
      "ating": 353,
      "fl": 354,
      "ny": 355,
      "other": 356,
      "plo": 357,
      "ise": 358,
      "well": 359,
      "perfor": 360,
      "ile": 361,
      "feel": 362,
      "old": 363,
      "tain": 364,
      "director": 365,
      "ens": 366,
      "ort": 367,
      "ound": 368,
      "ated": 369,
      "ser": 370,
      "ber": 371,
      "gre": 372,
      "str": 373,
      "iz": 374,
      "wr": 375,
      "age": 376,
      "cr": 377,
      "min": 378,
      "characters": 379,
      "bet": 380,
      "ingly": 381,
      "ark": 382,
      "performan": 383,
      "ertain": 384,
      "sur": 385,
      "bl": 386,
      "every": 387,
      "gen": 388,
      "ense": 389,
      "funny": 390,
      "ide": 391,
      "atch": 392,
      "only": 393,
      "make": 394,
      "play": 395,
      "ice": 396,
      "look": 397,
      "ot": 398,
      "inter": 399,
      "litt": 400,
      "real": 401,
      "fre": 402,
      "ak": 403,
      "gr": 404,
      "imp": 405,
      "little": 406,
      "scre": 407,
      "ance": 408,
      "ative": 409,
      "sub": 410,
      "ach": 411,
      "pp": 412,
      "ness": 413,
      "fect": 414,
      "ving": 415,
      "your": 416,
      "their": 417,
      "may": 418,
      "ult": 419,
      "spe": 420,
      "get": 421,
      "vel": 422,
      "ef": 423,
      "du": 424,
      "fo": 425,
      "del": 426,
      "life": 427,
      "bad": 428,
      "ip": 429,
      "af": 430,
      "never": 431,
      "they": 432,
      "ack": 433,
      "gra": 434,
      "been": 435,
      "when": 436,
      "vis": 437,
      "was": 438,
      "enough": 439,
      "love": 440,
      "screen": 441,
      "iv": 442,
      "je": 443,
      "ions": 444,
      "cent": 445,
      "ud": 446,
      "ang": 447,
      "ame": 448,
      "watch": 449,
      "ans": 450,
      "see": 451,
      "mag": 452,
      "ily": 453,
      "seem": 454,
      "my": 455,
      "makes": 456,
      "ho": 457,
      "tri": 458,
      "year": 459,
      "new": 460,
      "would": 461,
      "ents": 462,
      "part": 463,
      "them": 464,
      "best": 465,
      "how": 466,
      "while": 467,
      "ry": 468,
      "ild": 469,
      "which": 470,
      "ling": 471,
      "now": 472,
      "ster": 473,
      "sy": 474,
      "self": 475,
      "under": 476,
      "through": 477,
      "long": 478,
      "ren": 479,
      "heart": 480,
      "ple": 481,
      "entertain": 482,
      "lack": 483,
      "fam": 484,
      "doesn": 485,
      "fully": 486,
      "ash": 487,
      "ose": 488,
      "war": 489,
      "cess": 490,
      "ying": 491,
      "ably": 492,
      "cin": 493,
      "ob": 494,
      "big": 495,
      "could": 496,
      "mer": 497,
      "made": 498,
      "amer": 499,
      "action": 500,
      "ately": 501,
      "cho": 502,
      "ink": 503,
      "res": 504,
      "eng": 505,
      "mot": 506,
      "day": 507,
      "though": 508,
      "tur": 509,
      "ional": 510,
      "hu": 511,
      "ors": 512,
      "ste": 513,
      "wer": 514,
      "ual": 515,
      "movies": 516,
      "interest": 517,
      "vers": 518,
      "come": 519,
      "mis": 520,
      "down": 521,
      "ain": 522,
      "hum": 523,
      "inal": 524,
      "gi": 525,
      "sm": 526,
      "tre": 527,
      "something": 528,
      "should": 529,
      "cle": 530,
      "cast": 531,
      "audi": 532,
      "show": 533,
      "ject": 534,
      "ci": 535,
      "great": 536,
      "point": 537,
      "fir": 538,
      "two": 539,
      "tak": 540,
      "av": 541,
      "ty": 542,
      "character": 543,
      "thrill": 544,
      "igh": 545,
      "really": 546,
      "ign": 547,
      "drama": 548,
      "plot": 549,
      "minut": 550,
      "mon": 551,
      "own": 552,
      "ll": 553,
      "still": 554,
      "cum": 555,
      "ning": 556,
      "pl": 557,
      "right": 558,
      "col": 559,
      "lau": 560,
      "bel": 561,
      "vie": 562,
      "istic": 563,
      "writ": 564,
      "att": 565,
      "don": 566,
      "hol": 567,
      "times": 568,
      "tru": 569,
      "pict": 570,
      "many": 571,
      "performances": 572,
      "car": 573,
      "fr": 574,
      "elling": 575,
      "joy": 576,
      "light": 577,
      "those": 578,
      "wood": 579,
      "comes": 580,
      "scen": 581,
      "cial": 582,
      "far": 583,
      "films": 584,
      "hard": 585,
      "ner": 586,
      "row": 587,
      "bit": 588,
      "imag": 589,
      "isn": 590,
      "ever": 591,
      "peop": 592,
      "here": 593,
      "gg": 594,
      "people": 595,
      "da": 596,
      "ved": 597,
      "nothing": 598,
      "humor": 599,
      "first": 600,
      "back": 601,
      "won": 602,
      "where": 603,
      "filmmak": 604,
      "oc": 605,
      "ten": 606,
      "better": 607,
      "stand": 608,
      "aut": 609,
      "emot": 610,
      "sty": 611,
      "che": 612,
      "being": 613,
      "scri": 614,
      "laugh": 615,
      "ible": 616,
      "worth": 617,
      "ath": 618,
      "mom": 619,
      "por": 620,
      "ations": 621,
      "press": 622,
      "kind": 623,
      "ually": 624,
      "without": 625,
      "americ": 626,
      "mem": 627,
      "cy": 628,
      "cut": 629,
      "sense": 630,
      "mar": 631,
      "vent": 632,
      "both": 633,
      "picture": 634,
      "ian": 635,
      "red": 636,
      "world": 637,
      "cau": 638,
      "ates": 639,
      "ature": 640,
      "script": 641,
      "les": 642,
      "might": 643,
      "form": 644,
      "pleas": 645,
      "aw": 646,
      "ism": 647,
      "cap": 648,
      "docum": 649,
      "que": 650,
      "bre": 651,
      "fin": 652,
      "high": 653,
      "sat": 654,
      "ween": 655,
      "bu": 656,
      "surpr": 657,
      "turn": 658,
      "simp": 659,
      "ings": 660,
      "ought": 661,
      "ically": 662,
      "fort": 663,
      "document": 664,
      "bro": 665,
      "led": 666,
      "mind": 667,
      "pie": 668,
      "enjoy": 669,
      "ction": 670,
      "cont": 671,
      "human": 672,
      "audience": 673,
      "mi": 674,
      "also": 675,
      "ars": 676,
      "pect": 677,
      "cause": 678,
      "another": 679,
      "pers": 680,
      "ys": 681,
      "kid": 682,
      "ming": 683,
      "ps": 684,
      "ted": 685,
      "cept": 686,
      "peri": 687,
      "ced": 688,
      "clo": 689,
      "gent": 690,
      "know": 691,
      "arly": 692,
      "cas": 693,
      "orig": 694,
      "arr": 695,
      "between": 696,
      "view": 697,
      "find": 698,
      "gue": 699,
      "want": 700,
      "ull": 701,
      "need": 702,
      "rel": 703,
      "log": 704,
      "such": 705,
      "antic": 706,
      "spir": 707,
      "comple": 708,
      "care": 709,
      "cra": 710,
      "ting": 711,
      "often": 712,
      "fore": 713,
      "original": 714,
      "beaut": 715,
      "power": 716,
      "performance": 717,
      "med": 718,
      "sit": 719,
      "ultim": 720,
      "feels": 721,
      "pol": 722,
      "few": 723,
      "because": 724,
      "after": 725,
      "thriller": 726,
      "hand": 727,
      "mess": 728,
      "think": 729,
      "mark": 730,
      "gener": 731,
      "effect": 732,
      "tit": 733,
      "seems": 734,
      "ky": 735,
      "ms": 736,
      "run": 737,
      "sent": 738,
      "lywood": 739,
      "ney": 740,
      "full": 741,
      "eas": 742,
      "take": 743,
      "ends": 744,
      "tale": 745,
      "minutes": 746,
      "ni": 747,
      "sing": 748,
      "then": 749,
      "hor": 750,
      "ks": 751,
      "sin": 752,
      "tent": 753,
      "ross": 754,
      "poss": 755,
      "appe": 756,
      "swe": 757,
      "quite": 758,
      "ages": 759,
      "intel": 760,
      "deli": 761,
      "fi": 762,
      "keep": 763,
      "interesting": 764,
      "mus": 765,
      "hollywood": 766,
      "documentary": 767,
      "dist": 768,
      "hal": 769,
      "almost": 770,
      "mor": 771,
      "read": 772,
      "sequ": 773,
      "umb": 774,
      "produ": 775,
      "again": 776,
      "surpris": 777,
      "bor": 778,
      "cor": 779,
      "na": 780,
      "son": 781,
      "yet": 782,
      "ond": 783,
      "ater": 784,
      "atic": 785,
      "lot": 786,
      "dict": 787,
      "ane": 788,
      "american": 789,
      "cult": 790,
      "wom": 791,
      "romantic": 792,
      "entertaining": 793,
      "hour": 794,
      "sa": 795,
      "iness": 796,
      "these": 797,
      "matic": 798,
      "par": 799,
      "pass": 800,
      "rather": 801,
      "hist": 802,
      "mel": 803,
      "sk": 804,
      "ences": 805,
      "seen": 806,
      "sho": 807,
      "ship": 808,
      "him": 809,
      "put": 810,
      "stu": 811,
      "sex": 812,
      "suc": 813,
      "itself": 814,
      "did": 815,
      "ways": 816,
      "family": 817,
      "fla": 818,
      "ale": 819,
      "vide": 820,
      "class": 821,
      "desp": 822,
      "fresh": 823,
      "spect": 824,
      "watching": 825,
      "person": 826,
      "den": 827,
      "piece": 828,
      "ultimately": 829,
      "cu": 830,
      "acting": 831,
      "ey": 832,
      "tw": 833,
      "vol": 834,
      "alo": 835,
      "ics": 836,
      "ason": 837,
      "lea": 838,
      "she": 839,
      "diff": 840,
      "cons": 841,
      "happ": 842,
      "moments": 843,
      "say": 844,
      "vin": 845,
      "were": 846,
      "thought": 847,
      "last": 848,
      "gets": 849,
      "had": 850,
      "ward": 851,
      "ality": 852,
      "vious": 853,
      "expect": 854,
      "despite": 855,
      "dre": 856,
      "ven": 857,
      "ination": 858,
      "cinem": 859,
      "writer": 860,
      "dit": 861,
      "ele": 862,
      "ru": 863,
      "anim": 864,
      "stru": 865,
      "beauti": 866,
      "fri": 867,
      "ger": 868,
      "ility": 869,
      "youn": 870,
      "half": 871,
      "sil": 872,
      "wit": 873,
      "before": 874,
      "ext": 875,
      "takes": 876,
      "same": 877,
      "ange": 878,
      "io": 879,
      "star": 880,
      "ionally": 881,
      "going": 882,
      "subject": 883,
      "intelli": 884,
      "19": 885,
      "coun": 886,
      "tic": 887,
      "child": 888,
      "actors": 889,
      "aren": 890,
      "ft": 891,
      "stra": 892,
      "ili": 893,
      "irl": 894,
      "making": 895,
      "flick": 896,
      "graph": 897,
      "cing": 898,
      "king": 899,
      "vid": 900,
      "ither": 901,
      "dialo": 902,
      "ider": 903,
      "things": 904,
      "gy": 905,
      "illi": 906,
      "comm": 907,
      "predict": 908,
      "mater": 909,
      "sch": 910,
      "set": 911,
      "experi": 912,
      "bra": 913,
      "men": 914,
      "als": 915,
      "start": 916,
      "exc": 917,
      "using": 918,
      "sweet": 919,
      "young": 920,
      "dialogue": 921,
      "bar": 922,
      "fas": 923,
      "ree": 924,
      "ouch": 925,
      "ired": 926,
      "scenes": 927,
      "wonder": 928,
      "music": 929,
      "material": 930,
      "cer": 931,
      "cine": 932,
      "dark": 933,
      "win": 934,
      "compelling": 935,
      "girl": 936,
      "os": 937,
      "touch": 938,
      "clich": 939,
      "give": 940,
      "hy": 941,
      "once": 942,
      "icul": 943,
      "super": 944,
      "ures": 945,
      "works": 946,
      "kids": 947,
      "har": 948,
      "rif": 949,
      "head": 950,
      "tting": 951,
      "years": 952,
      "fascin": 953,
      "gl": 954,
      "ue": 955,
      "spirit": 956,
      "certain": 957,
      "ds": 958,
      "land": 959,
      "zy": 960,
      "iment": 961,
      "sum": 962,
      "tty": 963,
      "portra": 964,
      "dull": 965,
      "line": 966,
      "pu": 967,
      "ror": 968,
      "wal": 969,
      "toge": 970,
      "ils": 971,
      "rare": 972,
      "perfect": 973,
      "empt": 974,
      "anyone": 975,
      "special": 976,
      "style": 977,
      "cinema": 978,
      "together": 979,
      "deep": 980,
      "visual": 981,
      "clever": 982,
      "emotional": 983,
      "sure": 984,
      "blo": 985,
      "sol": 986,
      "ering": 987,
      "ener": 988,
      "least": 989,
      "proble": 990,
      "bly": 991,
      "lish": 992,
      "sl": 993,
      "sou": 994,
      "ilar": 995,
      "feature": 996,
      "try": 997,
      "face": 998,
      "gives": 999,
      "away": 1000,
      "bas": 1001,
      "ca": 1002,
      "dy": 1003,
      "fel": 1004,
      "fall": 1005,
      "hel": 1006,
      "sad": 1007,
      "coming": 1008,
      "video": 1009,
      "psy": 1010,
      "ric": 1011,
      "sed": 1012,
      "wa": 1013,
      "ines": 1014,
      "dep": 1015,
      "rid": 1016,
      "explo": 1017,
      "entertainment": 1018,
      "satis": 1019,
      "cinematic": 1020,
      "ged": 1021,
      "sometimes": 1022,
      "serious": 1023,
      "hon": 1024,
      "mid": 1025,
      "narr": 1026,
      "odra": 1027,
      "pretty": 1028,
      "prob": 1029,
      "ending": 1030,
      "teen": 1031,
      "cru": 1032,
      "bur": 1033,
      "call": 1034,
      "moving": 1035,
      "ously": 1036,
      "ists": 1037,
      "mean": 1038,
      "aring": 1039,
      "lead": 1040,
      "why": 1041,
      "heav": 1042,
      "place": 1043,
      "famili": 1044,
      "stead": 1045,
      "done": 1046,
      "fans": 1047,
      "val": 1048,
      "lim": 1049,
      "susp": 1050,
      "ody": 1051,
      "ural": 1052,
      "app": 1053,
      "whole": 1054,
      "prof": 1055,
      "true": 1056,
      "possible": 1057,
      "melodra": 1058,
      "predictable": 1059,
      "familiar": 1060,
      "ball": 1061,
      "fol": 1062,
      "ton": 1063,
      "main": 1064,
      "master": 1065,
      "ams": 1066,
      "used": 1067,
      "fascinating": 1068,
      "hilar": 1069,
      "ia": 1070,
      "oper": 1071,
      "ently": 1072,
      "ula": 1073,
      "antly": 1074,
      "charm": 1075,
      "anything": 1076,
      "smart": 1077,
      "bal": 1078,
      "ek": 1079,
      "fan": 1080,
      "fact": 1081,
      "ned": 1082,
      "port": 1083,
      "usu": 1084,
      "ref": 1085,
      "espe": 1086,
      "unch": 1087,
      "aging": 1088,
      "book": 1089,
      "obvious": 1090,
      "since": 1091,
      "ben": 1092,
      "lu": 1093,
      "vo": 1094,
      "three": 1095,
      "reason": 1096,
      "lect": 1097,
      "suff": 1098,
      "short": 1099,
      "manages": 1100,
      "sco": 1101,
      "plays": 1102,
      "complete": 1103,
      "equ": 1104,
      "iev": 1105,
      "lar": 1106,
      "sor": 1107,
      "sens": 1108,
      "sound": 1109,
      "aling": 1110,
      "around": 1111,
      "lid": 1112,
      "pop": 1113,
      "quir": 1114,
      "strong": 1115,
      "laughs": 1116,
      "women": 1117,
      "experience": 1118,
      "aff": 1119,
      "cur": 1120,
      "ler": 1121,
      "mr": 1122,
      "ank": 1123,
      "iting": 1124,
      "always": 1125,
      "stud": 1126,
      "eless": 1127,
      "und": 1128,
      "direction": 1129,
      "offers": 1130,
      "polit": 1131,
      "sentiment": 1132,
      "history": 1133,
      "mur": 1134,
      "wise": 1135,
      "level": 1136,
      "ute": 1137,
      "comic": 1138,
      "qui": 1139,
      "quest": 1140,
      "talent": 1141,
      "crim": 1142,
      "capt": 1143,
      "break": 1144,
      "simply": 1145,
      "title": 1146,
      "silly": 1147,
      "narrative": 1148,
      "air": 1149,
      "prom": 1150,
      "spo": 1151,
      "instead": 1152,
      "uring": 1153,
      "likely": 1154,
      "ments": 1155,
      "everything": 1156,
      "belie": 1157,
      "turns": 1158,
      "satisf": 1159,
      "gar": 1160,
      "wed": 1161,
      "chr": 1162,
      "moder": 1163,
      "else": 1164,
      "dec": 1165,
      "actually": 1166,
      "nearly": 1167,
      "soph": 1168,
      "ively": 1169,
      "whose": 1170,
      "matter": 1171,
      "series": 1172,
      "version": 1173,
      "formula": 1174,
      "00": 1175,
      "cou": 1176,
      "dest": 1177,
      "non": 1178,
      "past": 1179,
      "slow": 1180,
      "entire": 1181,
      "dead": 1182,
      "amp": 1183,
      "urb": 1184,
      "insight": 1185,
      "ized": 1186,
      "genre": 1187,
      "horror": 1188,
      "side": 1189,
      "top": 1190,
      "uni": 1191,
      "effort": 1192,
      "filmmakers": 1193,
      "tu": 1194,
      "tv": 1195,
      "telling": 1196,
      "allow": 1197,
      "beg": 1198,
      "live": 1199,
      "impress": 1200,
      "goes": 1201,
      "pres": 1202,
      "intri": 1203,
      "okes": 1204,
      "path": 1205,
      "looking": 1206,
      "effects": 1207,
      "consider": 1208,
      "hn": 1209,
      "home": 1210,
      "hop": 1211,
      "let": 1212,
      "advent": 1213,
      "die": 1214,
      "exam": 1215,
      "solid": 1216,
      "uses": 1217,
      "itten": 1218,
      "idea": 1219,
      "screenplay": 1220,
      "success": 1221,
      "differ": 1222,
      "modern": 1223,
      "ding": 1224,
      "fine": 1225,
      "mise": 1226,
      "tell": 1227,
      "zz": 1228,
      "ities": 1229,
      "ories": 1230,
      "sci": 1231,
      "intent": 1232,
      "trying": 1233,
      "tech": 1234,
      "fair": 1235,
      "serv": 1236,
      "delight": 1237,
      "children": 1238,
      "probably": 1239,
      "cise": 1240,
      "nor": 1241,
      "ses": 1242,
      "ze": 1243,
      "orge": 1244,
      "stre": 1245,
      "ceed": 1246,
      "ket": 1247,
      "shot": 1248,
      "prov": 1249,
      "appro": 1250,
      "ific": 1251,
      "john": 1252,
      "warm": 1253,
      "easy": 1254,
      "struct": 1255,
      "psycho": 1256,
      "honest": 1257,
      "dle": 1258,
      "gri": 1259,
      "rich": 1260,
      "thers": 1261,
      "ening": 1262,
      "ones": 1263,
      "chan": 1264,
      "abo": 1265,
      "ational": 1266,
      "premise": 1267,
      "boy": 1268,
      "hero": 1269,
      "vision": 1270,
      "iven": 1271,
      "chool": 1272,
      "engaging": 1273,
      "suspense": 1274,
      "black": 1275,
      "dan": 1276,
      "night": 1277,
      "wild": 1278,
      "invol": 1279,
      "ital": 1280,
      "viol": 1281,
      "ability": 1282,
      "dog": 1283,
      "drag": 1284,
      "earn": 1285,
      "izing": 1286,
      "subt": 1287,
      "cially": 1288,
      "enjoyable": 1289,
      "culture": 1290,
      "hold": 1291,
      "lit": 1292,
      "nch": 1293,
      "pac": 1294,
      "thor": 1295,
      "itch": 1296,
      "although": 1297,
      "becomes": 1298,
      "whe": 1299,
      "contri": 1300,
      "pain": 1301,
      "feeling": 1302,
      "particul": 1303,
      "lacks": 1304,
      "stuff": 1305,
      "intelligent": 1306,
      "must": 1307,
      "ring": 1308,
      "van": 1309,
      "arch": 1310,
      "amusing": 1311,
      "ird": 1312,
      "worst": 1313,
      "minute": 1314,
      "mix": 1315,
      "logical": 1316,
      "complex": 1317,
      "especially": 1318,
      "study": 1319,
      "bi": 1320,
      "dam": 1321,
      "fra": 1322,
      "fire": 1323,
      "lic": 1324,
      "ese": 1325,
      "debut": 1326,
      "ults": 1327,
      "actor": 1328,
      "acted": 1329,
      "written": 1330,
      "small": 1331,
      "dri": 1332,
      "pay": 1333,
      "sw": 1334,
      "reg": 1335,
      "remark": 1336,
      "roll": 1337,
      "ride": 1338,
      "romance": 1339,
      "charming": 1340,
      "directed": 1341,
      "flat": 1342,
      "affect": 1343,
      "myster": 1344,
      "treat": 1345,
      "quiet": 1346,
      "school": 1347,
      "use": 1348,
      "ery": 1349,
      "theater": 1350,
      "ons": 1351,
      "ord": 1352,
      "along": 1353,
      "beat": 1354,
      "vir": 1355,
      "terrif": 1356,
      "extre": 1357,
      "scar": 1358,
      "deser": 1359,
      "brilli": 1360,
      "import": 1361,
      "boring": 1362,
      "portrait": 1363,
      "dumb": 1364,
      "each": 1365,
      "jour": 1366,
      "jack": 1367,
      "sign": 1368,
      "unt": 1369,
      "deta": 1370,
      "defin": 1371,
      "conf": 1372,
      "project": 1373,
      "mostly": 1374,
      "ension": 1375,
      "ize": 1376,
      "occas": 1377,
      "message": 1378,
      "passion": 1379,
      "problem": 1380,
      "heavy": 1381,
      "0s": 1382,
      "cal": 1383,
      "kill": 1384,
      "sn": 1385,
      "sel": 1386,
      "sort": 1387,
      "slight": 1388,
      "ws": 1389,
      "ined": 1390,
      "itation": 1391,
      "stri": 1392,
      "rage": 1393,
      "ended": 1394,
      "dramatic": 1395,
      "velop": 1396,
      "filmmaker": 1397,
      "relation": 1398,
      "sequel": 1399,
      "surprisingly": 1400,
      "hours": 1401,
      "beautiful": 1402,
      "certainly": 1403,
      "bud": 1404,
      "gag": 1405,
      "lat": 1406,
      "mic": 1407,
      "nature": 1408,
      "next": 1409,
      "ore": 1410,
      "insp": 1411,
      "become": 1412,
      "death": 1413,
      "lives": 1414,
      "exer": 1415,
      "except": 1416,
      "ured": 1417,
      "strange": 1418,
      "everyone": 1419,
      "close": 1420,
      "beautifully": 1421,
      "soul": 1422,
      "relationship": 1423,
      "camer": 1424,
      "fant": 1425,
      "none": 1426,
      "ped": 1427,
      "sever": 1428,
      "bey": 1429,
      "cond": 1430,
      "genu": 1431,
      "french": 1432,
      "pping": 1433,
      "member": 1434,
      "viewers": 1435,
      "ready": 1436,
      "classic": 1437,
      "energy": 1438,
      "opera": 1439,
      "quirky": 1440,
      "exercise": 1441,
      "cul": 1442,
      "fat": 1443,
      "mas": 1444,
      "tar": 1445,
      "tone": 1446,
      "rest": 1447,
      "reve": 1448,
      "ouse": 1449,
      "sett": 1450,
      "potent": 1451,
      "got": 1452,
      "ustr": 1453,
      "aged": 1454,
      "guing": 1455,
      "ideas": 1456,
      "looks": 1457,
      "foc": 1458,
      "powerful": 1459,
      "leave": 1460,
      "summer": 1461,
      "falls": 1462,
      "whether": 1463,
      "beyond": 1464,
      "genuine": 1465,
      "dou": 1466,
      "either": 1467,
      "ges": 1468,
      "ima": 1469,
      "jokes": 1470,
      "nat": 1471,
      "pat": 1472,
      "pur": 1473,
      "sand": 1474,
      "recent": 1475,
      "ited": 1476,
      "rock": 1477,
      "convin": 1478,
      "appoint": 1479,
      "flu": 1480,
      "miss": 1481,
      "writing": 1482,
      "personal": 1483,
      "melodrama": 1484,
      "follow": 1485,
      "usual": 1486,
      "completely": 1487,
      "satisfying": 1488,
      "extreme": 1489,
      "ya": 1490,
      "rele": 1491,
      "tom": 1492,
      "neither": 1493,
      "emp": 1494,
      "creep": 1495,
      "grand": 1496,
      "filmmaking": 1497,
      "case": 1498,
      "large": 1499,
      "believe": 1500,
      "adventure": 1501,
      "camera": 1502,
      "fer": 1503,
      "found": 1504,
      "thin": 1505,
      "ising": 1506,
      "orable": 1507,
      "stop": 1508,
      "stick": 1509,
      "edly": 1510,
      "ase": 1511,
      "utter": 1512,
      "develop": 1513,
      "lik": 1514,
      "comb": 1515,
      "ambit": 1516,
      "dig": 1517,
      "concept": 1518,
      "taste": 1519,
      "ump": 1520,
      "pretent": 1521,
      "itty": 1522,
      "fails": 1523,
      "tries": 1524,
      "sym": 1525,
      "shows": 1526,
      "truth": 1527,
      "scene": 1528,
      "situ": 1529,
      "delivers": 1530,
      "production": 1531,
      "didn": 1532,
      "dition": 1533,
      "friend": 1534,
      "hilarious": 1535,
      "ade": 1536,
      "ace": 1537,
      "cover": 1538,
      "fash": 1539,
      "gence": 1540,
      "given": 1541,
      "iel": 1542,
      "ju": 1543,
      "list": 1544,
      "mal": 1545,
      "nice": 1546,
      "sla": 1547,
      "wind": 1548,
      "left": 1549,
      "dem": 1550,
      "dev": 1551,
      "exact": 1552,
      "post": 1553,
      "odd": 1554,
      "cks": 1555,
      "quick": 1556,
      "disappoint": 1557,
      "reality": 1558,
      "hope": 1559,
      "believ": 1560,
      "truly": 1561,
      "simple": 1562,
      "woman": 1563,
      "straight": 1564,
      "deeply": 1565,
      "intriguing": 1566,
      "earnest": 1567,
      "pretentious": 1568,
      "ama": 1569,
      "bare": 1570,
      "body": 1571,
      "cop": 1572,
      "four": 1573,
      "final": 1574,
      "ient": 1575,
      "numb": 1576,
      "tro": 1577,
      "wast": 1578,
      "refresh": 1579,
      "ony": 1580,
      "issu": 1581,
      "novel": 1582,
      "key": 1583,
      "exe": 1584,
      "expl": 1585,
      "posed": 1586,
      "ident": 1587,
      "trans": 1588,
      "faith": 1589,
      "berg": 1590,
      "subst": 1591,
      "ival": 1592,
      "understand": 1593,
      "deliver": 1594,
      "himself": 1595,
      "felt": 1596,
      "middle": 1597,
      "fashion": 1598,
      "nic": 1599,
      "icult": 1600,
      "ular": 1601,
      "proves": 1602,
      "spy": 1603,
      "tran": 1604,
      "easily": 1605,
      "difficult": 1606,
      "different": 1607,
      "above": 1608,
      "fantas": 1609,
      "execut": 1610,
      "fut": 1611,
      "fast": 1612,
      "grow": 1613,
      "hit": 1614,
      "lan": 1615,
      "male": 1616,
      "nam": 1617,
      "wil": 1618,
      "rema": 1619,
      "ress": 1620,
      "itive": 1621,
      "stup": 1622,
      "ched": 1623,
      "second": 1624,
      "maj": 1625,
      "impossible": 1626,
      "add": 1627,
      "adap": 1628,
      "cool": 1629,
      "disney": 1630,
      "free": 1631,
      "audiences": 1632,
      "taking": 1633,
      "colle": 1634,
      "fortun": 1635,
      "spectac": 1636,
      "eye": 1637,
      "touching": 1638,
      "approach": 1639,
      "occasionally": 1640,
      "exactly": 1641,
      "god": 1642,
      "ially": 1643,
      "lin": 1644,
      "mill": 1645,
      "pul": 1646,
      "ues": 1647,
      "inst": 1648,
      "oud": 1649,
      "already": 1650,
      "role": 1651,
      "road": 1652,
      "extra": 1653,
      "tage": 1654,
      "present": 1655,
      "event": 1656,
      "storytelling": 1657,
      "itting": 1658,
      "credi": 1659,
      "cost": 1660,
      "bring": 1661,
      "ground": 1662,
      "clear": 1663,
      "attempt": 1664,
      "imagin": 1665,
      "moment": 1666,
      "help": 1667,
      "meaning": 1668,
      "terrific": 1669,
      "remains": 1670,
      "dro": 1671,
      "fig": 1672,
      "fac": 1673,
      "game": 1674,
      "ii": 1675,
      "mere": 1676,
      "pri": 1677,
      "water": 1678,
      "stories": 1679,
      "ilo": 1680,
      "enty": 1681,
      "lies": 1682,
      "sust": 1683,
      "ender": 1684,
      "itely": 1685,
      "delic": 1686,
      "seeing": 1687,
      "carto": 1688,
      "images": 1689,
      "pleasure": 1690,
      "expected": 1691,
      "count": 1692,
      "cliché": 1693,
      "crime": 1694,
      "liter": 1695,
      "bing": 1696,
      "bla": 1697,
      "cour": 1698,
      "cold": 1699,
      "fle": 1700,
      "fest": 1701,
      "gone": 1702,
      "gang": 1703,
      "ier": 1704,
      "nu": 1705,
      "paren": 1706,
      "stun": 1707,
      "told": 1708,
      "leg": 1709,
      "unk": 1710,
      "force": 1711,
      "posit": 1712,
      "scious": 1713,
      "hael": 1714,
      "traged": 1715,
      "epis": 1716,
      "fron": 1717,
      "memorable": 1718,
      "political": 1719,
      "subtle": 1720,
      "particularly": 1721,
      "journey": 1722,
      "selves": 1723,
      "gags": 1724,
      "bus": 1725,
      "cross": 1726,
      "mild": 1727,
      "si": 1728,
      "sle": 1729,
      "ered": 1730,
      "remember": 1731,
      "chill": 1732,
      "sem": 1733,
      "beh": 1734,
      "poor": 1735,
      "lessly": 1736,
      "bland": 1737,
      "ocative": 1738,
      "standard": 1739,
      "mira": 1740,
      "against": 1741,
      "twist": 1742,
      "animation": 1743,
      "depth": 1744,
      "psychological": 1745,
      "mystery": 1746,
      "ordin": 1747,
      "michael": 1748,
      "stupid": 1749,
      "10": 1750,
      "bed": 1751,
      "cla": 1752,
      "dr": 1753,
      "house": 1754,
      "pra": 1755,
      "rit": 1756,
      "ug": 1757,
      "invent": 1758,
      "repe": 1759,
      "step": 1760,
      "mood": 1761,
      "ctive": 1762,
      "unity": 1763,
      "comfort": 1764,
      "getting": 1765,
      "oney": 1766,
      "poign": 1767,
      "conscious": 1768,
      "soap": 1769,
      "social": 1770,
      "cked": 1771,
      "pret": 1772,
      "weight": 1773,
      "weird": 1774,
      "iction": 1775,
      "fail": 1776,
      "crit": 1777,
      "otic": 1778,
      "visually": 1779,
      "worthy": 1780,
      "pleasant": 1781,
      "craf": 1782,
      "moral": 1783,
      "intelligence": 1784,
      "presents": 1785,
      "natural": 1786,
      "ago": 1787,
      "ga": 1788,
      "gorge": 1789,
      "lab": 1790,
      "pure": 1791,
      "tly": 1792,
      "var": 1793,
      "ali": 1794,
      "sto": 1795,
      "stay": 1796,
      "lie": 1797,
      "rol": 1798,
      "rober": 1799,
      "ames": 1800,
      "actress": 1801,
      "necess": 1802,
      "soci": 1803,
      "ellent": 1804,
      "open": 1805,
      "plain": 1806,
      "ished": 1807,
      "job": 1808,
      "brit": 1809,
      "pped": 1810,
      "anger": 1811,
      "contem": 1812,
      "histor": 1813,
      "leaves": 1814,
      "graphy": 1815,
      "cliches": 1816,
      "sentimental": 1817,
      "violence": 1818,
      "bul": 1819,
      "fight": 1820,
      "idi": 1821,
      "mes": 1822,
      "sal": 1823,
      "sim": 1824,
      "test": 1825,
      "wish": 1826,
      "inspir": 1827,
      "era": 1828,
      "theat": 1829,
      "steven": 1830,
      "ices": 1831,
      "depress": 1832,
      "loss": 1833,
      "cele": 1834,
      "shar": 1835,
      "having": 1836,
      "spor": 1837,
      "pho": 1838,
      "flash": 1839,
      "wrong": 1840,
      "logy": 1841,
      "surprising": 1842,
      "thoughtful": 1843,
      "blood": 1844,
      "murder": 1845,
      "brilliant": 1846,
      "budget": 1847,
      "adapt": 1848,
      "ah": 1849,
      "aver": 1850,
      "bility": 1851,
      "dom": 1852,
      "fu": 1853,
      "hip": 1854,
      "pan": 1855,
      "sav": 1856,
      "wel": 1857,
      "willi": 1858,
      "throw": 1859,
      "ino": 1860,
      "inv": 1861,
      "remind": 1862,
      "ises": 1863,
      "arn": 1864,
      "mad": 1865,
      "adm": 1866,
      "tern": 1867,
      "terri": 1868,
      "concer": 1869,
      "emer": 1870,
      "process": 1871,
      "tele": 1872,
      "epic": 1873,
      "guys": 1874,
      "overall": 1875,
      "desper": 1876,
      "green": 1877,
      "bles": 1878,
      "hood": 1879,
      "result": 1880,
      "days": 1881,
      "color": 1882,
      "attent": 1883,
      "finally": 1884,
      "satire": 1885,
      "tedious": 1886,
      "appeal": 1887,
      "keeps": 1888,
      "succeed": 1889,
      "remarkable": 1890,
      "inspired": 1891,
      "city": 1892,
      "gro": 1893,
      "ham": 1894,
      "ode": 1895,
      "pal": 1896,
      "park": 1897,
      "rout": 1898,
      "onic": 1899,
      "ison": 1900,
      "ister": 1901,
      "stal": 1902,
      "ley": 1903,
      "ching": 1904,
      "change": 1905,
      "secre": 1906,
      "rap": 1907,
      "forge": 1908,
      "lost": 1909,
      "white": 1910,
      "room": 1911,
      "filled": 1912,
      "sup": 1913,
      "amoun": 1914,
      "shad": 1915,
      "termin": 1916,
      "exist": 1917,
      "conne": 1918,
      "ement": 1919,
      "artist": 1920,
      "weak": 1921,
      "desc": 1922,
      "talk": 1923,
      "otherwise": 1924,
      "ensive": 1925,
      "viewer": 1926,
      "imagine": 1927,
      "needs": 1928,
      "running": 1929,
      "sequences": 1930,
      "skill": 1931,
      "elements": 1932,
      "rarely": 1933,
      "question": 1934,
      "thorough": 1935,
      "contrived": 1936,
      "creepy": 1937,
      "barely": 1938,
      "photo": 1939,
      "forgett": 1940,
      "dim": 1941,
      "during": 1942,
      "fic": 1943,
      "hot": 1944,
      "ken": 1945,
      "loud": 1946,
      "punch": 1947,
      "sen": 1948,
      "yes": 1949,
      "incl": 1950,
      "anal": 1951,
      "recomm": 1952,
      "ende": 1953,
      "attra": 1954,
      "els": 1955,
      "unfortun": 1956,
      "deal": 1957,
      "fear": 1958,
      "cking": 1959,
      "haps": 1960,
      "indul": 1961,
      "guil": 1962,
      "working": 1963,
      "grace": 1964,
      "rent": 1965,
      "reson": 1966,
      "gged": 1967,
      "period": 1968,
      "starts": 1969,
      "entirely": 1970,
      "fairly": 1971,
      "important": 1972,
      "detail": 1973,
      "several": 1974,
      "slap": 1975,
      "major": 1976,
      "cartoon": 1977,
      "celebr": 1978,
      "sharp": 1979,
      "ai": 1980,
      "bond": 1981,
      "cere": 1982,
      "hell": 1983,
      "ied": 1984,
      "others": 1985,
      "oscar": 1986,
      "pse": 1987,
      "san": 1988,
      "smo": 1989,
      "wers": 1990,
      "yor": 1991,
      "inc": 1992,
      "inno": 1993,
      "indi": 1994,
      "anch": 1995,
      "respect": 1996,
      "town": 1997,
      "asp": 1998,
      "chall": 1999,
      "ung": 2000,
      "vivid": 2001,
      "absur": 2002,
      "among": 2003,
      "adults": 2004,
      "diver": 2005,
      "pose": 2006,
      "perhaps": 2007,
      "accomp": 2008,
      "offer": 2009,
      "fav": 2010,
      "speak": 2011,
      "engross": 2012,
      "frustr": 2013,
      "david": 2014,
      "cheap": 2015,
      "cute": 2016,
      "build": 2017,
      "sexual": 2018,
      "eyes": 2019,
      "dream": 2020,
      "animated": 2021,
      "excellent": 2022,
      "wonderful": 2023,
      "based": 2024,
      "crush": 2025,
      "urban": 2026,
      "future": 2027,
      "parents": 2028,
      "tragedy": 2029,
      "behind": 2030,
      "attention": 2031,
      "bol": 2032,
      "kin": 2033,
      "leng": 2034,
      "mart": 2035,
      "pic": 2036,
      "round": 2037,
      "sour": 2038,
      "witty": 2039,
      "zing": 2040,
      "ened": 2041,
      "atory": 2042,
      "assu": 2043,
      "deed": 2044,
      "decent": 2045,
      "demon": 2046,
      "lots": 2047,
      "absor": 2048,
      "doing": 2049,
      "construct": 2050,
      "haun": 2051,
      "quality": 2052,
      "prec": 2053,
      "ides": 2054,
      "thanks": 2055,
      "trou": 2056,
      "funni": 2057,
      "comedies": 2058,
      "playing": 2059,
      "themselves": 2060,
      "typ": 2061,
      "frank": 2062,
      "imagination": 2063,
      "emotionally": 2064,
      "awful": 2065,
      "gentle": 2066,
      "medio": 2067,
      "handed": 2068,
      "possi": 2069,
      "appealing": 2070,
      "fiel": 2071,
      "shoot": 2072,
      "brain": 2073,
      "christ": 2074,
      "impressive": 2075,
      "convincing": 2076,
      "fantasy": 2077,
      "imaginative": 2078,
      "sustain": 2079,
      "gorgeous": 2080,
      "adaptation": 2081,
      "thoroughly": 2082,
      "engrossing": 2083,
      "length": 2084,
      "aim": 2085,
      "band": 2086,
      "camp": 2087,
      "date": 2088,
      "han": 2089,
      "hom": 2090,
      "ost": 2091,
      "song": 2092,
      "tired": 2093,
      "thetic": 2094,
      "remake": 2095,
      "chem": 2096,
      "lock": 2097,
      "rob": 2098,
      "express": 2099,
      "conce": 2100,
      "confl": 2101,
      "convent": 2102,
      "worse": 2103,
      "spl": 2104,
      "guy": 2105,
      "creative": 2106,
      "bling": 2107,
      "maybe": 2108,
      "points": 2109,
      "knows": 2110,
      "career": 2111,
      "single": 2112,
      "disturb": 2113,
      "cultural": 2114,
      "girls": 2115,
      "perfectly": 2116,
      "latest": 2117,
      "ambitious": 2118,
      "merely": 2119,
      "forgettable": 2120,
      "kis": 2121,
      "kno": 2122,
      "mc": 2123,
      "mble": 2124,
      "oid": 2125,
      "py": 2126,
      "sess": 2127,
      "squ": 2128,
      "tor": 2129,
      "wan": 2130,
      "reach": 2131,
      "ised": 2132,
      "ential": 2133,
      "ution": 2134,
      "vides": 2135,
      "forced": 2136,
      "ries": 2137,
      "oles": 2138,
      "manner": 2139,
      "scary": 2140,
      "taph": 2141,
      "tains": 2142,
      "quis": 2143,
      "goof": 2144,
      "umph": 2145,
      "uss": 2146,
      "spark": 2147,
      "someone": 2148,
      "somewhat": 2149,
      "charis": 2150,
      "events": 2151,
      "herent": 2152,
      "metaph": 2153,
      "ishing": 2154,
      "complic": 2155,
      "inside": 2156,
      "joke": 2157,
      "prim": 2158,
      "magic": 2159,
      "triumph": 2160,
      "taken": 2161,
      "plenty": 2162,
      "surprise": 2163,
      "contin": 2164,
      "beauty": 2165,
      "effective": 2166,
      "curi": 2167,
      "winning": 2168,
      "utely": 2169,
      "begins": 2170,
      "until": 2171,
      "definitely": 2172,
      "issues": 2173,
      "ordinary": 2174,
      "ugly": 2175,
      "supposed": 2176,
      "90": 2177,
      "bri": 2178,
      "biz": 2179,
      "dry": 2180,
      "eu": 2181,
      "lad": 2182,
      "ude": 2183,
      "wi": 2184,
      "revel": 2185,
      "ands": 2186,
      "lets": 2187,
      "enter": 2188,
      "unsett": 2189,
      "absol": 2190,
      "imm": 2191,
      "near": 2192,
      "usion": 2193,
      "prede": 2194,
      "preci": 2195,
      "wever": 2196,
      "provides": 2197,
      "trick": 2198,
      "creates": 2199,
      "grant": 2200,
      "lovely": 2201,
      "centr": 2202,
      "watchable": 2203,
      "however": 2204,
      "emotions": 2205,
      "america": 2206,
      "pictures": 2207,
      "highly": 2208,
      "corn": 2209,
      "consist": 2210,
      "happy": 2211,
      "captures": 2212,
      "sophistic": 2213,
      "unfortunately": 2214,
      "200": 2215,
      "bs": 2216,
      "bow": 2217,
      "cli": 2218,
      "gic": 2219,
      "jap": 2220,
      "listic": 2221,
      "nes": 2222,
      "num": 2223,
      "pull": 2224,
      "slo": 2225,
      "uck": 2226,
      "uous": 2227,
      "vic": 2228,
      "reli": 2229,
      "resp": 2230,
      "reward": 2231,
      "stage": 2232,
      "stars": 2233,
      "asure": 2234,
      "move": 2235,
      "search": 2236,
      "mach": 2237,
      "ament": 2238,
      "rive": 2239,
      "share": 2240,
      "shak": 2241,
      "female": 2242,
      "ury": 2243,
      "word": 2244,
      "prove": 2245,
      "opport": 2246,
      "oking": 2247,
      "design": 2248,
      "pace": 2249,
      "brings": 2250,
      "cris": 2251,
      "throughout": 2252,
      "observ": 2253,
      "huge": 2254,
      "memory": 2255,
      "relent": 2256,
      "rug": 2257,
      "strugg": 2258,
      "exciting": 2259,
      "suffers": 2260,
      "talented": 2261,
      "examination": 2262,
      "provocative": 2263,
      "utterly": 2264,
      "numbers": 2265,
      "execution": 2266,
      "crafted": 2267,
      "robert": 2268,
      "historical": 2269,
      "welcome": 2270,
      "williams": 2271,
      "connect": 2272,
      "york": 2273,
      "challeng": 2274,
      "field": 2275,
      "conflict": 2276,
      "20": 2277,
      "batt": 2278,
      "cir": 2279,
      "crow": 2280,
      "eth": 2281,
      "gay": 2282,
      "gross": 2283,
      "jer": 2284,
      "ki": 2285,
      "lines": 2286,
      "nel": 2287,
      "nical": 2288,
      "pen": 2289,
      "pun": 2290,
      "wren": 2291,
      "xx": 2292,
      "intim": 2293,
      "ato": 2294,
      "ats": 2295,
      "escap": 2296,
      "alone": 2297,
      "iche": 2298,
      "sets": 2299,
      "deft": 2300,
      "determin": 2301,
      "sugg": 2302,
      "ades": 2303,
      "allen": 2304,
      "words": 2305,
      "appreci": 2306,
      "spiel": 2307,
      "ify": 2308,
      "boys": 2309,
      "ety": 2310,
      "track": 2311,
      "pair": 2312,
      "paint": 2313,
      "minor": 2314,
      "ensemble": 2315,
      "impact": 2316,
      "parts": 2317,
      "avoid": 2318,
      "superfic": 2319,
      "deserves": 2320,
      "fashioned": 2321,
      "college": 2322,
      "course": 2323,
      "contempor": 2324,
      "recommend": 2325,
      "predecess": 2326,
      "japan": 2327,
      "suggest": 2328,
      "bers": 2329,
      "bag": 2330,
      "fare": 2331,
      "gun": 2332,
      "gif": 2333,
      "ja": 2334,
      "mil": 2335,
      "name": 2336,
      "sac": 2337,
      "ters": 2338,
      "tension": 2339,
      "vul": 2340,
      "vag": 2341,
      "inning": 2342,
      "compe": 2343,
      "supp": 2344,
      "ried": 2345,
      "sha": 2346,
      "dies": 2347,
      "pos": 2348,
      "manip": 2349,
      "istry": 2350,
      "usi": 2351,
      "previous": 2352,
      "prop": 2353,
      "apart": 2354,
      "agger": 2355,
      "upon": 2356,
      "across": 2357,
      "offensive": 2358,
      "orting": 2359,
      "gress": 2360,
      "bled": 2361,
      "grou": 2362,
      "wash": 2363,
      "ivity": 2364,
      "giving": 2365,
      "monster": 2366,
      "stylish": 2367,
      "awk": 2368,
      "breath": 2369,
      "wants": 2370,
      "sincere": 2371,
      "surprises": 2372,
      "skin": 2373,
      "flaws": 2374,
      "country": 2375,
      "masterpiece": 2376,
      "unique": 2377,
      "pathy": 2378,
      "delightful": 2379,
      "involving": 2380,
      "paced": 2381,
      "target": 2382,
      "potential": 2383,
      "friendship": 2384,
      "quickly": 2385,
      "poignant": 2386,
      "sports": 2387,
      "average": 2388,
      "amount": 2389,
      "accomplish": 2390,
      "chemistry": 2391,
      "crowd": 2392,
      "spielberg": 2393,
      "manipul": 2394,
      "ba": 2395,
      "bt": 2396,
      "bright": 2397,
      "cand": 2398,
      "catch": 2399,
      "ec": 2400,
      "fit": 2401,
      "fly": 2402,
      "five": 2403,
      "gn": 2404,
      "ging": 2405,
      "jud": 2406,
      "money": 2407,
      "rhy": 2408,
      "saw": 2409,
      "tun": 2410,
      "report": 2411,
      "atmo": 2412,
      "orious": 2413,
      "arily": 2414,
      "unfunny": 2415,
      "unexpected": 2416,
      "lip": 2417,
      "rote": 2418,
      "commer": 2419,
      "tast": 2420,
      "hack": 2421,
      "emb": 2422,
      "anti": 2423,
      "deriv": 2424,
      "trash": 2425,
      "clum": 2426,
      "create": 2427,
      "played": 2428,
      "realistic": 2429,
      "trip": 2430,
      "lacking": 2431,
      "casting": 2432,
      "broad": 2433,
      "pieces": 2434,
      "thinking": 2435,
      "generic": 2436,
      "puts": 2437,
      "flawed": 2438,
      "walk": 2439,
      "called": 2440,
      "apparen": 2441,
      "profess": 2442,
      "melodramatic": 2443,
      "usually": 2444,
      "sensitive": 2445,
      "formulaic": 2446,
      "couple": 2447,
      "frame": 2448,
      "virt": 2449,
      "relationships": 2450,
      "situation": 2451,
      "waste": 2452,
      "explor": 2453,
      "faithful": 2454,
      "front": 2455,
      "repetit": 2456,
      "necessary": 2457,
      "routine": 2458,
      "mediocre": 2459,
      "unsettling": 2460,
      "contemporary": 2461,
      "awkward": 2462,
      "atmosp": 2463,
      "cat": 2464,
      "flow": 2465,
      "fiction": 2466,
      "gon": 2467,
      "iest": 2468,
      "ns": 2469,
      "rous": 2470,
      "vil": 2471,
      "zen": 2472,
      "anced": 2473,
      "eness": 2474,
      "atter": 2475,
      "stren": 2476,
      "toward": 2477,
      "mother": 2478,
      "uneven": 2479,
      "raw": 2480,
      "living": 2481,
      "whim": 2482,
      "fill": 2483,
      "shop": 2484,
      "george": 2485,
      "exp": 2486,
      "poe": 2487,
      "const": 2488,
      "sca": 2489,
      "cannot": 2490,
      "authen": 2491,
      "mud": 2492,
      "travel": 2493,
      "philo": 2494,
      "match": 2495,
      "pathetic": 2496,
      "brut": 2497,
      "blue": 2498,
      "badly": 2499,
      "century": 2500,
      "hardly": 2501,
      "marvel": 2502,
      "ultimate": 2503,
      "niro": 2504,
      "intellect": 2505,
      "studi": 2506,
      "deni": 2507,
      "eleg": 2508,
      "flicks": 2509,
      "seriously": 2510,
      "leads": 2511,
      "successful": 2512,
      "involved": 2513,
      "jackson": 2514,
      "slightly": 2515,
      "reveals": 2516,
      "focus": 2517,
      "extremely": 2518,
      "believable": 2519,
      "costum": 2520,
      "episode": 2521,
      "mildly": 2522,
      "inventive": 2523,
      "shadow": 2524,
      "trouble": 2525,
      "conventional": 2526,
      "sophisticated": 2527,
      "rhyth": 2528,
      "danger": 2529,
      "hill": 2530,
      "hate": 2531,
      "ium": 2532,
      "nick": 2533,
      "ron": 2534,
      "sar": 2535,
      "sod": 2536,
      "tough": 2537,
      "yal": 2538,
      "zed": 2539,
      "thro": 2540,
      "iny": 2541,
      "indeed": 2542,
      "ances": 2543,
      "requ": 2544,
      "reco": 2545,
      "andering": 2546,
      "arre": 2547,
      "edge": 2548,
      "chang": 2549,
      "una": 2550,
      "ram": 2551,
      "lif": 2552,
      "outrage": 2553,
      "terms": 2554,
      "exper": 2555,
      "pot": 2556,
      "ousy": 2557,
      "ups": 2558,
      "teach": 2559,
      "tragic": 2560,
      "company": 2561,
      "credit": 2562,
      "core": 2563,
      "disgu": 2564,
      "izes": 2565,
      "oty": 2566,
      "aked": 2567,
      "achiev": 2568,
      "ppy": 2569,
      "yourself": 2570,
      "hearted": 2571,
      "thrills": 2572,
      "writers": 2573,
      "attemp": 2574,
      "viewing": 2575,
      "finds": 2576,
      "crazy": 2577,
      "appears": 2578,
      "distin": 2579,
      "shock": 2580,
      "twists": 2581,
      "counter": 2582,
      "graphic": 2583,
      "publ": 2584,
      "problems": 2585,
      "depend": 2586,
      "courage": 2587,
      "provoking": 2588,
      "gripping": 2589,
      "pacing": 2590,
      "doubt": 2591,
      "largely": 2592,
      "substance": 2593,
      "langu": 2594,
      "business": 2595,
      "succeeds": 2596,
      "descri": 2597,
      "indulgent": 2598,
      "favor": 2599,
      "demonstr": 2600,
      "2002": 2601,
      "intimate": 2602,
      "superficial": 2603,
      "philosoph": 2604,
      "attempts": 2605,
      "bes": 2606,
      "brid": 2607,
      "drug": 2608,
      "fing": 2609,
      "flo": 2610,
      "hits": 2611,
      "ives": 2612,
      "lame": 2613,
      "national": 2614,
      "pin": 2615,
      "pes": 2616,
      "sight": 2617,
      "sick": 2618,
      "inf": 2619,
      "inner": 2620,
      "redu": 2621,
      "recor": 2622,
      "enth": 2623,
      "stom": 2624,
      "stere": 2625,
      "setting": 2626,
      "vey": 2627,
      "ghost": 2628,
      "shallow": 2629,
      "poet": 2630,
      "ared": 2631,
      "quently": 2632,
      "space": 2633,
      "uster": 2634,
      "evil": 2635,
      "intense": 2636,
      "aster": 2637,
      "bot": 2638,
      "itted": 2639,
      "compass": 2640,
      "created": 2641,
      "dramat": 2642,
      "paul": 2643,
      "tten": 2644,
      "atingly": 2645,
      "served": 2646,
      "ization": 2647,
      "aks": 2648,
      "getic": 2649,
      "themes": 2650,
      "obsess": 2651,
      "stein": 2652,
      "interested": 2653,
      "missing": 2654,
      "turned": 2655,
      "originality": 2656,
      "meditation": 2657,
      "general": 2658,
      "runs": 2659,
      "produced": 2660,
      "happens": 2661,
      "ridicul": 2662,
      "heaven": 2663,
      "soundtrack": 2664,
      "promise": 2665,
      "considerable": 2666,
      "stream": 2667,
      "holds": 2668,
      "painful": 2669,
      "affection": 2670,
      "imax": 2671,
      "purpose": 2672,
      "sandler": 2673,
      "refreshing": 2674,
      "terrible": 2675,
      "television": 2676,
      "colorful": 2677,
      "constructed": 2678,
      "possibly": 2679,
      "disturbing": 2680,
      "goofy": 2681,
      "bizarre": 2682,
      "absolutely": 2683,
      "battle": 2684,
      "poetry": 2685,
      "authentic": 2686,
      "bir": 2687,
      "card": 2688,
      "dled": 2689,
      "fal": 2690,
      "fur": 2691,
      "fright": 2692,
      "gth": 2693,
      "glim": 2694,
      "ka": 2695,
      "ko": 2696,
      "kick": 2697,
      "late": 2698,
      "nal": 2699,
      "nar": 2700,
      "pian": 2701,
      "rum": 2702,
      "rical": 2703,
      "uc": 2704,
      "vs": 2705,
      "vy": 2706,
      "thre": 2707,
      "incredi": 2708,
      "resem": 2709,
      "itable": 2710,
      "esy": 2711,
      "alan": 2712,
      "altern": 2713,
      "ask": 2714,
      "lee": 2715,
      "cher": 2716,
      "chop": 2717,
      "sea": 2718,
      "unlike": 2719,
      "devo": 2720,
      "forget": 2721,
      "loses": 2722,
      "admira": 2723,
      "rip": 2724,
      "sham": 2725,
      "feat": 2726,
      "excess": 2727,
      "exhilar": 2728,
      "conv": 2729,
      "soon": 2730,
      "ante": 2731,
      "ants": 2732,
      "ided": 2733,
      "ateur": 2734,
      "somehow": 2735,
      "intro": 2736,
      "board": 2737,
      "auto": 2738,
      "guess": 2739,
      "phy": 2740,
      "blend": 2741,
      "centric": 2742,
      "couldn": 2743,
      "resist": 2744,
      "tread": 2745,
      "plan": 2746,
      "franch": 2747,
      "arring": 2748,
      "wanted": 2749,
      "said": 2750,
      "dress": 2751,
      "spirited": 2752,
      "spiritual": 2753,
      "push": 2754,
      "appy": 2755,
      "profound": 2756,
      "equally": 2757,
      "politics": 2758,
      "sentimentality": 2759,
      "murphy": 2760,
      "chris": 2761,
      "science": 2762,
      "service": 2763,
      "swim": 2764,
      "regard": 2765,
      "strangely": 2766,
      "situations": 2767,
      "transc": 2768,
      "stunning": 2769,
      "sleep": 2770,
      "british": 2771,
      "absurd": 2772,
      "absorbing": 2773,
      "typical": 2774,
      "wife": 2775,
      "number": 2776,
      "commercial": 2777,
      "strength": 2778,
      "enthusi": 2779,
      "stereoty": 2780,
      "ridiculous": 2781,
      "franchise": 2782,
      "70s": 2783,
      "bits": 2784,
      "bold": 2785,
      "cam": 2786,
      "dish": 2787,
      "eper": 2788,
      "fold": 2789,
      "hang": 2790,
      "mers": 2791,
      "nich": 2792,
      "ots": 2793,
      "pick": 2794,
      "ris": 2795,
      "ti": 2796,
      "tire": 2797,
      "tender": 2798,
      "va": 2799,
      "wall": 2800,
      "ina": 2801,
      "indie": 2802,
      "anno": 2803,
      "ancy": 2804,
      "erber": 2805,
      "thes": 2806,
      "reno": 2807,
      "onder": 2808,
      "ator": 2809,
      "orm": 2810,
      "alive": 2811,
      "anders": 2812,
      "aris": 2813,
      "aries": 2814,
      "today": 2815,
      "aside": 2816,
      "chy": 2817,
      "chant": 2818,
      "modest": 2819,
      "moore": 2820,
      "entially": 2821,
      "unintent": 2822,
      "depict": 2823,
      "ford": 2824,
      "liber": 2825,
      "whate": 2826,
      "amateur": 2827,
      "adoles": 2828,
      "shy": 2829,
      "shap": 2830,
      "essentially": 2831,
      "lay": 2832,
      "poster": 2833,
      "peter": 2834,
      "contra": 2835,
      "tack": 2836,
      "tagon": 2837,
      "ified": 2838,
      "somewhere": 2839,
      "means": 2840,
      "access": 2841,
      "cliche": 2842,
      "cred": 2843,
      "coherent": 2844,
      "wry": 2845,
      "cry": 2846,
      "survi": 2847,
      "surround": 2848,
      "spec": 2849,
      "foo": 2850,
      "object": 2851,
      "dazz": 2852,
      "check": 2853,
      "please": 2854,
      "finish": 2855,
      "arrass": 2856,
      "generation": 2857,
      "sequence": 2858,
      "product": 2859,
      "sexy": 2860,
      "venge": 2861,
      "cinemato": 2862,
      "excit": 2863,
      "energetic": 2864,
      "obviously": 2865,
      "popcorn": 2866,
      "questions": 2867,
      "breaking": 2868,
      "wedding": 2869,
      "tells": 2870,
      "techno": 2871,
      "grief": 2872,
      "painfully": 2873,
      "affecting": 2874,
      "liked": 2875,
      "eventually": 2876,
      "clichés": 2877,
      "blade": 2878,
      "mesmer": 2879,
      "depressing": 2880,
      "secret": 2881,
      "guilty": 2882,
      "smoo": 2883,
      "haunting": 2884,
      "metaphor": 2885,
      "central": 2886,
      "victim": 2887,
      "eccentric": 2888,
      "embarrass": 2889,
      "derivative": 2890,
      "virtually": 2891,
      "soderber": 2892,
      "public": 2893,
      "whatever": 2894,
      "soderbergh": 2895,
      "bio": 2896,
      "cable": 2897,
      "came": 2898,
      "gut": 2899,
      "gory": 2900,
      "hi": 2901,
      "hun": 2902,
      "hem": 2903,
      "hur": 2904,
      "jones": 2905,
      "kes": 2906,
      "ponder": 2907,
      "sun": 2908,
      "sket": 2909,
      "sitting": 2910,
      "ura": 2911,
      "revol": 2912,
      "stir": 2913,
      "iling": 2914,
      "bears": 2915,
      "undeni": 2916,
      "unfold": 2917,
      "loose": 2918,
      "root": 2919,
      "sugar": 2920,
      "within": 2921,
      "irrit": 2922,
      "powers": 2923,
      "scr": 2924,
      "quent": 2925,
      "artistic": 2926,
      "gotten": 2927,
      "intended": 2928,
      "upper": 2929,
      "bog": 2930,
      "places": 2931,
      "ption": 2932,
      "comprom": 2933,
      "mention": 2934,
      "ires": 2935,
      "father": 2936,
      "price": 2937,
      "earth": 2938,
      "ieve": 2939,
      "talking": 2940,
      "strict": 2941,
      "surface": 2942,
      "screenwriter": 2943,
      "party": 2944,
      "resol": 2945,
      "motion": 2946,
      "versal": 2947,
      "treasure": 2948,
      "clearly": 2949,
      "worthwhile": 2950,
      "members": 2951,
      "aware": 2952,
      "capable": 2953,
      "brown": 2954,
      "humanity": 2955,
      "needed": 2956,
      "marks": 2957,
      "generally": 2958,
      "ondz": 2959,
      "shots": 2960,
      "dreams": 2961,
      "witch": 2962,
      "solondz": 2963,
      "slice": 2964,
      "voice": 2965,
      "affair": 2966,
      "spook": 2967,
      "insightful": 2968,
      "allows": 2969,
      "warmth": 2970,
      "dragon": 2971,
      "remarkably": 2972,
      "genuinely": 2973,
      "likable": 2974,
      "amazing": 2975,
      "refreshingly": 2976,
      "identity": 2977,
      "ivalent": 2978,
      "spectacular": 2979,
      "vari": 2980,
      "stock": 2981,
      "parker": 2982,
      "slapstick": 2983,
      "riveting": 2984,
      "opportunity": 2985,
      "japanese": 2986,
      "atmosphere": 2987,
      "nichol": 2988,
      "tiresome": 2989,
      "footage": 2990,
      "excitement": 2991,
      "bound": 2992,
      "egr": 2993,
      "games": 2994,
      "hen": 2995,
      "hic": 2996,
      "hall": 2997,
      "hmer": 2998,
      "jac": 2999,
      "later": 3000,
      "sof": 3001,
      "snow": 3002,
      "sink": 3003,
      "vard": 3004,
      "za": 3005,
      "ão": 3006,
      "third": 3007,
      "incre": 3008,
      "theless": 3009,
      "revenge": 3010,
      "ency": 3011,
      "andon": 3012,
      "arity": 3013,
      "ario": 3014,
      "stif": 3015,
      "lying": 3016,
      "cha": 3017,
      "seat": 3018,
      "beha": 3019,
      "max": 3020,
      "unusual": 3021,
      "vehic": 3022,
      "forts": 3023,
      "load": 3024,
      "filmed": 3025,
      "shame": 3026,
      "lazy": 3027,
      "iran": 3028,
      "terror": 3029,
      "concl": 3030,
      "goers": 3031,
      "preach": 3032,
      "week": 3033,
      "protagon": 3034,
      "hasn": 3035,
      "integr": 3036,
      "aston": 3037,
      "acy": 3038,
      "overly": 3039,
      "insky": 3040,
      "willing": 3041,
      "pack": 3042,
      "packed": 3043,
      "directors": 3044,
      "wrought": 3045,
      "surreal": 3046,
      "frequently": 3047,
      "achieve": 3048,
      "efforts": 3049,
      "udlin": 3050,
      "tribut": 3051,
      "wouldn": 3052,
      "heartfelt": 3053,
      "famil": 3054,
      "greatest": 3055,
      "queen": 3056,
      "simplistic": 3057,
      "minded": 3058,
      "mindless": 3059,
      "perspect": 3060,
      "horri": 3061,
      "musical": 3062,
      "friends": 3063,
      "graphed": 3064,
      "community": 3065,
      "harm": 3066,
      "slick": 3067,
      "wait": 3068,
      "balance": 3069,
      "refer": 3070,
      "equivalent": 3071,
      "affir": 3072,
      "captiv": 3073,
      "spoof": 3074,
      "decades": 3075,
      "wildly": 3076,
      "particular": 3077,
      "damned": 3078,
      "treatment": 3079,
      "signific": 3080,
      "focused": 3081,
      "spectacle": 3082,
      "delicate": 3083,
      "gangster": 3084,
      "poorly": 3085,
      "alien": 3086,
      "bullock": 3087,
      "martin": 3088,
      "precious": 3089,
      "kissing": 3090,
      "charisma": 3091,
      "complicated": 3092,
      "group": 3093,
      "manipulative": 3094,
      "compassion": 3095,
      "aust": 3096,
      "ban": 3097,
      "bil": 3098,
      "cies": 3099,
      "eur": 3100,
      "fish": 3101,
      "gan": 3102,
      "gest": 3103,
      "gust": 3104,
      "hoff": 3105,
      "jason": 3106,
      "james": 3107,
      "mult": 3108,
      "rup": 3109,
      "russ": 3110,
      "tour": 3111,
      "tick": 3112,
      "ties": 3113,
      "udes": 3114,
      "wis": 3115,
      "yarn": 3116,
      "theme": 3117,
      "iss": 3118,
      "itude": 3119,
      "ander": 3120,
      "arter": 3121,
      "stale": 3122,
      "editing": 3123,
      "aspect": 3124,
      "leon": 3125,
      "leby": 3126,
      "omb": 3127,
      "season": 3128,
      "uter": 3129,
      "bear": 3130,
      "deeper": 3131,
      "loc": 3132,
      "nold": 3133,
      "filling": 3134,
      "ami": 3135,
      "ado": 3136,
      "hear": 3137,
      "provide": 3138,
      "inted": 3139,
      "indust": 3140,
      "inept": 3141,
      "funct": 3142,
      "acious": 3143,
      "accept": 3144,
      "team": 3145,
      "justice": 3146,
      "tradit": 3147,
      "computer": 3148,
      "offering": 3149,
      "draw": 3150,
      "directorial": 3151,
      "serves": 3152,
      "foot": 3153,
      "wasn": 3154,
      "ived": 3155,
      "angst": 3156,
      "angle": 3157,
      "longer": 3158,
      "render": 3159,
      "turning": 3160,
      "pointless": 3161,
      "holes": 3162,
      "standing": 3163,
      "buy": 3164,
      "broom": 3165,
      "brothers": 3166,
      "pses": 3167,
      "relative": 3168,
      "sitcom": 3169,
      "possess": 3170,
      "reading": 3171,
      "subjects": 3172,
      "empty": 3173,
      "value": 3174,
      "fantast": 3175,
      "score": 3176,
      "sounds": 3177,
      "promising": 3178,
      "nonsense": 3179,
      "universal": 3180,
      "stret": 3181,
      "violent": 3182,
      "quietly": 3183,
      "killer": 3184,
      "release": 3185,
      "development": 3186,
      "combination": 3187,
      "extraordinary": 3188,
      "figure": 3189,
      "festival": 3190,
      "inspiring": 3191,
      "concerned": 3192,
      "assured": 3193,
      "funnier": 3194,
      "challenging": 3195,
      "deftly": 3196,
      "competent": 3197,
      "professional": 3198,
      "villa": 3199,
      "studio": 3200,
      "outrageous": 3201,
      "achieves": 3202,
      "stomach": 3203,
      "further": 3204,
      "devoid": 3205,
      "exhilarating": 3206,
      "amateurish": 3207,
      "adolescent": 3208,
      "credits": 3209,
      "mesmerizing": 3210,
      "behavi": 3211,
      "vehicle": 3212,
      "hoffman": 3213,
      "bum": 3214,
      "bitt": 3215,
      "dance": 3216,
      "daring": 3217,
      "eve": 3218,
      "ego": 3219,
      "eff": 3220,
      "fman": 3221,
      "gor": 3222,
      "gli": 3223,
      "gid": 3224,
      "hide": 3225,
      "ience": 3226,
      "kau": 3227,
      "nation": 3228,
      "nast": 3229,
      "oy": 3230,
      "pitch": 3231,
      "rate": 3232,
      "vamp": 3233,
      "wide": 3234,
      "xed": 3235,
      "zo": 3236,
      "thir": 3237,
      "anks": 3238,
      "recy": 3239,
      "represents": 3240,
      "ition": 3241,
      "sters": 3242,
      "toss": 3243,
      "educ": 3244,
      "iler": 3245,
      "chase": 3246,
      "chuck": 3247,
      "seag": 3248,
      "uted": 3249,
      "vibr": 3250,
      "demo": 3251,
      "format": 3252,
      "loved": 3253,
      "whel": 3254,
      "verse": 3255,
      "impro": 3256,
      "roger": 3257,
      "suspect": 3258,
      "kevin": 3259,
      "adam": 3260,
      "adult": 3261,
      "gem": 3262,
      "exquis": 3263,
      "dow": 3264,
      "hair": 3265,
      "haven": 3266,
      "embra": 3267,
      "qual": 3268,
      "preh": 3269,
      "hey": 3270,
      "spell": 3271,
      "bored": 3272,
      "makers": 3273,
      "mug": 3274,
      "phys": 3275,
      "creating": 3276,
      "drawn": 3277,
      "desire": 3278,
      "early": 3279,
      "bru": 3280,
      "plod": 3281,
      "performers": 3282,
      "izz": 3283,
      "realism": 3284,
      "ryan": 3285,
      "ashing": 3286,
      "results": 3287,
      "giant": 3288,
      "type": 3289,
      "donna": 3290,
      "scenario": 3291,
      "farce": 3292,
      "ggy": 3293,
      "gging": 3294,
      "market": 3295,
      "pleasures": 3296,
      "content": 3297,
      "control": 3298,
      "crack": 3299,
      "thinks": 3300,
      "appear": 3301,
      "save": 3302,
      "cuse": 3303,
      "eyed": 3304,
      "sheer": 3305,
      "happen": 3306,
      "dreary": 3307,
      "friday": 3308,
      "glass": 3309,
      "visuals": 3310,
      "exploit": 3311,
      "cruel": 3312,
      "values": 3313,
      "benef": 3314,
      "benign": 3315,
      "crimes": 3316,
      "appropri": 3317,
      "italian": 3318,
      "damn": 3319,
      "striking": 3320,
      "natured": 3321,
      "fatal": 3322,
      "emphas": 3323,
      "digital": 3324,
      "oddly": 3325,
      "transform": 3326,
      "stunts": 3327,
      "position": 3328,
      "chilling": 3329,
      "pract": 3330,
      "society": 3331,
      "includ": 3332,
      "analy": 3333,
      "endearing": 3334,
      "attraction": 3335,
      "diverting": 3336,
      "respons": 3337,
      "determined": 3338,
      "vulgar": 3339,
      "exploration": 3340,
      "repetitive": 3341,
      "recogn": 3342,
      "disguise": 3343,
      "poetic": 3344,
      "bottom": 3345,
      "accessible": 3346,
      "cinematography": 3347,
      "revolution": 3348,
      "irritating": 3349,
      "perspective": 3350,
      "behavior": 3351,
      "kaufman": 3352,
      "seagal": 3353,
      "11": 3354,
      "15": 3355,
      "60s": 3356,
      "bart": 3357,
      "bour": 3358,
      "blow": 3359,
      "cro": 3360,
      "cence": 3361,
      "caut": 3362,
      "ets": 3363,
      "eight": 3364,
      "eath": 3365,
      "fab": 3366,
      "gment": 3367,
      "gold": 3368,
      "gloss": 3369,
      "hart": 3370,
      "mou": 3371,
      "ners": 3372,
      "pity": 3373,
      "rand": 3374,
      "sides": 3375,
      "ub": 3376,
      "vich": 3377,
      "wre": 3378,
      "wat": 3379,
      "wra": 3380,
      "xic": 3381,
      "ón": 3382,
      "ero": 3383,
      "erce": 3384,
      "return": 3385,
      "esque": 3386,
      "ingu": 3387,
      "ingen": 3388,
      "orient": 3389,
      "asm": 3390,
      "ches": 3391,
      "chance": 3392,
      "chines": 3393,
      "elo": 3394,
      "unless": 3395,
      "unpleasant": 3396,
      "nowhere": 3397,
      "comment": 3398,
      "common": 3399,
      "outs": 3400,
      "moviemaking": 3401,
      "fears": 3402,
      "poke": 3403,
      "scors": 3404,
      "sober": 3405,
      "hay": 3406,
      "proceed": 3407,
      "spi": 3408,
      "spider": 3409,
      "indu": 3410,
      "bore": 3411,
      "overcome": 3412,
      "overwhel": 3413,
      "ffs": 3414,
      "worked": 3415,
      "woo": 3416,
      "insult": 3417,
      "cock": 3418,
      "prison": 3419,
      "paper": 3420,
      "iza": 3421,
      "playful": 3422,
      "realized": 3423,
      "grim": 3424,
      "gradu": 3425,
      "center": 3426,
      "holi": 3427,
      "hook": 3428,
      "trifle": 3429,
      "warming": 3430,
      "motiv": 3431,
      "missed": 3432,
      "monty": 3433,
      "imagery": 3434,
      "davis": 3435,
      "humorous": 3436,
      "stands": 3437,
      "enjoyed": 3438,
      "neyed": 3439,
      "fierce": 3440,
      "distingu": 3441,
      "safe": 3442,
      "195": 3443,
      "199": 3444,
      "barber": 3445,
      "barry": 3446,
      "osity": 3447,
      "dynam": 3448,
      "waiting": 3449,
      "folks": 3450,
      "reflect": 3451,
      "beneath": 3452,
      "levels": 3453,
      "spot": 3454,
      "beginning": 3455,
      "presence": 3456,
      "intrigue": 3457,
      "example": 3458,
      "intentions": 3459,
      "structure": 3460,
      "channel": 3461,
      "virtu": 3462,
      "calcul": 3463,
      "releas": 3464,
      "nicely": 3465,
      "demand": 3466,
      "issue": 3467,
      "delivered": 3468,
      "six": 3469,
      "failure": 3470,
      "emerges": 3471,
      "grown": 3472,
      "frustrating": 3473,
      "songs": 3474,
      "wanna": 3475,
      "pulls": 3476,
      "machine": 3477,
      "designed": 3478,
      "struggle": 3479,
      "predecessor": 3480,
      "shake": 3481,
      "hackneyed": 3482,
      "clumsy": 3483,
      "intellectual": 3484,
      "language": 3485,
      "birth": 3486,
      "glimpse": 3487,
      "threat": 3488,
      "incredibly": 3489,
      "admirable": 3490,
      "annoying": 3491,
      "scratch": 3492,
      "increas": 3493,
      "tribute": 3494,
      "industry": 3495,
      "chinese": 3496,
      "scorsese": 3497,
      "bang": 3498,
      "bunch": 3499,
      "cell": 3500,
      "dar": 3501,
      "dad": 3502,
      "dol": 3503,
      "dick": 3504,
      "dread": 3505,
      "east": 3506,
      "hus": 3507,
      "jol": 3508,
      "jum": 3509,
      "junk": 3510,
      "lam": 3511,
      "mend": 3512,
      "mich": 3513,
      "mile": 3514,
      "ology": 3515,
      "pit": 3516,
      "pile": 3517,
      "rough": 3518,
      "som": 3519,
      "sion": 3520,
      "sam": 3521,
      "slip": 3522,
      "sappy": 3523,
      "tight": 3524,
      "tort": 3525,
      "text": 3526,
      "west": 3527,
      "zzy": 3528,
      "influ": 3529,
      "anne": 3530,
      "reign": 3531,
      "enig": 3532,
      "alle": 3533,
      "arnold": 3534,
      "sting": 3535,
      "state": 3536,
      "starring": 3537,
      "total": 3538,
      "icy": 3539,
      "learn": 3540,
      "chic": 3541,
      "mac": 3542,
      "mage": 3543,
      "maudlin": 3544,
      "madonna": 3545,
      "vidu": 3546,
      "def": 3547,
      "decept": 3548,
      "forward": 3549,
      "ghter": 3550,
      "lier": 3551,
      "lifel": 3552,
      "ablish": 3553,
      "immed": 3554,
      "roles": 3555,
      "nostal": 3556,
      "compreh": 3557,
      "superi": 3558,
      "amy": 3559,
      "lawren": 3560,
      "acts": 3561,
      "erswe": 3562,
      "moviegoers": 3563,
      "territ": 3564,
      "excuse": 3565,
      "condition": 3566,
      "establish": 3567,
      "scale": 3568,
      "sole": 3569,
      "notice": 3570,
      "preposter": 3571,
      "provid": 3572,
      "spend": 3573,
      "hash": 3574,
      "ops": 3575,
      "opening": 3576,
      "asts": 3577,
      "box": 3578,
      "mechan": 3579,
      "meandering": 3580,
      "storyline": 3581,
      "author": 3582,
      "accent": 3583,
      "directing": 3584,
      "tear": 3585,
      "iously": 3586,
      "lessness": 3587,
      "ishes": 3588,
      "overwrought": 3589,
      "comedic": 3590,
      "matters": 3591,
      "creat": 3592,
      "disco": 3593,
      "disaster": 3594,
      "paid": 3595,
      "tted": 3596,
      "talents": 3597,
      "greek": 3598,
      "string": 3599,
      "gry": 3600,
      "gritty": 3601,
      "scream": 3602,
      "fool": 3603,
      "food": 3604,
      "grade": 3605,
      "viscer": 3606,
      "english": 3607,
      "showtime": 3608,
      "cia": 3609,
      "thrilling": 3610,
      "collect": 3611,
      "belong": 3612,
      "woody": 3613,
      "damage": 3614,
      "emotion": 3615,
      "cuts": 3616,
      "marg": 3617,
      "award": 3618,
      "brother": 3619,
      "mike": 3620,
      "logic": 3621,
      "foreign": 3622,
      "horrif": 3623,
      "delivery": 3624,
      "morality": 3625,
      "sade": 3626,
      "flair": 3627,
      "persona": 3628,
      "twice": 3629,
      "wonderfully": 3630,
      "wallow": 3631,
      "surely": 3632,
      "blown": 3633,
      "cape": 3634,
      "caust": 3635,
      "held": 3636,
      "burns": 3637,
      "mainstream": 3638,
      "luck": 3639,
      "current": 3640,
      "elessly": 3641,
      "belief": 3642,
      "iveness": 3643,
      "mixed": 3644,
      "deserve": 3645,
      "double": 3646,
      "winds": 3647,
      "devast": 3648,
      "disappointing": 3649,
      "explic": 3650,
      "grows": 3651,
      "growing": 3652,
      "miller": 3653,
      "drop": 3654,
      "standards": 3655,
      "drum": 3656,
      "stays": 3657,
      "desperate": 3658,
      "dimens": 3659,
      "sensu": 3660,
      "endeav": 3661,
      "individu": 3662,
      "source": 3663,
      "funniest": 3664,
      "sacrif": 3665,
      "accomplished": 3666,
      "apparently": 3667,
      "narc": 3668,
      "introdu": 3669,
      "dazzling": 3670,
      "protagonist": 3671,
      "bitterswe": 3672,
      "recycl": 3673,
      "vibrant": 3674,
      "benigni": 3675,
      "caution": 3676,
      "holiday": 3677,
      "superior": 3678,
      "lawrence": 3679,
      "bittersweet": 3680,
      "aid": 3681,
      "bust": 3682,
      "banal": 3683,
      "dv": 3684,
      "ded": 3685,
      "ders": 3686,
      "dare": 3687,
      "dum": 3688,
      "dys": 3689,
      "fis": 3690,
      "fro": 3691,
      "fable": 3692,
      "glo": 3693,
      "hat": 3694,
      "harr": 3695,
      "kore": 3696,
      "lon": 3697,
      "lane": 3698,
      "mitt": 3699,
      "mass": 3700,
      "oh": 3701,
      "rat": 3702,
      "slack": 3703,
      "sister": 3704,
      "tis": 3705,
      "tam": 3706,
      "udo": 3707,
      "vine": 3708,
      "wes": 3709,
      "went": 3710,
      "wow": 3711,
      "wack": 3712,
      "wrote": 3713,
      "zone": 3714,
      "tha": 3715,
      "inous": 3716,
      "inated": 3717,
      "ert": 3718,
      "remain": 3719,
      "retread": 3720,
      "ento": 3721,
      "endi": 3722,
      "enorm": 3723,
      "escape": 3724,
      "ilt": 3725,
      "iled": 3726,
      "iced": 3727,
      "chick": 3728,
      "moves": 3729,
      "becoming": 3730,
      "degre": 3731,
      "forgotten": 3732,
      "liar": 3733,
      "lived": 3734,
      "impe": 3735,
      "noir": 3736,
      "suck": 3737,
      "ambig": 3738,
      "amalan": 3739,
      "adv": 3740,
      "addition": 3741,
      "shed": 3742,
      "dir": 3743,
      "exha": 3744,
      "poon": 3745,
      "thern": 3746,
      "neg": 3747,
      "convers": 3748,
      "alling": 3749,
      "empathy": 3750,
      "romp": 3751,
      "note": 3752,
      "notion": 3753,
      "wea": 3754,
      "wears": 3755,
      "proper": 3756,
      "intens": 3757,
      "bother": 3758,
      "aud": 3759,
      "acity": 3760,
      "account": 3761,
      "teens": 3762,
      "lesson": 3763,
      "phil": 3764,
      "brought": 3765,
      "plotting": 3766,
      "minim": 3767,
      "fred": 3768,
      "grat": 3769,
      "mayhem": 3770,
      "due": 3771,
      "jeal": 3772,
      "angel": 3773,
      "anski": 3774,
      "howard": 3775,
      "syn": 3776,
      "heartwarming": 3777,
      "bigger": 3778,
      "choices": 3779,
      "mistake": 3780,
      "gio": 3781,
      "showing": 3782,
      "belly": 3783,
      "carries": 3784,
      "background": 3785,
      "cheesy": 3786,
      "laughter": 3787,
      "americans": 3788,
      "cynical": 3789,
      "ledge": 3790,
      "knowing": 3791,
      "finding": 3792,
      "logically": 3793,
      "polanski": 3794,
      "handsome": 3795,
      "ease": 3796,
      "fied": 3797,
      "borrow": 3798,
      "personality": 3799,
      "frida": 3800,
      "198": 3801,
      "experiences": 3802,
      "harvard": 3803,
      "south": 3804,
      "features": 3805,
      "caper": 3806,
      "sedu": 3807,
      "valu": 3808,
      "espeare": 3809,
      "reasonably": 3810,
      "lively": 3811,
      "technical": 3812,
      "fairy": 3813,
      "street": 3814,
      "suspenseful": 3815,
      "complexity": 3816,
      "drive": 3817,
      "journal": 3818,
      "confusing": 3819,
      "revealing": 3820,
      "fluff": 3821,
      "wilder": 3822,
      "godard": 3823,
      "priv": 3824,
      "literary": 3825,
      "furi": 3826,
      "invest": 3827,
      "secrets": 3828,
      "detailed": 3829,
      "vividly": 3830,
      "christian": 3831,
      "christmas": 3832,
      "conceived": 3833,
      "knock": 3834,
      "consistently": 3835,
      "sloppy": 3836,
      "rewarding": 3837,
      "shakespeare": 3838,
      "xxx": 3839,
      "guns": 3840,
      "dangerous": 3841,
      "teacher": 3842,
      "philosophical": 3843,
      "featuring": 3844,
      "depiction": 3845,
      "stirring": 3846,
      "unfolds": 3847,
      "iranian": 3848,
      "conclusion": 3849,
      "harmless": 3850,
      "aspects": 3851,
      "broomfield": 3852,
      "relatively": 3853,
      "fantastic": 3854,
      "nasty": 3855,
      "vampire": 3856,
      "including": 3857,
      "pokemon": 3858,
      "barbershop": 3859,
      "increasingly": 3860,
      "territory": 3861,
      "preposterous": 3862,
      "discovery": 3863,
      "cautionary": 3864,
      "exhaust": 3865,
      "12": 3866,
      "13": 3867,
      "51": 3868,
      "baff": 3869,
      "cate": 3870,
      "clau": 3871,
      "cath": 3872,
      "dau": 3873,
      "gam": 3874,
      "ians": 3875,
      "jag": 3876,
      "kap": 3877,
      "kins": 3878,
      "lud": 3879,
      "moun": 3880,
      "ping": 3881,
      "pid": 3882,
      "patch": 3883,
      "rises": 3884,
      "sill": 3885,
      "sag": 3886,
      "smug": 3887,
      "tally": 3888,
      "ture": 3889,
      "uity": 3890,
      "wick": 3891,
      "xious": 3892,
      "yu": 3893,
      "yan": 3894,
      "thous": 3895,
      "ining": 3896,
      "incon": 3897,
      "ana": 3898,
      "ancho": 3899,
      "erable": 3900,
      "remo": 3901,
      "rede": 3902,
      "enced": 3903,
      "endid": 3904,
      "ision": 3905,
      "ington": 3906,
      "arri": 3907,
      "sts": 3908,
      "stat": 3909,
      "stated": 3910,
      "took": 3911,
      "totally": 3912,
      "iles": 3913,
      "illy": 3914,
      "icrous": 3915,
      "asks": 3916,
      "assem": 3917,
      "lean": 3918,
      "lection": 3919,
      "chio": 3920,
      "cts": 3921,
      "unlikely": 3922,
      "ray": 3923,
      "race": 3924,
      "raid": 3925,
      "racy": 3926,
      "depart": 3927,
      "lips": 3928,
      "lized": 3929,
      "loving": 3930,
      "rope": 3931,
      "sud": 3932,
      "amused": 3933,
      "ada": 3934,
      "ador": 3935,
      "riage": 3936,
      "youth": 3937,
      "older": 3938,
      "lapses": 3939,
      "femin": 3940,
      "pet": 3941,
      "manage": 3942,
      "tay": 3943,
      "haw": 3944,
      "emplo": 3945,
      "arts": 3946,
      "artific": 3947,
      "ument": 3948,
      "spare": 3949,
      "spring": 3950,
      "ager": 3951,
      "agers": 3952,
      "uplif": 3953,
      "meets": 3954,
      "placed": 3955,
      "compar": 3956,
      "despair": 3957,
      "discover": 3958,
      "tales": 3959,
      "flin": 3960,
      "crass": 3961,
      "ideal": 3962,
      "afraid": 3963,
      "magn": 3964,
      "myth": 3965,
      "myself": 3966,
      "holo": 3967,
      "hearts": 3968,
      "biggest": 3969,
      "downright": 3970,
      "humour": 3971,
      "gia": 3972,
      "trek": 3973,
      "carry": 3974,
      "bitter": 3975,
      "occhio": 3976,
      "pressed": 3977,
      "martha": 3978,
      "marriage": 3979,
      "brea": 3980,
      "bree": 3981,
      "satur": 3982,
      "broken": 3983,
      "cloying": 3984,
      "polished": 3985,
      "messages": 3986,
      "nia": 3987,
      "distra": 3988,
      "born": 3989,
      "parable": 3990,
      "parody": 3991,
      "skip": 3992,
      "stuck": 3993,
      "leaving": 3994,
      "element": 3995,
      "animal": 3996,
      "commun": 3997,
      "winner": 3998,
      "cliched": 3999,
      "harry": 4000,
      "glorious": 4001,
      "block": 4002,
      "crude": 4003,
      "books": 4004,
      "scoo": 4005,
      "scott": 4006,
      "equal": 4007,
      "capture": 4008,
      "impression": 4009,
      "hopkins": 4010,
      "difference": 4011,
      "intention": 4012,
      "dancing": 4013,
      "roller": 4014,
      "importance": 4015,
      "signs": 4016,
      "details": 4017,
      "sequels": 4018,
      "tarant": 4019,
      "potentially": 4020,
      "patience": 4021,
      "following": 4022,
      "developed": 4023,
      "sympathy": 4024,
      "adequ": 4025,
      "demands": 4026,
      "wasted": 4027,
      "understanding": 4028,
      "collection": 4029,
      "literally": 4030,
      "frontal": 4031,
      "comfortable": 4032,
      "consciousness": 4033,
      "labor": 4034,
      "desperately": 4035,
      "resonant": 4036,
      "resonance": 4037,
      "speaking": 4038,
      "homage": 4039,
      "splendid": 4040,
      "known": 4041,
      "relig": 4042,
      "amente": 4043,
      "appreciate": 4044,
      "vague": 4045,
      "washington": 4046,
      "attered": 4047,
      "constantly": 4048,
      "brutal": 4049,
      "elegant": 4050,
      "rhythms": 4051,
      "experiment": 4052,
      "dependent": 4053,
      "pinocchio": 4054,
      "record": 4055,
      "false": 4056,
      "conviction": 4057,
      "shyamalan": 4058,
      "strictly": 4059,
      "spooky": 4060,
      "jacqu": 4061,
      "soft": 4062,
      "preachy": 4063,
      "families": 4064,
      "horrible": 4065,
      "affirming": 4066,
      "captivating": 4067,
      "kissinger": 4068,
      "austin": 4069,
      "plodding": 4070,
      "analyze": 4071,
      "immedi": 4072,
      "creativity": 4073,
      "visceral": 4074,
      "belongs": 4075,
      "dimensional": 4076,
      "fisher": 4077,
      "wacky": 4078,
      "intensity": 4079,
      "ludicrous": 4080,
      "artificial": 4081,
      "ahead": 4082,
      "bon": 4083,
      "bab": 4084,
      "bite": 4085,
      "brow": 4086,
      "bath": 4087,
      "cus": 4088,
      "drun": 4089,
      "eer": 4090,
      "econ": 4091,
      "egg": 4092,
      "eks": 4093,
      "fate": 4094,
      "fif": 4095,
      "hab": 4096,
      "hupper": 4097,
      "ique": 4098,
      "jon": 4099,
      "jes": 4100,
      "ked": 4101,
      "kung": 4102,
      "lousy": 4103,
      "luster": 4104,
      "nom": 4105,
      "nity": 4106,
      "oli": 4107,
      "pump": 4108,
      "sly": 4109,
      "sive": 4110,
      "spre": 4111,
      "sell": 4112,
      "send": 4113,
      "tem": 4114,
      "tong": 4115,
      "tempt": 4116,
      "vital": 4117,
      "init": 4118,
      "inev": 4119,
      "rece": 4120,
      "redi": 4121,
      "reaction": 4122,
      "encounter": 4123,
      "onto": 4124,
      "ingredi": 4125,
      "order": 4126,
      "lyn": 4127,
      "lyrical": 4128,
      "leigh": 4129,
      "sees": 4130,
      "maid": 4131,
      "uninspired": 4132,
      "unfaithful": 4133,
      "raunch": 4134,
      "dealing": 4135,
      "forces": 4136,
      "los": 4137,
      "whom": 4138,
      "abor": 4139,
      "abandon": 4140,
      "vern": 4141,
      "suit": 4142,
      "amid": 4143,
      "advan": 4144,
      "rian": 4145,
      "shif": 4146,
      "shine": 4147,
      "outside": 4148,
      "irre": 4149,
      "neat": 4150,
      "neider": 4151,
      "conve": 4152,
      "scor": 4153,
      "percept": 4154,
      "tasty": 4155,
      "hap": 4156,
      "artists": 4157,
      "gos": 4158,
      "antial": 4159,
      "prefer": 4160,
      "heal": 4161,
      "heard": 4162,
      "wear": 4163,
      "proof": 4164,
      "progra": 4165,
      "span": 4166,
      "spent": 4167,
      "charms": 4168,
      "thank": 4169,
      "evocative": 4170,
      "igno": 4171,
      "aggress": 4172,
      "trite": 4173,
      "meant": 4174,
      "accur": 4175,
      "directs": 4176,
      "tears": 4177,
      "bleak": 4178,
      "trade": 4179,
      "tradition": 4180,
      "clarity": 4181,
      "guar": 4182,
      "timely": 4183,
      "mature": 4184,
      "office": 4185,
      "offbeat": 4186,
      "intoxic": 4187,
      "creation": 4188,
      "assass": 4189,
      "wns": 4190,
      "ensions": 4191,
      "orton": 4192,
      "serve": 4193,
      "serving": 4194,
      "looked": 4195,
      "intermitt": 4196,
      "realize": 4197,
      "freak": 4198,
      "subvers": 4199,
      "ache": 4200,
      "afric": 4201,
      "vised": 4202,
      "screenwriting": 4203,
      "seeking": 4204,
      "seemingly": 4205,
      "news": 4206,
      "wars": 4207,
      "hugh": 4208,
      "stealing": 4209,
      "smile": 4210,
      "smarter": 4211,
      "clean": 4212,
      "biting": 4213,
      "stylized": 4214,
      "cheer": 4215,
      "memories": 4216,
      "pleasing": 4217,
      "satir": 4218,
      "built": 4219,
      "closer": 4220,
      "hands": 4221,
      "titles": 4222,
      "saving": 4223,
      "succum": 4224,
      "happened": 4225,
      "expectations": 4226,
      "witness": 4227,
      "197": 4228,
      "strained": 4229,
      "committed": 4230,
      "predictably": 4231,
      "schneider": 4232,
      "touches": 4233,
      "hyper": 4234,
      "hybrid": 4235,
      "portray": 4236,
      "puzz": 4237,
      "southern": 4238,
      "basic": 4239,
      "helps": 4240,
      "sadly": 4241,
      "exploitation": 4242,
      "teenage": 4243,
      "limited": 4244,
      "mainly": 4245,
      "suffering": 4246,
      "sensi": 4247,
      "popular": 4248,
      "sophom": 4249,
      "slowly": 4250,
      "insights": 4251,
      "pathos": 4252,
      "honesty": 4253,
      "nightma": 4254,
      "frail": 4255,
      "brilliantly": 4256,
      "snap": 4257,
      "buddy": 4258,
      "image": 4259,
      "mission": 4260,
      "relev": 4261,
      "copy": 4262,
      "finale": 4263,
      "transp": 4264,
      "executed": 4265,
      "wilde": 4266,
      "extravag": 4267,
      "presented": 4268,
      "credibility": 4269,
      "figures": 4270,
      "faces": 4271,
      "faced": 4272,
      "blair": 4273,
      "episod": 4274,
      "twisted": 4275,
      "claim": 4276,
      "repeated": 4277,
      "poignancy": 4278,
      "pretension": 4279,
      "critical": 4280,
      "actresses": 4281,
      "britney": 4282,
      "theaters": 4283,
      "flashy": 4284,
      "reminds": 4285,
      "admire": 4286,
      "talkers": 4287,
      "santa": 4288,
      "innocence": 4289,
      "shooting": 4290,
      "kiss": 4291,
      "square": 4292,
      "lady": 4293,
      "observations": 4294,
      "predecessors": 4295,
      "suggests": 4296,
      "supporting": 4297,
      "candy": 4298,
      "costumes": 4299,
      "required": 4300,
      "changing": 4301,
      "planet": 4302,
      "transcends": 4303,
      "stereotypes": 4304,
      "embarrassment": 4305,
      "stiff": 4306,
      "traditional": 4307,
      "commentary": 4308,
      "released": 4309,
      "birthday": 4310,
      "dickens": 4311,
      "husband": 4312,
      "lifeless": 4313,
      "nostalgia": 4314,
      "degree": 4315,
      "dirty": 4316,
      "jealousy": 4317,
      "valuable": 4318,
      "silliness": 4319,
      "uplifting": 4320,
      "holocaust": 4321,
      "econom": 4322,
      "huppert": 4323,
      "subversive": 4324,
      "100": 4325,
      "40": 4326,
      "bone": 4327,
      "bill": 4328,
      "bid": 4329,
      "bell": 4330,
      "boun": 4331,
      "cup": 4332,
      "dong": 4333,
      "evid": 4334,
      "gal": 4335,
      "gel": 4336,
      "gain": 4337,
      "gender": 4338,
      "hong": 4339,
      "hatt": 4340,
      "hitch": 4341,
      "ior": 4342,
      "jar": 4343,
      "ker": 4344,
      "kur": 4345,
      "kong": 4346,
      "kah": 4347,
      "ls": 4348,
      "lum": 4349,
      "mary": 4350,
      "nine": 4351,
      "oo": 4352,
      "pi": 4353,
      "pil": 4354,
      "pau": 4355,
      "rise": 4356,
      "ritch": 4357,
      "sma": 4358,
      "sical": 4359,
      "sque": 4360,
      "sna": 4361,
      "tad": 4362,
      "tend": 4363,
      "uro": 4364,
      "vit": 4365,
      "wol": 4366,
      "inane": 4367,
      "inoffensive": 4368,
      "incoherent": 4369,
      "inexplic": 4370,
      "inhab": 4371,
      "ann": 4372,
      "err": 4373,
      "rew": 4374,
      "relies": 4375,
      "enn": 4376,
      "envir": 4377,
      "onscreen": 4378,
      "alab": 4379,
      "arg": 4380,
      "stunt": 4381,
      "staged": 4382,
      "tool": 4383,
      "edited": 4384,
      "ici": 4385,
      "icing": 4386,
      "asher": 4387,
      "lear": 4388,
      "chou": 4389,
      "elabor": 4390,
      "seven": 4391,
      "unab": 4392,
      "unner": 4393,
      "unflin": 4394,
      "viet": 4395,
      "rah": 4396,
      "rams": 4397,
      "raging": 4398,
      "deb": 4399,
      "lia": 4400,
      "lov": 4401,
      "lovers": 4402,
      "local": 4403,
      "vert": 4404,
      "roph": 4405,
      "ules": 4406,
      "noxious": 4407,
      "filme": 4408,
      "amor": 4409,
      "adds": 4410,
      "adams": 4411,
      "olation": 4412,
      "diversion": 4413,
      "divine": 4414,
      "lace": 4415,
      "actic": 4416,
      "actual": 4417,
      "iron": 4418,
      "exceed": 4419,
      "dot": 4420,
      "pow": 4421,
      "poem": 4422,
      "nett": 4423,
      "pecu": 4424,
      "condu": 4425,
      "convol": 4426,
      "constru": 4427,
      "contains": 4428,
      "estic": 4429,
      "manhatt": 4430,
      "scare": 4431,
      "pered": 4432,
      "illum": 4433,
      "empower": 4434,
      "artif": 4435,
      "articul": 4436,
      "roman": 4437,
      "notes": 4438,
      "notch": 4439,
      "usive": 4440,
      "precise": 4441,
      "hea": 4442,
      "weigh": 4443,
      "timing": 4444,
      "spite": 4445,
      "ifying": 4446,
      "charged": 4447,
      "charlie": 4448,
      "intric": 4449,
      "tsai": 4450,
      "inee": 4451,
      "herzo": 4452,
      "meat": 4453,
      "metro": 4454,
      "justify": 4455,
      "trapp": 4456,
      "trapped": 4457,
      "matinee": 4458,
      "creature": 4459,
      "jointed": 4460,
      "prise": 4461,
      "disgust": 4462,
      "disbelief": 4463,
      "earlier": 4464,
      "brand": 4465,
      "ensible": 4466,
      "izations": 4467,
      "crud": 4468,
      "interview": 4469,
      "dub": 4470,
      "answers": 4471,
      "heartbreaking": 4472,
      "obli": 4473,
      "obsc": 4474,
      "engage": 4475,
      "characterizations": 4476,
      "monsters": 4477,
      "lights": 4478,
      "laughing": 4479,
      "cutting": 4480,
      "finest": 4481,
      "bub": 4482,
      "buoy": 4483,
      "context": 4484,
      "clock": 4485,
      "knowledge": 4486,
      "effectively": 4487,
      "deliber": 4488,
      "keeping": 4489,
      "distance": 4490,
      "border": 4491,
      "correct": 4492,
      "nair": 4493,
      "cultures": 4494,
      "ski": 4495,
      "shocking": 4496,
      "stuart": 4497,
      "happily": 4498,
      "happiness": 4499,
      "saying": 4500,
      "vincent": 4501,
      "elev": 4502,
      "elect": 4503,
      "rush": 4504,
      "ticket": 4505,
      "menace": 4506,
      "startling": 4507,
      "hyp": 4508,
      "superb": 4509,
      "heads": 4510,
      "bloody": 4511,
      "slasher": 4512,
      "base": 4513,
      "feld": 4514,
      "teenagers": 4515,
      "ballistic": 4516,
      "maintain": 4517,
      "scope": 4518,
      "scores": 4519,
      "larger": 4520,
      "satisfy": 4521,
      "chronic": 4522,
      "destru": 4523,
      "deadly": 4524,
      "tuxed": 4525,
      "begin": 4526,
      "techn": 4527,
      "zeal": 4528,
      "honestly": 4529,
      "dogs": 4530,
      "drags": 4531,
      "contrivan": 4532,
      "mixture": 4533,
      "terrifying": 4534,
      "inspire": 4535,
      "grandeur": 4536,
      "ambition": 4537,
      "tasteful": 4538,
      "symbol": 4539,
      "sympathetic": 4540,
      "covers": 4541,
      "windtalkers": 4542,
      "disappointed": 4543,
      "hopeful": 4544,
      "amaz": 4545,
      "substit": 4546,
      "understands": 4547,
      "bringing": 4548,
      "legend": 4549,
      "subtlety": 4550,
      "remembered": 4551,
      "contempl": 4552,
      "fights": 4553,
      "madness": 4554,
      "photography": 4555,
      "pseudo": 4556,
      "aspir": 4557,
      "robin": 4558,
      "splash": 4559,
      "charismatic": 4560,
      "continues": 4561,
      "curiosity": 4562,
      "revelatory": 4563,
      "enterprise": 4564,
      "consistent": 4565,
      "relentless": 4566,
      "escapism": 4567,
      "apparent": 4568,
      "whimsy": 4569,
      "whimsical": 4570,
      "scape": 4571,
      "rhythm": 4572,
      "distinct": 4573,
      "distinctive": 4574,
      "drugs": 4575,
      "dramatically": 4576,
      "obsession": 4577,
      "pianist": 4578,
      "enthusiast": 4579,
      "unintentional": 4580,
      "technology": 4581,
      "victims": 4582,
      "sketch": 4583,
      "undeniably": 4584,
      "compromising": 4585,
      "nicholas": 4586,
      "chaotic": 4587,
      "astonishing": 4588,
      "achievement": 4589,
      "significant": 4590,
      "russian": 4591,
      "rendered": 4592,
      "appropriate": 4593,
      "responsible": 4594,
      "bourne": 4595,
      "oriented": 4596,
      "proceedings": 4597,
      "inducing": 4598,
      "gradually": 4599,
      "wannabe": 4600,
      "somber": 4601,
      "chicago": 4602,
      "providing": 4603,
      "devastating": 4604,
      "endeavor": 4605,
      "dvd": 4606,
      "remote": 4607,
      "redeem": 4608,
      "saturday": 4609,
      "scooby": 4610,
      "intentioned": 4611,
      "tarantino": 4612,
      "ingredients": 4613,
      "nightmare": 4614,
      "frailty": 4615,
      "ritchie": 4616,
      "alabama": 4617,
      "unabash": 4618,
      "manhattan": 4619,
      "herzog": 4620,
      "trappings": 4621,
      "tuxedo": 4622,
      "contrivances": 4623,
      "21": 4624,
      "50": 4625,
      "80": 4626,
      "bull": 4627,
      "blast": 4628,
      "bomb": 4629,
      "cid": 4630,
      "civ": 4631,
      "dd": 4632,
      "dil": 4633,
      "dut": 4634,
      "dated": 4635,
      "droll": 4636,
      "fizz": 4637,
      "gig": 4638,
      "gimm": 4639,
      "hl": 4640,
      "hers": 4641,
      "hid": 4642,
      "hint": 4643,
      "hane": 4644,
      "jim": 4645,
      "kil": 4646,
      "lor": 4647,
      "lump": 4648,
      "mum": 4649,
      "mull": 4650,
      "nau": 4651,
      "ole": 4652,
      "pom": 4653,
      "rated": 4654,
      "rice": 4655,
      "rings": 4656,
      "sno": 4657,
      "sily": 4658,
      "swallow": 4659,
      "uit": 4660,
      "uber": 4661,
      "ugg": 4662,
      "vity": 4663,
      "wing": 4664,
      "wins": 4665,
      "zes": 4666,
      "zard": 4667,
      "zhang": 4668,
      "thick": 4669,
      "inform": 4670,
      "inherent": 4671,
      "independent": 4672,
      "ano": 4673,
      "anth": 4674,
      "eric": 4675,
      "erotic": 4676,
      "thew": 4677,
      "rep": 4678,
      "reel": 4679,
      "reput": 4680,
      "rehash": 4681,
      "enthr": 4682,
      "island": 4683,
      "esh": 4684,
      "oul": 4685,
      "ara": 4686,
      "sta": 4687,
      "stic": 4688,
      "stum": 4689,
      "stink": 4690,
      "static": 4691,
      "store": 4692,
      "lym": 4693,
      "ication": 4694,
      "asive": 4695,
      "letting": 4696,
      "chas": 4697,
      "chab": 4698,
      "chest": 4699,
      "chur": 4700,
      "chilly": 4701,
      "moved": 4702,
      "sey": 4703,
      "sein": 4704,
      "utions": 4705,
      "beach": 4706,
      "unimaginative": 4707,
      "unnecessary": 4708,
      "unfocused": 4709,
      "unbear": 4710,
      "uncompromising": 4711,
      "rable": 4712,
      "forgive": 4713,
      "loves": 4714,
      "loween": 4715,
      "abstra": 4716,
      "abuse": 4717,
      "impla": 4718,
      "improb": 4719,
      "improve": 4720,
      "rot": 4721,
      "rose": 4722,
      "roots": 4723,
      "noble": 4724,
      "sus": 4725,
      "irish": 4726,
      "term": 4727,
      "exotic": 4728,
      "dowell": 4729,
      "pole": 4730,
      "consu": 4731,
      "mann": 4732,
      "manship": 4733,
      "perverse": 4734,
      "tap": 4735,
      "taut": 4736,
      "soggy": 4737,
      "usible": 4738,
      "spin": 4739,
      "charine": 4740,
      "ustroph": 4741,
      "endless": 4742,
      "evol": 4743,
      "opic": 4744,
      "boat": 4745,
      "boom": 4746,
      "herence": 4747,
      "met": 4748,
      "fundam": 4749,
      "canny": 4750,
      "acade": 4751,
      "anyway": 4752,
      "anywhere": 4753,
      "overlong": 4754,
      "phen": 4755,
      "matically": 4756,
      "mental": 4757,
      "mented": 4758,
      "draws": 4759,
      "disc": 4760,
      "disjointed": 4761,
      "page": 4762,
      "plots": 4763,
      "plotted": 4764,
      "cratic": 4765,
      "minis": 4766,
      "genres": 4767,
      "gency": 4768,
      "freaks": 4769,
      "grasp": 4770,
      "nevertheless": 4771,
      "screenwriters": 4772,
      "jean": 4773,
      "answer": 4774,
      "seemed": 4775,
      "understated": 4776,
      "famous": 4777,
      "warning": 4778,
      "obnoxious": 4779,
      "choose": 4780,
      "misses": 4781,
      "smith": 4782,
      "shouldn": 4783,
      "thrillers": 4784,
      "collater": 4785,
      "below": 4786,
      "attitude": 4787,
      "hollow": 4788,
      "carvey": 4789,
      "fran": 4790,
      "scenery": 4791,
      "nerve": 4792,
      "dahmer": 4793,
      "stylistic": 4794,
      "cheek": 4795,
      "marine": 4796,
      "redund": 4797,
      "kiddie": 4798,
      "clooney": 4799,
      "cases": 4800,
      "casual": 4801,
      "carefully": 4802,
      "crap": 4803,
      "police": 4804,
      "generate": 4805,
      "nibal": 4806,
      "sweep": 4807,
      "halloween": 4808,
      "umbs": 4809,
      "produce": 4810,
      "para": 4811,
      "putting": 4812,
      "twenty": 4813,
      "halfway": 4814,
      "silence": 4815,
      "witless": 4816,
      "childhood": 4817,
      "scha": 4818,
      "started": 4819,
      "wondering": 4820,
      "darkly": 4821,
      "window": 4822,
      "glory": 4823,
      "landscape": 4824,
      "portrayal": 4825,
      "wallace": 4826,
      "soldi": 4827,
      "solaris": 4828,
      "basically": 4829,
      "caine": 4830,
      "fellow": 4831,
      "sadness": 4832,
      "ridden": 4833,
      "explores": 4834,
      "burn": 4835,
      "leaden": 4836,
      "leading": 4837,
      "maintains": 4838,
      "masterful": 4839,
      "fanci": 4840,
      "factor": 4841,
      "sensational": 4842,
      "destination": 4843,
      "tuck": 4844,
      "considering": 4845,
      "delightfully": 4846,
      "richly": 4847,
      "heroine": 4848,
      "reggio": 4849,
      "passionate": 4850,
      "killed": 4851,
      "strike": 4852,
      "latter": 4853,
      "exceptional": 4854,
      "pedest": 4855,
      "reveal": 4856,
      "follows": 4857,
      "stops": 4858,
      "substantial": 4859,
      "delivering": 4860,
      "named": 4861,
      "wilson": 4862,
      "instin": 4863,
      "install": 4864,
      "credible": 4865,
      "fleet": 4866,
      "nuanced": 4867,
      "busy": 4868,
      "claustroph": 4869,
      "comfortably": 4870,
      "critics": 4871,
      "various": 4872,
      "necessarily": 4873,
      "fighting": 4874,
      "testament": 4875,
      "inspirational": 4876,
      "theatre": 4877,
      "theatrical": 4878,
      "domestic": 4879,
      "savvy": 4880,
      "throws": 4881,
      "admit": 4882,
      "terribly": 4883,
      "palma": 4884,
      "existence": 4885,
      "existential": 4886,
      "attractive": 4887,
      "celebrates": 4888,
      "innov": 4889,
      "indian": 4890,
      "speaks": 4891,
      "building": 4892,
      "brief": 4893,
      "europe": 4894,
      "crisp": 4895,
      "relentlessly": 4896,
      "ethnic": 4897,
      "wrenching": 4898,
      "determination": 4899,
      "gift": 4900,
      "gifted": 4901,
      "saccharine": 4902,
      "breathtaking": 4903,
      "candid": 4904,
      "constant": 4905,
      "muddled": 4906,
      "brutally": 4907,
      "sara": 4908,
      "changes": 4909,
      "demonstrates": 4910,
      "frightening": 4911,
      "piano": 4912,
      "resembles": 4913,
      "choppy": 4914,
      "transcend": 4915,
      "unintentionally": 4916,
      "smooth": 4917,
      "urable": 4918,
      "bilities": 4919,
      "functional": 4920,
      "exploitative": 4921,
      "mouth": 4922,
      "random": 4923,
      "wrapped": 4924,
      "ingenious": 4925,
      "haynes": 4926,
      "virtues": 4927,
      "demanding": 4928,
      "eastwood": 4929,
      "horrifying": 4930,
      "dysfunctional": 4931,
      "harris": 4932,
      "western": 4933,
      "impec": 4934,
      "philip": 4935,
      "private": 4936,
      "daughter": 4937,
      "kapur": 4938,
      "saga": 4939,
      "magnific": 4940,
      "breezy": 4941,
      "distract": 4942,
      "pumpkin": 4943,
      "tongue": 4944,
      "program": 4945,
      "guarante": 4946,
      "intoxicating": 4947,
      "inhabit": 4948,
      "environ": 4949,
      "elaborate": 4950,
      "unflinching": 4951,
      "vietnam": 4952,
      "conduct": 4953,
      "construction": 4954,
      "hypnot": 4955,
      "gimmick": 4956,
      "herself": 4957,
      "haneke": 4958,
      "abstract": 4959,
      "fundament": 4960,
      "collateral": 4961,
      "300": 4962,
      "cri": 4963,
      "cod": 4964,
      "cage": 4965,
      "cgi": 4966,
      "dense": 4967,
      "dying": 4968,
      "ely": 4969,
      "eager": 4970,
      "fits": 4971,
      "fist": 4972,
      "fell": 4973,
      "fud": 4974,
      "gap": 4975,
      "hust": 4976,
      "hitting": 4977,
      "jan": 4978,
      "jam": 4979,
      "knew": 4980,
      "lom": 4981,
      "lun": 4982,
      "má": 4983,
      "oz": 4984,
      "rules": 4985,
      "sne": 4986,
      "tion": 4987,
      "tid": 4988,
      "tends": 4989,
      "tane": 4990,
      "vap": 4991,
      "vast": 4992,
      "vish": 4993,
      "wone": 4994,
      "wart": 4995,
      "wound": 4996,
      "yce": 4997,
      "zel": 4998,
      "thy": 4999,
      "inse": 5000,
      "infect": 5001,
      "incess": 5002,
      "anity": 5003,
      "angu": 5004,
      "thed": 5005,
      "thematic": 5006,
      "reject": 5007,
      "returns": 5008,
      "retro": 5009,
      "encou": 5010,
      "oning": 5011,
      "ontane": 5012,
      "atta": 5013,
      "attal": 5014,
      "isra": 5015,
      "isive": 5016,
      "ites": 5017,
      "inging": 5018,
      "oric": 5019,
      "anda": 5020,
      "arse": 5021,
      "arian": 5022,
      "arrest": 5023,
      "stil": 5024,
      "stim": 5025,
      "stone": 5026,
      "stem": 5027,
      "toler": 5028,
      "todd": 5029,
      "eds": 5030,
      "eddie": 5031,
      "ica": 5032,
      "icon": 5033,
      "icts": 5034,
      "icient": 5035,
      "asured": 5036,
      "lex": 5037,
      "legged": 5038,
      "omen": 5039,
      "omnia": 5040,
      "chie": 5041,
      "chelse": 5042,
      "chai": 5043,
      "china": 5044,
      "moon": 5045,
      "moody": 5046,
      "elle": 5047,
      "ella": 5048,
      "eliza": 5049,
      "ctic": 5050,
      "entry": 5051,
      "sept": 5052,
      "section": 5053,
      "semi": 5054,
      "separ": 5055,
      "beck": 5056,
      "beast": 5057,
      "unky": 5058,
      "unsentimental": 5059,
      "rav": 5060,
      "rain": 5061,
      "racial": 5062,
      "ghet": 5063,
      "loid": 5064,
      "loyal": 5065,
      "whale": 5066,
      "verve": 5067,
      "imitation": 5068,
      "impost": 5069,
      "rodri": 5070,
      "rohmer": 5071,
      "amuse": 5072,
      "aded": 5073,
      "ripe": 5074,
      "rida": 5075,
      "shan": 5076,
      "shelf": 5077,
      "yous": 5078,
      "olic": 5079,
      "outing": 5080,
      "irony": 5081,
      "irresist": 5082,
      "exuber": 5083,
      "door": 5084,
      "doses": 5085,
      "pool": 5086,
      "posing": 5087,
      "poses": 5088,
      "net": 5089,
      "conj": 5090,
      "conco": 5091,
      "confir": 5092,
      "conven": 5093,
      "convey": 5094,
      "odds": 5095,
      "managed": 5096,
      "scattered": 5097,
      "tail": 5098,
      "illustr": 5099,
      "gore": 5100,
      "antwone": 5101,
      "usions": 5102,
      "prep": 5103,
      "heat": 5104,
      "height": 5105,
      "worn": 5106,
      "wet": 5107,
      "weep": 5108,
      "progress": 5109,
      "idan": 5110,
      "idel": 5111,
      "idence": 5112,
      "spontane": 5113,
      "somebody": 5114,
      "evokes": 5115,
      "optim": 5116,
      "bob": 5117,
      "bodies": 5118,
      "boasts": 5119,
      "trust": 5120,
      "oked": 5121,
      "meet": 5122,
      "measure": 5123,
      "maker": 5124,
      "acc": 5125,
      "ette": 5126,
      "trailer": 5127,
      "clin": 5128,
      "clunk": 5129,
      "club": 5130,
      "comedian": 5131,
      "matthew": 5132,
      "insane": 5133,
      "insomnia": 5134,
      "joyous": 5135,
      "assa": 5136,
      "coherence": 5137,
      "wned": 5138,
      "fake": 5139,
      "display": 5140,
      "dispos": 5141,
      "flam": 5142,
      "serial": 5143,
      "grind": 5144,
      "dud": 5145,
      "lifetime": 5146,
      "whenever": 5147,
      "hoot": 5148,
      "yearning": 5149,
      "partly": 5150,
      "system": 5151,
      "undermin": 5152,
      "rental": 5153,
      "entertained": 5154,
      "lackluster": 5155,
      "warzen": 5156,
      "mering": 5157,
      "engaged": 5158,
      "turing": 5159,
      "weren": 5160,
      "downtown": 5161,
      "gib": 5162,
      "gian": 5163,
      "tremend": 5164,
      "cletis": 5165,
      "monot": 5166,
      "cumul": 5167,
      "colors": 5168,
      "columb": 5169,
      "lightweight": 5170,
      "rowing": 5171,
      "humorless": 5172,
      "backs": 5173,
      "ocity": 5174,
      "cheese": 5175,
      "laughable": 5176,
      "athers": 5177,
      "cynic": 5178,
      "simplic": 5179,
      "contro": 5180,
      "gently": 5181,
      "cares": 5182,
      "craft": 5183,
      "medium": 5184,
      "handful": 5185,
      "easier": 5186,
      "sequential": 5187,
      "producer": 5188,
      "corny": 5189,
      "aneously": 5190,
      "parade": 5191,
      "melancho": 5192,
      "didactic": 5193,
      "flav": 5194,
      "denying": 5195,
      "says": 5196,
      "vintage": 5197,
      "lasting": 5198,
      "younger": 5199,
      "extended": 5200,
      "strain": 5201,
      "schmal": 5202,
      "schwarzen": 5203,
      "experienced": 5204,
      "barrel": 5205,
      "touched": 5206,
      "superbly": 5207,
      "harsh": 5208,
      "harrowing": 5209,
      "puff": 5210,
      "richer": 5211,
      "wave": 5212,
      "satisfied": 5213,
      "bursts": 5214,
      "calls": 5215,
      "limp": 5216,
      "balls": 5217,
      "tones": 5218,
      "fancy": 5219,
      "refuses": 5220,
      "quirks": 5221,
      "promises": 5222,
      "deadpan": 5223,
      "topic": 5224,
      "considered": 5225,
      "hoping": 5226,
      "adventures": 5227,
      "scient": 5228,
      "techni": 5229,
      "psychology": 5230,
      "nights": 5231,
      "subtly": 5232,
      "driven": 5233,
      "pays": 5234,
      "mysteries": 5235,
      "treats": 5236,
      "jackie": 5237,
      "cali": 5238,
      "exceptionally": 5239,
      "nonetheless": 5240,
      "settles": 5241,
      "patient": 5242,
      "sandra": 5243,
      "sticks": 5244,
      "friendly": 5245,
      "listen": 5246,
      "listless": 5247,
      "straightforward": 5248,
      "numbingly": 5249,
      "transl": 5250,
      "roads": 5251,
      "presentation": 5252,
      "delicious": 5253,
      "gangs": 5254,
      "positive": 5255,
      "chills": 5256,
      "drink": 5257,
      "praise": 5258,
      "stephen": 5259,
      "weirdly": 5260,
      "critic": 5261,
      "labute": 5262,
      "similar": 5263,
      "inspiration": 5264,
      "throwing": 5265,
      "concert": 5266,
      "emerge": 5267,
      "desperation": 5268,
      "rapid": 5269,
      "amounts": 5270,
      "photographed": 5271,
      "sanct": 5272,
      "assuming": 5273,
      "haunted": 5274,
      "complications": 5275,
      "curious": 5276,
      "immense": 5277,
      "opportun": 5278,
      "crisis": 5279,
      "challenges": 5280,
      "avoids": 5281,
      "trashy": 5282,
      "clumsily": 5283,
      "marvelous": 5284,
      "costume": 5285,
      "shadows": 5286,
      "nickleby": 5287,
      "guessing": 5288,
      "enthusiasm": 5289,
      "contradict": 5290,
      "surrounding": 5291,
      "secretary": 5292,
      "ponderous": 5293,
      "undeniable": 5294,
      "nicholson": 5295,
      "sinks": 5296,
      "integrity": 5297,
      "references": 5298,
      "locations": 5299,
      "egoyan": 5300,
      "effer": 5301,
      "educational": 5302,
      "exquisitely": 5303,
      "physical": 5304,
      "benefit": 5305,
      "bartleby": 5306,
      "glossy": 5307,
      "sobering": 5308,
      "enigma": 5309,
      "sensual": 5310,
      "sisterhood": 5311,
      "minimal": 5312,
      "baffling": 5313,
      "category": 5314,
      "jaglom": 5315,
      "inconsequential": 5316,
      "arrives": 5317,
      "sudden": 5318,
      "comparison": 5319,
      "religious": 5320,
      "jacquot": 5321,
      "egger": 5322,
      "inevitable": 5323,
      "gosling": 5324,
      "trademark": 5325,
      "african": 5326,
      "satirical": 5327,
      "sophomoric": 5328,
      "relevant": 5329,
      "hitchcock": 5330,
      "unnerving": 5331,
      "ramsay": 5332,
      "peculiar": 5333,
      "empowerment": 5334,
      "intricate": 5335,
      "buoyant": 5336,
      "gigg": 5337,
      "anthony": 5338,
      "chabrol": 5339,
      "phenomen": 5340,
      "schaeffer": 5341,
      "fanciful": 5342,
      "claustrophob": 5343,
      "european": 5344,
      "impeccable": 5345,
      "israel": 5346,
      "stimul": 5347,
      "chelsea": 5348,
      "elizabe": 5349,
      "impostor": 5350,
      "simplicity": 5351,
      "schmalt": 5352,
      "schwarzenegger": 5353,
      "4ever": 5354,
      "aa": 5355,
      "aes": 5356,
      "awe": 5357,
      "ains": 5358,
      "austr": 5359,
      "bis": 5360,
      "bind": 5361,
      "bted": 5362,
      "bride": 5363,
      "bbled": 5364,
      "cad": 5365,
      "cers": 5366,
      "ccin": 5367,
      "dust": 5368,
      "dash": 5369,
      "ecks": 5370,
      "fli": 5371,
      "fence": 5372,
      "fict": 5373,
      "flim": 5374,
      "gol": 5375,
      "gant": 5376,
      "gary": 5377,
      "hes": 5378,
      "hing": 5379,
      "jane": 5380,
      "jump": 5381,
      "jagger": 5382,
      "jinsky": 5383,
      "las": 5384,
      "lends": 5385,
      "mund": 5386,
      "nut": 5387,
      "ogy": 5388,
      "ological": 5389,
      "ovich": 5390,
      "osyn": 5391,
      "pad": 5392,
      "pup": 5393,
      "pher": 5394,
      "ral": 5395,
      "ranks": 5396,
      "ske": 5397,
      "sized": 5398,
      "tel": 5399,
      "tout": 5400,
      "tum": 5401,
      "table": 5402,
      "task": 5403,
      "ww": 5404,
      "witt": 5405,
      "yer": 5406,
      "yle": 5407,
      "yard": 5408,
      "ção": 5409,
      "thom": 5410,
      "thman": 5411,
      "thumbs": 5412,
      "anarch": 5413,
      "anthro": 5414,
      "erous": 5415,
      "rey": 5416,
      "rein": 5417,
      "rever": 5418,
      "regre": 5419,
      "review": 5420,
      "redem": 5421,
      "reminis": 5422,
      "ensu": 5423,
      "eningly": 5424,
      "atile": 5425,
      "ators": 5426,
      "isk": 5427,
      "iso": 5428,
      "isse": 5429,
      "itz": 5430,
      "organ": 5431,
      "oubted": 5432,
      "alas": 5433,
      "alleg": 5434,
      "arm": 5435,
      "stab": 5436,
      "stro": 5437,
      "stag": 5438,
      "stac": 5439,
      "stitch": 5440,
      "edy": 5441,
      "edges": 5442,
      "ilet": 5443,
      "icip": 5444,
      "asy": 5445,
      "asian": 5446,
      "associ": 5447,
      "leck": 5448,
      "leap": 5449,
      "mod": 5450,
      "mol": 5451,
      "mos": 5452,
      "mold": 5453,
      "util": 5454,
      "betra": 5455,
      "bett": 5456,
      "bearing": 5457,
      "behold": 5458,
      "unful": 5459,
      "unoriginal": 5460,
      "uncertain": 5461,
      "unpredictable": 5462,
      "uneasy": 5463,
      "unconvincing": 5464,
      "vial": 5465,
      "vigor": 5466,
      "rab": 5467,
      "rac": 5468,
      "radi": 5469,
      "defe": 5470,
      "forth": 5471,
      "ghan": 5472,
      "wholes": 5473,
      "imer": 5474,
      "imon": 5475,
      "imony": 5476,
      "ultra": 5477,
      "noyce": 5478,
      "suited": 5479,
      "keen": 5480,
      "ader": 5481,
      "address": 5482,
      "butter": 5483,
      "button": 5484,
      "shi": 5485,
      "sher": 5486,
      "shor": 5487,
      "shod": 5488,
      "shag": 5489,
      "shines": 5490,
      "olly": 5491,
      "essence": 5492,
      "dia": 5493,
      "dire": 5494,
      "died": 5495,
      "outstanding": 5496,
      "lap": 5497,
      "lavish": 5498,
      "moviegoing": 5499,
      "irwin": 5500,
      "ironic": 5501,
      "fee": 5502,
      "fet": 5503,
      "tering": 5504,
      "excru": 5505,
      "exagger": 5506,
      "dope": 5507,
      "neo": 5508,
      "neigh": 5509,
      "netic": 5510,
      "neuro": 5511,
      "pete": 5512,
      "peek": 5513,
      "condesc": 5514,
      "confront": 5515,
      "hawn": 5516,
      "arted": 5517,
      "goth": 5518,
      "urous": 5519,
      "urgency": 5520,
      "notorious": 5521,
      "heimer": 5522,
      "worry": 5523,
      "weeks": 5524,
      "timeless": 5525,
      "iders": 5526,
      "apes": 5527,
      "charmer": 5528,
      "endlessly": 5529,
      "aganda": 5530,
      "intima": 5531,
      "opers": 5532,
      "derrida": 5533,
      "metic": 5534,
      "measured": 5535,
      "cannes": 5536,
      "tepid": 5537,
      "pton": 5538,
      "lesser": 5539,
      "anybody": 5540,
      "clash": 5541,
      "compul": 5542,
      "goodfell": 5543,
      "mente": 5544,
      "drab": 5545,
      "dramas": 5546,
      "insist": 5547,
      "joe": 5548,
      "princ": 5549,
      "discer": 5550,
      "pax": 5551,
      "lower": 5552,
      "brim": 5553,
      "flesh": 5554,
      "berry": 5555,
      "grey": 5556,
      "strang": 5557,
      "surrect": 5558,
      "blind": 5559,
      "blues": 5560,
      "genial": 5561,
      "players": 5562,
      "interpret": 5563,
      "aking": 5564,
      "grating": 5565,
      "impul": 5566,
      "implic": 5567,
      "achron": 5568,
      "ultaneously": 5569,
      "spears": 5570,
      "ipes": 5571,
      "ipher": 5572,
      "grab": 5573,
      "grave": 5574,
      "visit": 5575,
      "visible": 5576,
      "watched": 5577,
      "seeming": 5578,
      "hole": 5579,
      "tried": 5580,
      "triangle": 5581,
      "newcom": 5582,
      "particip": 5583,
      "undercover": 5584,
      "longing": 5585,
      "heartbreak": 5586,
      "obstac": 5587,
      "merit": 5588,
      "chore": 5589,
      "resour": 5590,
      "daytime": 5591,
      "versions": 5592,
      "misfire": 5593,
      "miserable": 5594,
      "misogy": 5595,
      "downbeat": 5596,
      "showcase": 5597,
      "showcases": 5598,
      "characterization": 5599,
      "plu": 5600,
      "collabor": 5601,
      "carn": 5602,
      "wooden": 5603,
      "porn": 5604,
      "caught": 5605,
      "pleaser": 5606,
      "capturing": 5607,
      "buck": 5608,
      "buffs": 5609,
      "documentaries": 5610,
      "brook": 5611,
      "brosn": 5612,
      "minds": 5613,
      "enjoyably": 5614,
      "spirits": 5615,
      "careful": 5616,
      "polis": 5617,
      "messy": 5618,
      "generated": 5619,
      "runner": 5620,
      "nijinsky": 5621,
      "singing": 5622,
      "morning": 5623,
      "morvern": 5624,
      "corner": 5625,
      "corpor": 5626,
      "parad": 5627,
      "denis": 5628,
      "cuit": 5629,
      "cube": 5630,
      "happening": 5631,
      "silver": 5632,
      "schmid": 5633,
      "sweetness": 5634,
      "supernatural": 5635,
      "glor": 5636,
      "portrays": 5637,
      "emptiness": 5638,
      "cleverness": 5639,
      "problematic": 5640,
      "cade": 5641,
      "explore": 5642,
      "explored": 5643,
      "honor": 5644,
      "apply": 5645,
      "profile": 5646,
      "masterfully": 5647,
      "smartly": 5648,
      "balanced": 5649,
      "reflection": 5650,
      "lush": 5651,
      "lurid": 5652,
      "voices": 5653,
      "reasons": 5654,
      "sorry": 5655,
      "popul": 5656,
      "affleck": 5657,
      "undance": 5658,
      "undoubted": 5659,
      "decided": 5660,
      "destined": 5661,
      "hoped": 5662,
      "finely": 5663,
      "structured": 5664,
      "psychologically": 5665,
      "chances": 5666,
      "heroes": 5667,
      "dragons": 5668,
      "pacino": 5669,
      "contribut": 5670,
      "birot": 5671,
      "biopic": 5672,
      "payoff": 5673,
      "rolled": 5674,
      "mysterious": 5675,
      "confess": 5676,
      "confident": 5677,
      "strikes": 5678,
      "closely": 5679,
      "souls": 5680,
      "soulless": 5681,
      "fluid": 5682,
      "empire": 5683,
      "stoppers": 5684,
      "combines": 5685,
      "dignity": 5686,
      "fourth": 5687,
      "faster": 5688,
      "added": 5689,
      "million": 5690,
      "pulp": 5691,
      "pulse": 5692,
      "instantly": 5693,
      "momentum": 5694,
      "sustains": 5695,
      "delicately": 5696,
      "cartoons": 5697,
      "legal": 5698,
      "positively": 5699,
      "tragedies": 5700,
      "chiller": 5701,
      "depths": 5702,
      "rolling": 5703,
      "simultaneously": 5704,
      "stevenson": 5705,
      "domin": 5706,
      "saved": 5707,
      "reminder": 5708,
      "celebration": 5709,
      "respectable": 5710,
      "martial": 5711,
      "frankly": 5712,
      "aims": 5713,
      "aimed": 5714,
      "curiously": 5715,
      "tricks": 5716,
      "rewards": 5717,
      "searching": 5718,
      "observant": 5719,
      "observation": 5720,
      "hugely": 5721,
      "20th": 5722,
      "nelson": 5723,
      "minority": 5724,
      "shape": 5725,
      "diesel": 5726,
      "prophe": 5727,
      "propaganda": 5728,
      "rousing": 5729,
      "fills": 5730,
      "traveler": 5731,
      "thrown": 5732,
      "potter": 5733,
      "describe": 5734,
      "kicks": 5735,
      "alternately": 5736,
      "shamelessly": 5737,
      "convict": 5738,
      "pushes": 5739,
      "serviceable": 5740,
      "dishon": 5741,
      "thesis": 5742,
      "liberal": 5743,
      "shapeless": 5744,
      "specific": 5745,
      "objective": 5746,
      "smoochy": 5747,
      "hunter": 5748,
      "resolutely": 5749,
      "variety": 5750,
      "astonish": 5751,
      "multip": 5752,
      "acceptable": 5753,
      "villain": 5754,
      "glib": 5755,
      "demographic": 5756,
      "exquisite": 5757,
      "qualities": 5758,
      "bruce": 5759,
      "practically": 5760,
      "recognize": 5761,
      "fabric": 5762,
      "hartley": 5763,
      "distinguished": 5764,
      "dreadful": 5765,
      "tortured": 5766,
      "comprehensible": 5767,
      "solem": 5768,
      "screaming": 5769,
      "marginal": 5770,
      "korean": 5771,
      "lonel": 5772,
      "advice": 5773,
      "conversations": 5774,
      "audacious": 5775,
      "wickedly": 5776,
      "feminist": 5777,
      "taylor": 5778,
      "rollerball": 5779,
      "adequate": 5780,
      "drunk": 5781,
      "spread": 5782,
      "raunchy": 5783,
      "advantage": 5784,
      "assassin": 5785,
      "intermittently": 5786,
      "squee": 5787,
      "vitality": 5788,
      "convoluted": 5789,
      "illumin": 5790,
      "artifice": 5791,
      "articulate": 5792,
      "heavi": 5793,
      "metropolis": 5794,
      "oblig": 5795,
      "clockstoppers": 5796,
      "amazingly": 5797,
      "unabashedly": 5798,
      "enthralling": 5799,
      "chases": 5800,
      "seinfeld": 5801,
      "implausible": 5802,
      "improbable": 5803,
      "academy": 5804,
      "soldiers": 5805,
      "pedestrian": 5806,
      "installment": 5807,
      "magnificent": 5808,
      "vapid": 5809,
      "stilted": 5810,
      "ghetto": 5811,
      "disposable": 5812,
      "cynicism": 5813,
      "melancholy": 5814,
      "technique": 5815,
      "claustrophobic": 5816,
      "austral": 5817,
      "excruci": 5818,
      "neighbor": 5819,
      "intimacy": 5820,
      "goodfellas": 5821,
      "princip": 5822,
      "brosnan": 5823,
      "schmidt": 5824,
      "']": 5825,
      "30": 5826,
      "60": 5827,
      "aus": 5828,
      "bod": 5829,
      "bard": 5830,
      "bless": 5831,
      "bino": 5832,
      "baked": 5833,
      "cure": 5834,
      "cow": 5835,
      "cingly": 5836,
      "dling": 5837,
      "eat": 5838,
      "fon": 5839,
      "fame": 5840,
      "foul": 5841,
      "gul": 5842,
      "gie": 5843,
      "hok": 5844,
      "hick": 5845,
      "ike": 5846,
      "iful": 5847,
      "ius": 5848,
      "ión": 5849,
      "jor": 5850,
      "kn": 5851,
      "kies": 5852,
      "kline": 5853,
      "lou": 5854,
      "lion": 5855,
      "lers": 5856,
      "lingly": 5857,
      "labo": 5858,
      "mm": 5859,
      "mck": 5860,
      "mtv": 5861,
      "nur": 5862,
      "nour": 5863,
      "och": 5864,
      "pas": 5865,
      "pion": 5866,
      "pts": 5867,
      "plight": 5868,
      "pale": 5869,
      "plym": 5870,
      "ran": 5871,
      "rating": 5872,
      "range": 5873,
      "sits": 5874,
      "sard": 5875,
      "sions": 5876,
      "slog": 5877,
      "size": 5878,
      "switch": 5879,
      "tin": 5880,
      "tat": 5881,
      "tes": 5882,
      "tab": 5883,
      "tang": 5884,
      "tically": 5885,
      "tiny": 5886,
      "uel": 5887,
      "uma": 5888,
      "uge": 5889,
      "uation": 5890,
      "uces": 5891,
      "uated": 5892,
      "voc": 5893,
      "zi": 5894,
      "zak": 5895,
      "zero": 5896,
      "tho": 5897,
      "thless": 5898,
      "ini": 5899,
      "inject": 5900,
      "insuff": 5901,
      "infant": 5902,
      "infuri": 5903,
      "anza": 5904,
      "angry": 5905,
      "erk": 5906,
      "rely": 5907,
      "reun": 5908,
      "rela": 5909,
      "reple": 5910,
      "replaced": 5911,
      "ene": 5912,
      "enlight": 5913,
      "enstein": 5914,
      "enchant": 5915,
      "encies": 5916,
      "onous": 5917,
      "ismo": 5918,
      "ito": 5919,
      "esther": 5920,
      "ority": 5921,
      "alt": 5922,
      "altogether": 5923,
      "album": 5924,
      "ando": 5925,
      "arth": 5926,
      "armen": 5927,
      "station": 5928,
      "stur": 5929,
      "stagger": 5930,
      "tosca": 5931,
      "toilet": 5932,
      "lewis": 5933,
      "chap": 5934,
      "chate": 5935,
      "champ": 5936,
      "model": 5937,
      "mothman": 5938,
      "elic": 5939,
      "utes": 5940,
      "beguil": 5941,
      "mamet": 5942,
      "unable": 5943,
      "undone": 5944,
      "unsatisfying": 5945,
      "unforgettable": 5946,
      "unforced": 5947,
      "unusually": 5948,
      "uncomfortably": 5949,
      "vein": 5950,
      "veers": 5951,
      "veter": 5952,
      "vig": 5953,
      "rad": 5954,
      "raises": 5955,
      "defi": 5956,
      "deals": 5957,
      "demented": 5958,
      "decade": 5959,
      "deuces": 5960,
      "former": 5961,
      "forgiven": 5962,
      "ghai": 5963,
      "lime": 5964,
      "lift": 5965,
      "lifest": 5966,
      "lop": 5967,
      "loat": 5968,
      "lope": 5969,
      "wholly": 5970,
      "versus": 5971,
      "roc": 5972,
      "ularly": 5973,
      "noon": 5974,
      "nobody": 5975,
      "compla": 5976,
      "composed": 5977,
      "kets": 5978,
      "kept": 5979,
      "amar": 5980,
      "amber": 5981,
      "adren": 5982,
      "admission": 5983,
      "withers": 5984,
      "rival": 5985,
      "shim": 5986,
      "shall": 5987,
      "shrew": 5988,
      "essential": 5989,
      "outer": 5990,
      "laz": 5991,
      "geon": 5992,
      "actions": 5993,
      "erson": 5994,
      "irk": 5995,
      "feast": 5996,
      "feet": 5997,
      "feathers": 5998,
      "terior": 5999,
      "explain": 6000,
      "exposition": 6001,
      "doo": 6002,
      "dose": 6003,
      "therap": 6004,
      "neil": 6005,
      "pep": 6006,
      "confin": 6007,
      "conserv": 6008,
      "consequences": 6009,
      "concentr": 6010,
      "conspi": 6011,
      "este": 6012,
      "persu": 6013,
      "ills": 6014,
      "illen": 6015,
      "ousness": 6016,
      "hast": 6017,
      "hazard": 6018,
      "emy": 6019,
      "quer": 6020,
      "artfully": 6021,
      "uments": 6022,
      "urge": 6023,
      "isters": 6024,
      "usal": 6025,
      "heated": 6026,
      "web": 6027,
      "wearing": 6028,
      "prospect": 6029,
      "spac": 6030,
      "spinning": 6031,
      "elled": 6032,
      "ifer": 6033,
      "iffle": 6034,
      "endure": 6035,
      "evo": 6036,
      "evans": 6037,
      "ints": 6038,
      "indic": 6039,
      "indict": 6040,
      "opens": 6041,
      "oppress": 6042,
      "astound": 6043,
      "meal": 6044,
      "function": 6045,
      "teeth": 6046,
      "ours": 6047,
      "ourselves": 6048,
      "traff": 6049,
      "clu": 6050,
      "cles": 6051,
      "clue": 6052,
      "clunky": 6053,
      "icking": 6054,
      "compens": 6055,
      "overblown": 6056,
      "phone": 6057,
      "offend": 6058,
      "crew": 6059,
      "itect": 6060,
      "joan": 6061,
      "jolie": 6062,
      "coc": 6063,
      "cox": 6064,
      "coli": 6065,
      "colo": 6066,
      "cook": 6067,
      "cohes": 6068,
      "fault": 6069,
      "proud": 6070,
      "bral": 6071,
      "bruck": 6072,
      "brisk": 6073,
      "talky": 6074,
      "flor": 6075,
      "flour": 6076,
      "wells": 6077,
      "feelings": 6078,
      "crity": 6079,
      "blu": 6080,
      "blur": 6081,
      "everyday": 6082,
      "player": 6083,
      "otion": 6084,
      "aky": 6085,
      "imperson": 6086,
      "screw": 6087,
      "subculture": 6088,
      "submarine": 6089,
      "nesses": 6090,
      "specul": 6091,
      "velocity": 6092,
      "afer": 6093,
      "afloat": 6094,
      "grath": 6095,
      "grapher": 6096,
      "jewish": 6097,
      "angels": 6098,
      "maged": 6099,
      "host": 6100,
      "hosp": 6101,
      "underlying": 6102,
      "warmed": 6103,
      "merchant": 6104,
      "choice": 6105,
      "chosen": 6106,
      "inking": 6107,
      "steve": 6108,
      "steam": 6109,
      "steers": 6110,
      "versity": 6111,
      "downer": 6112,
      "shoulders": 6113,
      "casts": 6114,
      "castro": 6115,
      "cible": 6116,
      "greater": 6117,
      "pointed": 6118,
      "firm": 6119,
      "avary": 6120,
      "plus": 6121,
      "collapses": 6122,
      "belo": 6123,
      "belt": 6124,
      "holm": 6125,
      "france": 6126,
      "frantic": 6127,
      "daw": 6128,
      "chew": 6129,
      "laughed": 6130,
      "athle": 6131,
      "kinda": 6132,
      "formly": 6133,
      "pleasurable": 6134,
      "capacity": 6135,
      "bread": 6136,
      "higher": 6137,
      "buried": 6138,
      "kidman": 6139,
      "clothes": 6140,
      "guez": 6141,
      "wanting": 6142,
      "media": 6143,
      "pola": 6144,
      "handled": 6145,
      "titled": 6146,
      "nier": 6147,
      "singles": 6148,
      "sincer": 6149,
      "appet": 6150,
      "swept": 6151,
      "fix": 6152,
      "producers": 6153,
      "nail": 6154,
      "napo": 6155,
      "sons": 6156,
      "sake": 6157,
      "passing": 6158,
      "skate": 6159,
      "shocks": 6160,
      "eyre": 6161,
      "volatile": 6162,
      "sayles": 6163,
      "expectation": 6164,
      "venile": 6165,
      "dities": 6166,
      "rub": 6167,
      "anime": 6168,
      "german": 6169,
      "silent": 6170,
      "graphical": 6171,
      "commonly": 6172,
      "sweetly": 6173,
      "darker": 6174,
      "hypo": 6175,
      "hype": 6176,
      "harder": 6177,
      "perfection": 6178,
      "cleverly": 6179,
      "slash": 6180,
      "slugg": 6181,
      "basis": 6182,
      "wai": 6183,
      "depends": 6184,
      "explosions": 6185,
      "familiarity": 6186,
      "folk": 6187,
      "hilarity": 6188,
      "factory": 6189,
      "portions": 6190,
      "refuge": 6191,
      "lucas": 6192,
      "voy": 6193,
      "suffoc": 6194,
      "sorority": 6195,
      "sensit": 6196,
      "senses": 6197,
      "sensical": 6198,
      "student": 6199,
      "criminal": 6200,
      "breaks": 6201,
      "spots": 6202,
      "decid": 6203,
      "decide": 6204,
      "nonsensical": 6205,
      "pastiche": 6206,
      "uniformly": 6207,
      "effortlessly": 6208,
      "tug": 6209,
      "letter": 6210,
      "examines": 6211,
      "solidly": 6212,
      "successfully": 6213,
      "delights": 6214,
      "griff": 6215,
      "richard": 6216,
      "dogtown": 6217,
      "thorn": 6218,
      "architect": 6219,
      "rolls": 6220,
      "affected": 6221,
      "deserved": 6222,
      "brilliance": 6223,
      "confused": 6224,
      "projects": 6225,
      "occasional": 6226,
      "snappy": 6227,
      "snipes": 6228,
      "soulful": 6229,
      "convinced": 6230,
      "yawn": 6231,
      "ferr": 6232,
      "develops": 6233,
      "combat": 6234,
      "combined": 6235,
      "juli": 6236,
      "juvenile": 6237,
      "disappointment": 6238,
      "disappointingly": 6239,
      "earnestness": 6240,
      "coppola": 6241,
      "troopers": 6242,
      "fantasies": 6243,
      "wilco": 6244,
      "fortune": 6245,
      "pulling": 6246,
      "imaginable": 6247,
      "meaningful": 6248,
      "meaningless": 6249,
      "drops": 6250,
      "clichéd": 6251,
      "literate": 6252,
      "court": 6253,
      "nuance": 6254,
      "forceful": 6255,
      "sleeve": 6256,
      "behan": 6257,
      "miracle": 6258,
      "stupidity": 6259,
      "101": 6260,
      "invention": 6261,
      "pretends": 6262,
      "pretensions": 6263,
      "failed": 6264,
      "crafts": 6265,
      "naturalistic": 6266,
      "purely": 6267,
      "aliens": 6268,
      "bullets": 6269,
      "idiosyn": 6270,
      "wishing": 6271,
      "murderous": 6272,
      "fuzzy": 6273,
      "madden": 6274,
      "concern": 6275,
      "greene": 6276,
      "connection": 6277,
      "hotel": 6278,
      "includes": 6279,
      "attract": 6280,
      "guilt": 6281,
      "celebrity": 6282,
      "cerebral": 6283,
      "incisive": 6284,
      "innocent": 6285,
      "absurdist": 6286,
      "builds": 6287,
      "kinnear": 6288,
      "piccoli": 6289,
      "deeds": 6290,
      "demons": 6291,
      "types": 6292,
      "mediocrity": 6293,
      "hannibal": 6294,
      "expression": 6295,
      "mcgrath": 6296,
      "torn": 6297,
      "sparkling": 6298,
      "metaphors": 6299,
      "prime": 6300,
      "primarily": 6301,
      "brian": 6302,
      "brium": 6303,
      "revelation": 6304,
      "clima": 6305,
      "struggling": 6306,
      "connections": 6307,
      "circuit": 6308,
      "jerry": 6309,
      "support": 6310,
      "judd": 6311,
      "tasteless": 6312,
      "expense": 6313,
      "elegantly": 6314,
      "sarandon": 6315,
      "expertly": 6316,
      "described": 6317,
      "favorite": 6318,
      "demonstrate": 6319,
      "philosophy": 6320,
      "fingered": 6321,
      "alternative": 6322,
      "swimfan": 6323,
      "absurdity": 6324,
      "walls": 6325,
      "anderson": 6326,
      "aristo": 6327,
      "layers": 6328,
      "tackles": 6329,
      "crystal": 6330,
      "specif": 6331,
      "hungry": 6332,
      "sketchy": 6333,
      "bogus": 6334,
      "bogdan": 6335,
      "dragonfly": 6336,
      "hallmark": 6337,
      "banter": 6338,
      "stretched": 6339,
      "chuckles": 6340,
      "improvised": 6341,
      "emphasizes": 6342,
      "wreck": 6343,
      "waters": 6344,
      "eloquent": 6345,
      "insulting": 6346,
      "dynamic": 6347,
      "calculated": 6348,
      "lampoon": 6349,
      "defies": 6350,
      "deceptively": 6351,
      "mechanical": 6352,
      "authority": 6353,
      "accents": 6354,
      "lucky": 6355,
      "sacrifice": 6356,
      "recycled": 6357,
      "enormous": 6358,
      "enormously": 6359,
      "ambiguity": 6360,
      "neglect": 6361,
      "weaves": 6362,
      "borrows": 6363,
      "exhausting": 6364,
      "clause": 6365,
      "catholic": 6366,
      "thousands": 6367,
      "status": 6368,
      "assembled": 6369,
      "nomination": 6370,
      "haphazard": 6371,
      "thankfully": 6372,
      "ignore": 6373,
      "aggressively": 6374,
      "accurate": 6375,
      "succumbs": 6376,
      "sensibility": 6377,
      "transparen": 6378,
      "episodes": 6379,
      "evidence": 6380,
      "kahlo": 6381,
      "tadpole": 6382,
      "iciently": 6383,
      "exceedingly": 6384,
      "precisely": 6385,
      "technically": 6386,
      "legendary": 6387,
      "aspirations": 6388,
      "remotely": 6389,
      "hidden": 6390,
      "redundant": 6391,
      "sweeping": 6392,
      "hypnotic": 6393,
      "infectious": 6394,
      "encouraging": 6395,
      "chief": 6396,
      "moonlight": 6397,
      "rodriguez": 6398,
      "shanghai": 6399,
      "irresistible": 6400,
      "confirms": 6401,
      "convenient": 6402,
      "idelity": 6403,
      "clunker": 6404,
      "flamboy": 6405,
      "tremendous": 6406,
      "monotonous": 6407,
      "flavor": 6408,
      "translation": 6409,
      "elizabeth": 6410,
      "flimsy": 6411,
      "mundane": 6412,
      "redemption": 6413,
      "reminiscent": 6414,
      "allegory": 6415,
      "sheridan": 6416,
      "paxton": 6417,
      "obstacles": 6418,
      "choreo": 6419,
      "paradiso": 6420,
      "undoubtedly": 6421,
      "astonishingly": 6422,
      "loneliness": 6423,
      "heavily": 6424,
      "binoche": 6425,
      "hokum": 6426,
      "labored": 6427,
      "plympton": 6428,
      "replete": 6429,
      "beguiling": 6430,
      "lifestyle": 6431,
      "lopez": 6432,
      "adrenal": 6433,
      "witherspoon": 6434,
      "shrewd": 6435,
      "therapy": 6436,
      "conservative": 6437,
      "spaces": 6438,
      "bruckheimer": 6439,
      "sluggish": 6440,
      "-'": 6441,
      "17": 6442,
      "25": 6443,
      "95": 6444,
      "aque": 6445,
      "bage": 6446,
      "bank": 6447,
      "bones": 6448,
      "bump": 6449,
      "cil": 6450,
      "dass": 6451,
      "dating": 6452,
      "dren": 6453,
      "eis": 6454,
      "etr": 6455,
      "fess": 6456,
      "fond": 6457,
      "gas": 6458,
      "gers": 6459,
      "gasp": 6460,
      "ira": 6461,
      "ibles": 6462,
      "jess": 6463,
      "jay": 6464,
      "jet": 6465,
      "juni": 6466,
      "kne": 6467,
      "lter": 6468,
      "lust": 6469,
      "lich": 6470,
      "lark": 6471,
      "lord": 6472,
      "lision": 6473,
      "mex": 6474,
      "mour": 6475,
      "mish": 6476,
      "mired": 6477,
      "muted": 6478,
      "morton": 6479,
      "naked": 6480,
      "não": 6481,
      "oed": 6482,
      "ovan": 6483,
      "pap": 6484,
      "pable": 6485,
      "pical": 6486,
      "pink": 6487,
      "pants": 6488,
      "qat": 6489,
      "rou": 6490,
      "rang": 6491,
      "rors": 6492,
      "rank": 6493,
      "rising": 6494,
      "sli": 6495,
      "sul": 6496,
      "swo": 6497,
      "sie": 6498,
      "sane": 6499,
      "sively": 6500,
      "sided": 6501,
      "sizz": 6502,
      "sundance": 6503,
      "sisters": 6504,
      "tart": 6505,
      "twe": 6506,
      "tense": 6507,
      "tren": 6508,
      "tics": 6509,
      "ufact": 6510,
      "uloid": 6511,
      "vest": 6512,
      "vous": 6513,
      "vac": 6514,
      "wiel": 6515,
      "witted": 6516,
      "wendi": 6517,
      "xing": 6518,
      "yi": 6519,
      "yac": 6520,
      "zil": 6521,
      "ths": 6522,
      "inex": 6523,
      "infl": 6524,
      "inian": 6525,
      "invin": 6526,
      "inert": 6527,
      "inconsistent": 6528,
      "anom": 6529,
      "anion": 6530,
      "anci": 6531,
      "anachron": 6532,
      "eral": 6533,
      "ercial": 6534,
      "ret": 6535,
      "resc": 6536,
      "restrained": 6537,
      "resurrect": 6538,
      "enha": 6539,
      "enet": 6540,
      "envelop": 6541,
      "ata": 6542,
      "atfalls": 6543,
      "isolation": 6544,
      "itage": 6545,
      "esome": 6546,
      "orous": 6547,
      "orial": 6548,
      "oufla": 6549,
      "alex": 6550,
      "argent": 6551,
      "argue": 6552,
      "arrive": 6553,
      "stall": 6554,
      "toback": 6555,
      "lyric": 6556,
      "edom": 6557,
      "edgy": 6558,
      "ilarly": 6559,
      "icion": 6560,
      "leag": 6561,
      "lett": 6562,
      "omercial": 6563,
      "chi": 6564,
      "chamber": 6565,
      "elusive": 6566,
      "entre": 6567,
      "secon": 6568,
      "seats": 6569,
      "map": 6570,
      "undis": 6571,
      "unexpect": 6572,
      "unfamiliar": 6573,
      "unrelent": 6574,
      "unbelievable": 6575,
      "unlikable": 6576,
      "uncanny": 6577,
      "uncommonly": 6578,
      "via": 6579,
      "rapt": 6580,
      "raise": 6581,
      "deprec": 6582,
      "deja": 6583,
      "loop": 6584,
      "losing": 6585,
      "verb": 6586,
      "versy": 6587,
      "verbal": 6588,
      "ime": 6589,
      "iments": 6590,
      "roy": 6591,
      "como": 6592,
      "comings": 6593,
      "susan": 6594,
      "adro": 6595,
      "addict": 6596,
      "ados": 6597,
      "rigid": 6598,
      "shtick": 6599,
      "dily": 6600,
      "diane": 6601,
      "outcome": 6602,
      "law": 6603,
      "fewer": 6604,
      "exas": 6605,
      "exists": 6606,
      "doc": 6607,
      "dod": 6608,
      "dots": 6609,
      "dote": 6610,
      "dozen": 6611,
      "neck": 6612,
      "nemes": 6613,
      "petr": 6614,
      "peace": 6615,
      "consp": 6616,
      "condit": 6617,
      "congrat": 6618,
      "oding": 6619,
      "manif": 6620,
      "manners": 6621,
      "manufact": 6622,
      "scra": 6623,
      "scot": 6624,
      "peror": 6625,
      "soaked": 6626,
      "emperor": 6627,
      "quarter": 6628,
      "artful": 6629,
      "artsy": 6630,
      "goal": 6631,
      "goose": 6632,
      "rome": 6633,
      "romane": 6634,
      "anton": 6635,
      "notting": 6636,
      "preced": 6637,
      "hears": 6638,
      "byler": 6639,
      "prote": 6640,
      "sport": 6641,
      "spice": 6642,
      "charles": 6643,
      "enden": 6644,
      "igree": 6645,
      "agent": 6646,
      "opaque": 6647,
      "asting": 6648,
      "boo": 6649,
      "boiler": 6650,
      "meth": 6651,
      "funeral": 6652,
      "waydowntown": 6653,
      "canad": 6654,
      "acqu": 6655,
      "ounce": 6656,
      "tei": 6657,
      "lessons": 6658,
      "muse": 6659,
      "train": 6660,
      "tract": 6661,
      "eped": 6662,
      "gues": 6663,
      "guard": 6664,
      "companion": 6665,
      "overcomes": 6666,
      "mattei": 6667,
      "mentally": 6668,
      "insanity": 6669,
      "willis": 6670,
      "jos": 6671,
      "jose": 6672,
      "code": 6673,
      "cobbled": 6674,
      "fathers": 6675,
      "pratfalls": 6676,
      "displays": 6677,
      "disquiet": 6678,
      "distasteful": 6679,
      "tti": 6680,
      "performed": 6681,
      "bert": 6682,
      "grew": 6683,
      "crane": 6684,
      "surance": 6685,
      "blat": 6686,
      "blame": 6687,
      "blank": 6688,
      "genius": 6689,
      "international": 6690,
      "fren": 6691,
      "freund": 6692,
      "freedom": 6693,
      "akin": 6694,
      "implies": 6695,
      "suburban": 6696,
      "subtitles": 6697,
      "subplots": 6698,
      "sublime": 6699,
      "achingly": 6700,
      "duke": 6701,
      "foster": 6702,
      "foibles": 6703,
      "grac": 6704,
      "gravity": 6705,
      "centered": 6706,
      "seek": 6707,
      "seeks": 6708,
      "magical": 6709,
      "myers": 6710,
      "holy": 6711,
      "hokey": 6712,
      "trivial": 6713,
      "partner": 6714,
      "lingering": 6715,
      "renner": 6716,
      "warri": 6717,
      "observed": 6718,
      "motions": 6719,
      "turkey": 6720,
      "steal": 6721,
      "steals": 6722,
      "steeped": 6723,
      "misery": 6724,
      "smiles": 6725,
      "shower": 6726,
      "ava": 6727,
      "characteristic": 6728,
      "monsoon": 6729,
      "monument": 6730,
      "cumst": 6731,
      "plat": 6732,
      "ples": 6733,
      "plum": 6734,
      "plate": 6735,
      "colla": 6736,
      "collision": 6737,
      "donovan": 6738,
      "caring": 6739,
      "carmen": 6740,
      "carried": 6741,
      "frat": 6742,
      "joyless": 6743,
      "farc": 6744,
      "farrel": 6745,
      "nervy": 6746,
      "nervous": 6747,
      "everlasting": 6748,
      "daily": 6749,
      "dahl": 6750,
      "damaged": 6751,
      "occur": 6752,
      "occup": 6753,
      "athlet": 6754,
      "momento": 6755,
      "cutesy": 6756,
      "mars": 6757,
      "marquis": 6758,
      "venture": 6759,
      "awfully": 6760,
      "awesome": 6761,
      "queens": 6762,
      "fincher": 6763,
      "highest": 6764,
      "bug": 6765,
      "buff": 6766,
      "bucks": 6767,
      "brooding": 6768,
      "enjoys": 6769,
      "contest": 6770,
      "miya": 6771,
      "viewed": 6772,
      "relate": 6773,
      "antics": 6774,
      "cram": 6775,
      "craw": 6776,
      "afternoon": 6777,
      "handle": 6778,
      "generous": 6779,
      "generates": 6780,
      "sinister": 6781,
      "distant": 6782,
      "morally": 6783,
      "surprised": 6784,
      "nails": 6785,
      "paralle": 6786,
      "parano": 6787,
      "passes": 6788,
      "passed": 6789,
      "passable": 6790,
      "passions": 6791,
      "skins": 6792,
      "puted": 6793,
      "flaw": 6794,
      "videos": 6795,
      "classics": 6796,
      "freshness": 6797,
      "volum": 6798,
      "vino": 6799,
      "dreck": 6800,
      "rude": 6801,
      "ios": 6802,
      "193": 6803,
      "1970s": 6804,
      "strains": 6805,
      "ilibrium": 6806,
      "predictability": 6807,
      "scher": 6808,
      "brav": 6809,
      "brave": 6810,
      "heady": 6811,
      "glum": 6812,
      "landmark": 6813,
      "walter": 6814,
      "wallop": 6815,
      "falling": 6816,
      "helped": 6817,
      "wake": 6818,
      "midnight": 6819,
      "crucial": 6820,
      "burger": 6821,
      "steady": 6822,
      "limit": 6823,
      "limits": 6824,
      "suspend": 6825,
      "appalling": 6826,
      "profund": 6827,
      "tony": 6828,
      "charmless": 6829,
      "ballot": 6830,
      "ekerk": 6831,
      "refusal": 6832,
      "benjam": 6833,
      "shortcomings": 6834,
      "equilibrium": 6835,
      "sorrow": 6836,
      "sordid": 6837,
      "sorvino": 6838,
      "strongly": 6839,
      "curves": 6840,
      "politically": 6841,
      "murky": 6842,
      "captured": 6843,
      "breakthrough": 6844,
      "satisfies": 6845,
      "garbage": 6846,
      "tub": 6847,
      "allowed": 6848,
      "impressed": 6849,
      "hopes": 6850,
      "adventurous": 6851,
      "norm": 6852,
      "ification": 6853,
      "daniel": 6854,
      "involve": 6855,
      "stuffed": 6856,
      "vanity": 6857,
      "mixes": 6858,
      "damon": 6859,
      "drivel": 6860,
      "paying": 6861,
      "payne": 6862,
      "swinging": 6863,
      "jackass": 6864,
      "detached": 6865,
      "defines": 6866,
      "definition": 6867,
      "confidence": 6868,
      "killing": 6869,
      "seldahl": 6870,
      "exception": 6871,
      "pedigree": 6872,
      "mask": 6873,
      "convince": 6874,
      "personalities": 6875,
      "followed": 6876,
      "ambitions": 6877,
      "malko": 6878,
      "demme": 6879,
      "devices": 6880,
      "believing": 6881,
      "explan": 6882,
      "niche": 6883,
      "transpor": 6884,
      "majidi": 6885,
      "freeman": 6886,
      "pulled": 6887,
      "costner": 6888,
      "facing": 6889,
      "facile": 6890,
      "crossroads": 6891,
      "sleek": 6892,
      "ordinarily": 6893,
      "pray": 6894,
      "consciously": 6895,
      "gorgeously": 6896,
      "roberto": 6897,
      "salv": 6898,
      "simone": 6899,
      "similarly": 6900,
      "depressed": 6901,
      "depression": 6902,
      "throwback": 6903,
      "reminded": 6904,
      "telegraphed": 6905,
      "hampered": 6906,
      "isterous": 6907,
      "shadyac": 6908,
      "weaknesses": 6909,
      "skills": 6910,
      "yester": 6911,
      "include": 6912,
      "feardot": 6913,
      "indulgence": 6914,
      "graceful": 6915,
      "resonate": 6916,
      "cartoonish": 6917,
      "incident": 6918,
      "diverse": 6919,
      "frustration": 6920,
      "bollywood": 6921,
      "possibility": 6922,
      "hanks": 6923,
      "homes": 6924,
      "expressive": 6925,
      "conceit": 6926,
      "pyro": 6927,
      "reaches": 6928,
      "mannered": 6929,
      "ussion": 6930,
      "supposedly": 6931,
      "revelations": 6932,
      "absolute": 6933,
      "bows": 6934,
      "numerous": 6935,
      "respon": 6936,
      "rewarded": 6937,
      "movements": 6938,
      "connected": 6939,
      "conflicted": 6940,
      "circumst": 6941,
      "penetr": 6942,
      "punct": 6943,
      "punish": 6944,
      "escapist": 6945,
      "appreciated": 6946,
      "paints": 6947,
      "vulner": 6948,
      "judgment": 6949,
      "walked": 6950,
      "exploring": 6951,
      "atmospher": 6952,
      "require": 6953,
      "rambling": 6954,
      "lifts": 6955,
      "besides": 6956,
      "bridge": 6957,
      "infomercial": 6958,
      "reduces": 6959,
      "recording": 6960,
      "ghosts": 6961,
      "intensely": 6962,
      "incredible": 6963,
      "cherish": 6964,
      "admirably": 6965,
      "dressed": 6966,
      "christop": 6967,
      "regarding": 6968,
      "stereotypical": 6969,
      "boldly": 6970,
      "camoufla": 6971,
      "vails": 6972,
      "shaped": 6973,
      "survive": 6974,
      "productions": 6975,
      "biographical": 6976,
      "guts": 6977,
      "rooting": 6978,
      "bogs": 6979,
      "awareness": 6980,
      "variation": 6981,
      "henry": 6982,
      "terrorist": 6983,
      "willingness": 6984,
      "familial": 6985,
      "alienation": 6986,
      "multi": 6987,
      "rupt": 6988,
      "russell": 6989,
      "wisdom": 6990,
      "amiable": 6991,
      "drawing": 6992,
      "stretches": 6993,
      "evelyn": 6994,
      "tossed": 6995,
      "education": 6996,
      "chuckle": 6997,
      "embraces": 6998,
      "qualify": 6999,
      "transformation": 7000,
      "goldmember": 7001,
      "overwhelming": 7002,
      "motivated": 7003,
      "motivations": 7004,
      "celluloid": 7005,
      "mendes": 7006,
      "michel": 7007,
      "pitfalls": 7008,
      "influence": 7009,
      "enigmatic": 7010,
      "alleged": 7011,
      "macdowell": 7012,
      "mechanics": 7013,
      "drumline": 7014,
      "individual": 7015,
      "individuals": 7016,
      "dares": 7017,
      "dumas": 7018,
      "hatred": 7019,
      "tambor": 7020,
      "sucker": 7021,
      "ambiguous": 7022,
      "properly": 7023,
      "seductive": 7024,
      "claude": 7025,
      "thousand": 7026,
      "departure": 7027,
      "youthful": 7028,
      "hawk": 7029,
      "hawke": 7030,
      "employ": 7031,
      "gloriously": 7032,
      "vaguely": 7033,
      "baby": 7034,
      "jonah": 7035,
      "oliver": 7036,
      "initial": 7037,
      "conveying": 7038,
      "perceptive": 7039,
      "snapshot": 7040,
      "repeatedly": 7041,
      "squarely": 7042,
      "pilot": 7043,
      "smacks": 7044,
      "wollter": 7045,
      "inexplicable": 7046,
      "arguments": 7047,
      "debate": 7048,
      "lovingly": 7049,
      "ironically": 7050,
      "scares": 7051,
      "weighs": 7052,
      "disgusting": 7053,
      "crudup": 7054,
      "dubious": 7055,
      "obscure": 7056,
      "baseball": 7057,
      "chronicle": 7058,
      "substitute": 7059,
      "enthusiastic": 7060,
      "redeeming": 7061,
      "21st": 7062,
      "civil": 7063,
      "naught": 7064,
      "reputation": 7065,
      "instincts": 7066,
      "fleeting": 7067,
      "guaranteed": 7068,
      "fisted": 7069,
      "ozpete": 7070,
      "spontaneity": 7071,
      "insanely": 7072,
      "controversy": 7073,
      "immensely": 7074,
      "opportunities": 7075,
      "minimalist": 7076,
      "schmaltzy": 7077,
      "fictional": 7078,
      "tumult": 7079,
      "thomas": 7080,
      "regret": 7081,
      "bettany": 7082,
      "wholesome": 7083,
      "shaggy": 7084,
      "exaggerated": 7085,
      "strangers": 7086,
      "corporate": 7087,
      "prophecies": 7088,
      "dishonest": 7089,
      "solemn": 7090,
      "squeeze": 7091,
      "knack": 7092,
      "mckay": 7093,
      "sardonic": 7094,
      "zaki": 7095,
      "reunion": 7096,
      "chateau": 7097,
      "champion": 7098,
      "hastily": 7099,
      "evoke": 7100,
      "indictment": 7101,
      "florid": 7102,
      "flourishes": 7103,
      "firmly": 7104,
      "sincerity": 7105,
      "napoleon": 7106,
      "refugees": 7107,
      "decidedly": 7108,
      "thornberry": 7109,
      "idiosyncratic": 7110,
      "climactic": 7111,
      "specifically": 7112,
      "bogdanovich": 7113,
      "flamboyant": 7114,
      "drenched": 7115,
      "fessenden": 7116,
      "jessica": 7117,
      "mexic": 7118,
      "oedekerk": 7119,
      "qatsi": 7120,
      "rouge": 7121,
      "wendigo": 7122,
      "invincible": 7123,
      "anachronistic": 7124,
      "rescue": 7125,
      "seconds": 7126,
      "undisputed": 7127,
      "unexpectedly": 7128,
      "deprecating": 7129,
      "nemesis": 7130,
      "congratul": 7131,
      "manufactured": 7132,
      "romanek": 7133,
      "freundlich": 7134,
      "farrelly": 7135,
      "athletes": 7136,
      "miyazaki": 7137,
      "paranoia": 7138,
      "benjamins": 7139,
      "malkovich": 7140,
      "transporter": 7141,
      "feardotcom": 7142,
      "ozpetek": 7143,
      "18": 7144,
      "apo": 7145,
      "ape": 7146,
      "aqu": 7147,
      "bm": 7148,
      "bé": 7149,
      "bou": 7150,
      "bent": 7151,
      "bli": 7152,
      "bess": 7153,
      "bby": 7154,
      "bast": 7155,
      "bren": 7156,
      "buster": 7157,
      "cof": 7158,
      "ccer": 7159,
      "clim": 7160,
      "ccid": 7161,
      "cipher": 7162,
      "dic": 7163,
      "dles": 7164,
      "dings": 7165,
      "dinner": 7166,
      "ee": 7167,
      "ean": 7168,
      "ech": 7169,
      "eky": 7170,
      "fum": 7171,
      "fang": 7172,
      "fitting": 7173,
      "gs": 7174,
      "gla": 7175,
      "gong": 7176,
      "gau": 7177,
      "gere": 7178,
      "gile": 7179,
      "glee": 7180,
      "gasm": 7181,
      "hr": 7182,
      "hed": 7183,
      "hous": 7184,
      "hind": 7185,
      "hors": 7186,
      "hund": 7187,
      "ij": 7188,
      "iac": 7189,
      "ipaul": 7190,
      "ji": 7191,
      "jel": 7192,
      "jell": 7193,
      "jaw": 7194,
      "jarring": 7195,
      "jenn": 7196,
      "kim": 7197,
      "kits": 7198,
      "kaf": 7199,
      "kho": 7200,
      "kiness": 7201,
      "kwan": 7202,
      "lof": 7203,
      "lil": 7204,
      "lur": 7205,
      "lunch": 7206,
      "lined": 7207,
      "lilo": 7208,
      "mim": 7209,
      "mous": 7210,
      "mist": 7211,
      "mine": 7212,
      "nap": 7213,
      "nif": 7214,
      "nach": 7215,
      "norton": 7216,
      "ored": 7217,
      "pg": 7218,
      "pel": 7219,
      "pess": 7220,
      "pous": 7221,
      "pus": 7222,
      "pier": 7223,
      "penter": 7224,
      "pandering": 7225,
      "piffle": 7226,
      "ré": 7227,
      "rill": 7228,
      "rust": 7229,
      "rarity": 7230,
      "selling": 7231,
      "slea": 7232,
      "sabo": 7233,
      "swash": 7234,
      "tact": 7235,
      "tte": 7236,
      "tesque": 7237,
      "uct": 7238,
      "uri": 7239,
      "uso": 7240,
      "ucin": 7241,
      "uously": 7242,
      "vu": 7243,
      "vall": 7244,
      "vict": 7245,
      "vating": 7246,
      "vents": 7247,
      "vain": 7248,
      "vili": 7249,
      "villen": 7250,
      "wist": 7251,
      "wink": 7252,
      "wdry": 7253,
      "waking": 7254,
      "xual": 7255,
      "yid": 7256,
      "yingly": 7257,
      "ybur": 7258,
      "thread": 7259,
      "iner": 7260,
      "inion": 7261,
      "inally": 7262,
      "instruct": 7263,
      "innu": 7264,
      "inquis": 7265,
      "incompetent": 7266,
      "informat": 7267,
      "invaluable": 7268,
      "incoherence": 7269,
      "invigor": 7270,
      "incomprehensible": 7271,
      "insurance": 7272,
      "anem": 7273,
      "ancing": 7274,
      "anella": 7275,
      "eras": 7276,
      "theon": 7277,
      "theory": 7278,
      "thematically": 7279,
      "rec": 7280,
      "reas": 7281,
      "reci": 7282,
      "repul": 7283,
      "represent": 7284,
      "relying": 7285,
      "repressed": 7286,
      "rebell": 7287,
      "enge": 7288,
      "enjo": 7289,
      "enhan": 7290,
      "enemy": 7291,
      "ati": 7292,
      "atable": 7293,
      "atically": 7294,
      "atives": 7295,
      "ista": 7296,
      "itter": 7297,
      "itary": 7298,
      "itative": 7299,
      "itudes": 7300,
      "esto": 7301,
      "ora": 7302,
      "oring": 7303,
      "orange": 7304,
      "ald": 7305,
      "albe": 7306,
      "alice": 7307,
      "alert": 7308,
      "algam": 7309,
      "anded": 7310,
      "arc": 7311,
      "arming": 7312,
      "stark": 7313,
      "stult": 7314,
      "states": 7315,
      "stree": 7316,
      "lyne": 7317,
      "lynch": 7318,
      "ilities": 7319,
      "icide": 7320,
      "icature": 7321,
      "asi": 7322,
      "leth": 7323,
      "legu": 7324,
      "leash": 7325,
      "omy": 7326,
      "chom": 7327,
      "chimp": 7328,
      "chain": 7329,
      "chord": 7330,
      "mothers": 7331,
      "motown": 7332,
      "elow": 7333,
      "elbeck": 7334,
      "enticing": 7335,
      "seas": 7336,
      "searing": 7337,
      "selection": 7338,
      "bean": 7339,
      "betty": 7340,
      "became": 7341,
      "bewilder": 7342,
      "mael": 7343,
      "unit": 7344,
      "unbl": 7345,
      "uninteresting": 7346,
      "unpretentious": 7347,
      "unwatchable": 7348,
      "unconventional": 7349,
      "uncomfortable": 7350,
      "unassuming": 7351,
      "vier": 7352,
      "vies": 7353,
      "raising": 7354,
      "raised": 7355,
      "radar": 7356,
      "dele": 7357,
      "demean": 7358,
      "forte": 7359,
      "lied": 7360,
      "loa": 7361,
      "lod": 7362,
      "lose": 7363,
      "whiny": 7364,
      "abs": 7365,
      "aby": 7366,
      "abre": 7367,
      "ables": 7368,
      "abund": 7369,
      "abilities": 7370,
      "vera": 7371,
      "verty": 7372,
      "verted": 7373,
      "rogen": 7374,
      "ulous": 7375,
      "nov": 7376,
      "noise": 7377,
      "cely": 7378,
      "ceful": 7379,
      "comics": 7380,
      "composition": 7381,
      "supre": 7382,
      "sucks": 7383,
      "sucking": 7384,
      "kett": 7385,
      "amalgam": 7386,
      "adent": 7387,
      "adver": 7388,
      "advert": 7389,
      "withstanding": 7390,
      "riot": 7391,
      "rigor": 7392,
      "shout": 7393,
      "shir": 7394,
      "shain": 7395,
      "shining": 7396,
      "shrill": 7397,
      "digg": 7398,
      "diva": 7399,
      "outland": 7400,
      "laure": 7401,
      "laid": 7402,
      "actu": 7403,
      "extent": 7404,
      "dos": 7405,
      "doct": 7406,
      "doors": 7407,
      "pokes": 7408,
      "poverty": 7409,
      "thered": 7410,
      "peak": 7411,
      "conform": 7412,
      "consum": 7413,
      "area": 7414,
      "estrogen": 7415,
      "odys": 7416,
      "scand": 7417,
      "scapes": 7418,
      "pero": 7419,
      "peril": 7420,
      "perme": 7421,
      "perry": 7422,
      "perdition": 7423,
      "perpetr": 7424,
      "tax": 7425,
      "taine": 7426,
      "taps": 7427,
      "tawdry": 7428,
      "soccer": 7429,
      "illusion": 7430,
      "empo": 7431,
      "quant": 7432,
      "quitting": 7433,
      "quaid": 7434,
      "arty": 7435,
      "goals": 7436,
      "ummy": 7437,
      "urally": 7438,
      "notable": 7439,
      "notwithstanding": 7440,
      "useless": 7441,
      "prevent": 7442,
      "prevents": 7443,
      "hewitt": 7444,
      "worship": 7445,
      "prose": 7446,
      "probe": 7447,
      "proportions": 7448,
      "idad": 7449,
      "apl": 7450,
      "appla": 7451,
      "likeable": 7452,
      "spous": 7453,
      "spends": 7454,
      "spraw": 7455,
      "charlot": 7456,
      "mores": 7457,
      "eved": 7458,
      "agend": 7459,
      "agree": 7460,
      "inder": 7461,
      "oping": 7462,
      "opts": 7463,
      "opinion": 7464,
      "bogged": 7465,
      "boisterous": 7466,
      "trim": 7467,
      "metal": 7468,
      "storytell": 7469,
      "ittedly": 7470,
      "canon": 7471,
      "canned": 7472,
      "august": 7473,
      "acid": 7474,
      "accor": 7475,
      "accumul": 7476,
      "ptuous": 7477,
      "etc": 7478,
      "mushy": 7479,
      "muccin": 7480,
      "trail": 7481,
      "clut": 7482,
      "clashing": 7483,
      "guided": 7484,
      "compared": 7485,
      "overkill": 7486,
      "evening": 7487,
      "thrust": 7488,
      "goods": 7489,
      "phones": 7490,
      "phony": 7491,
      "offic": 7492,
      "intoler": 7493,
      "woe": 7494,
      "insip": 7495,
      "insider": 7496,
      "joel": 7497,
      "assign": 7498,
      "coinc": 7499,
      "wness": 7500,
      "dismiss": 7501,
      "disintegr": 7502,
      "dismissed": 7503,
      "disease": 7504,
      "ears": 7505,
      "ieu": 7506,
      "lowbrow": 7507,
      "lowski": 7508,
      "ploitation": 7509,
      "sermon": 7510,
      "berling": 7511,
      "greg": 7512,
      "strings": 7513,
      "strung": 7514,
      "crash": 7515,
      "surfing": 7516,
      "blings": 7517,
      "blunt": 7518,
      "everybody": 7519,
      "interaction": 7520,
      "litting": 7521,
      "impart": 7522,
      "impenet": 7523,
      "screens": 7524,
      "duvall": 7525,
      "ipated": 7526,
      "aficion": 7527,
      "acknow": 7528,
      "screening": 7529,
      "ivable": 7530,
      "jeff": 7531,
      "jews": 7532,
      "trial": 7533,
      "lings": 7534,
      "undercut": 7535,
      "longest": 7536,
      "entertainingly": 7537,
      "ashvili": 7538,
      "osexual": 7539,
      "warned": 7540,
      "cinta": 7541,
      "bigelow": 7542,
      "choos": 7543,
      "resident": 7544,
      "resorting": 7545,
      "engages": 7546,
      "misanthro": 7547,
      "downs": 7548,
      "gible": 7549,
      "smell": 7550,
      "trem": 7551,
      "greatness": 7552,
      "firing": 7553,
      "takingly": 7554,
      "ighter": 7555,
      "llenha": 7556,
      "rightly": 7557,
      "holof": 7558,
      "carpenter": 7559,
      "caruso": 7560,
      "caricature": 7561,
      "lighting": 7562,
      "lightness": 7563,
      "rowdy": 7564,
      "imagined": 7565,
      "backdrop": 7566,
      "wondr": 7567,
      "wonders": 7568,
      "ocy": 7569,
      "cheat": 7570,
      "chekho": 7571,
      "beings": 7572,
      "athy": 7573,
      "margar": 7574,
      "marching": 7575,
      "married": 7576,
      "marshall": 7577,
      "worldly": 7578,
      "pleasantly": 7579,
      "awak": 7580,
      "isms": 7581,
      "capital": 7582,
      "finished": 7583,
      "highlight": 7584,
      "mindset": 7585,
      "contend": 7586,
      "contempt": 7587,
      "controlled": 7588,
      "humanizing": 7589,
      "clown": 7590,
      "closing": 7591,
      "needlessly": 7592,
      "reluct": 7593,
      "forever": 7594,
      "powerpuff": 7595,
      "generating": 7596,
      "titular": 7597,
      "sentence": 7598,
      "sentiments": 7599,
      "singer": 7600,
      "horse": 7601,
      "appearing": 7602,
      "sweat": 7603,
      "deliri": 7604,
      "mortal": 7605,
      "borders": 7606,
      "naive": 7607,
      "naipaul": 7608,
      "saves": 7609,
      "shocked": 7610,
      "flaccid": 7611,
      "denial": 7612,
      "cuous": 7613,
      "twink": 7614,
      "thoughts": 7615,
      "expects": 7616,
      "venice": 7617,
      "ruins": 7618,
      "animals": 7619,
      "struck": 7620,
      "19th": 7621,
      "gyllenha": 7622,
      "schem": 7623,
      "schlock": 7624,
      "brains": 7625,
      "bracing": 7626,
      "starting": 7627,
      "excels": 7628,
      "sweetest": 7629,
      "barney": 7630,
      "barbar": 7631,
      "darkness": 7632,
      "harmon": 7633,
      "fascination": 7634,
      "landscapes": 7635,
      "sumes": 7636,
      "sumptuous": 7637,
      "walt": 7638,
      "walsh": 7639,
      "walking": 7640,
      "wallet": 7641,
      "solutions": 7642,
      "facet": 7643,
      "basket": 7644,
      "explosion": 7645,
      "seriousness": 7646,
      "calling": 7647,
      "callar": 7648,
      "vali": 7649,
      "bald": 7650,
      "nedy": 7651,
      "lucy": 7652,
      "suffer": 7653,
      "suffered": 7654,
      "scored": 7655,
      "stronger": 7656,
      "curren": 7657,
      "curmud": 7658,
      "unders": 7659,
      "wiseman": 7660,
      "narratively": 7661,
      "believer": 7662,
      "weddings": 7663,
      "elsewhere": 7664,
      "decency": 7665,
      "decadent": 7666,
      "nonstop": 7667,
      "topical": 7668,
      "allowing": 7669,
      "impressively": 7670,
      "pathology": 7671,
      "hopelessly": 7672,
      "examine": 7673,
      "differences": 7674,
      "dana": 7675,
      "danny": 7676,
      "dogma": 7677,
      "earns": 7678,
      "musty": 7679,
      "archival": 7680,
      "fragment": 7681,
      "fragile": 7682,
      "license": 7683,
      "drives": 7684,
      "swings": 7685,
      "scarcely": 7686,
      "dumbed": 7687,
      "definitive": 7688,
      "strip": 7689,
      "stripped": 7690,
      "latin": 7691,
      "inspires": 7692,
      "severe": 7693,
      "condens": 7694,
      "culkin": 7695,
      "naturally": 7696,
      "pursu": 7697,
      "rocky": 7698,
      "thinly": 7699,
      "sticky": 7700,
      "sticking": 7701,
      "digs": 7702,
      "digest": 7703,
      "conception": 7704,
      "sympath": 7705,
      "truths": 7706,
      "truthful": 7707,
      "juicy": 7708,
      "winded": 7709,
      "devil": 7710,
      "device": 7711,
      "postcard": 7712,
      "hopefully": 7713,
      "believes": 7714,
      "believability": 7715,
      "cops": 7716,
      "numbing": 7717,
      "troom": 7718,
      "lanes": 7719,
      "names": 7720,
      "adapted": 7721,
      "spectacularly": 7722,
      "millions": 7723,
      "extraordinarily": 7724,
      "eventful": 7725,
      "eventual": 7726,
      "deliciously": 7727,
      "countless": 7728,
      "literal": 7729,
      "courtroom": 7730,
      "nuances": 7731,
      "parent": 7732,
      "legacy": 7733,
      "crosses": 7734,
      "remembering": 7735,
      "blandness": 7736,
      "claybur": 7737,
      "weighty": 7738,
      "weirdness": 7739,
      "failing": 7740,
      "critique": 7741,
      "gave": 7742,
      "gaghan": 7743,
      "alike": 7744,
      "staying": 7745,
      "openness": 7746,
      "idiotic": 7747,
      "idiots": 7748,
      "idiocy": 7749,
      "salton": 7750,
      "salute": 7751,
      "stevens": 7752,
      "sporad": 7753,
      "flashes": 7754,
      "flashbacks": 7755,
      "adaptations": 7756,
      "panor": 7757,
      "panache": 7758,
      "pantheon": 7759,
      "savage": 7760,
      "william": 7761,
      "throwaway": 7762,
      "inviting": 7763,
      "admir": 7764,
      "admittedly": 7765,
      "emerging": 7766,
      "groo": 7767,
      "groan": 7768,
      "grotesque": 7769,
      "palest": 7770,
      "palpable": 7771,
      "routines": 7772,
      "terminally": 7773,
      "existed": 7774,
      "skillful": 7775,
      "skillfully": 7776,
      "kennedy": 7777,
      "recommended": 7778,
      "unfortunate": 7779,
      "majority": 7780,
      "innocuous": 7781,
      "aspires": 7782,
      "challenge": 7783,
      "absurdities": 7784,
      "favour": 7785,
      "favors": 7786,
      "frustratingly": 7787,
      "sexuality": 7788,
      "sources": 7789,
      "brainless": 7790,
      "sustained": 7791,
      "aimless": 7792,
      "campy": 7793,
      "campanella": 7794,
      "homosexual": 7795,
      "squanders": 7796,
      "reaching": 7797,
      "primary": 7798,
      "primitive": 7799,
      "continu": 7800,
      "euve": 7801,
      "laden": 7802,
      "ladies": 7803,
      "widow": 7804,
      "immers": 7805,
      "bowling": 7806,
      "climax": 7807,
      "relief": 7808,
      "movement": 7809,
      "machismo": 7810,
      "shaky": 7811,
      "pena": 7812,
      "appreciation": 7813,
      "pairing": 7814,
      "gifts": 7815,
      "milk": 7816,
      "military": 7817,
      "milieu": 7818,
      "supply": 7819,
      "groups": 7820,
      "breathtakingly": 7821,
      "targeted": 7822,
      "catches": 7823,
      "catching": 7824,
      "fitfully": 7825,
      "tunes": 7826,
      "antidote": 7827,
      "repetition": 7828,
      "awkwardly": 7829,
      "flowers": 7830,
      "ville": 7831,
      "towards": 7832,
      "scathing": 7833,
      "muddle": 7834,
      "deniro": 7835,
      "throat": 7836,
      "requires": 7837,
      "credited": 7838,
      "disguised": 7839,
      "shockingly": 7840,
      "dependence": 7841,
      "floor": 7842,
      "infuses": 7843,
      "infidelity": 7844,
      "pauline": 7845,
      "authenticity": 7846,
      "kicking": 7847,
      "rumor": 7848,
      "resembling": 7849,
      "chops": 7850,
      "ripper": 7851,
      "shameless": 7852,
      "excesses": 7853,
      "boards": 7854,
      "treads": 7855,
      "profoundly": 7856,
      "swimming": 7857,
      "regardless": 7858,
      "strengths": 7859,
      "camps": 7860,
      "picked": 7861,
      "risk": 7862,
      "tenderness": 7863,
      "layered": 7864,
      "surviv": 7865,
      "checklist": 7866,
      "metaphorical": 7867,
      "biography": 7868,
      "hipp": 7869,
      "hibit": 7870,
      "hurt": 7871,
      "hurley": 7872,
      "hurried": 7873,
      "loosely": 7874,
      "quentin": 7875,
      "boundaries": 7876,
      "hallucin": 7877,
      "loads": 7878,
      "loaded": 7879,
      "horribly": 7880,
      "hearst": 7881,
      "possession": 7882,
      "giddy": 7883,
      "pitched": 7884,
      "thirty": 7885,
      "tosses": 7886,
      "improved": 7887,
      "embrace": 7888,
      "benefits": 7889,
      "emphasis": 7890,
      "transforms": 7891,
      "wret": 7892,
      "spike": 7893,
      "izamo": 7894,
      "fiercely": 7895,
      "dynamics": 7896,
      "reflective": 7897,
      "sixth": 7898,
      "threatening": 7899,
      "scratching": 7900,
      "jumble": 7901,
      "lambs": 7902,
      "michell": 7903,
      "slipper": 7904,
      "textbook": 7905,
      "macabre": 7906,
      "establishes": 7907,
      "established": 7908,
      "collective": 7909,
      "awards": 7910,
      "narciss": 7911,
      "introduces": 7912,
      "introduction": 7913,
      "busters": 7914,
      "dedication": 7915,
      "korea": 7916,
      "slackers": 7917,
      "advance": 7918,
      "conversation": 7919,
      "audacity": 7920,
      "freddy": 7921,
      "gratuit": 7922,
      "borrowed": 7923,
      "journalism": 7924,
      "investig": 7925,
      "statement": 7926,
      "department": 7927,
      "employs": 7928,
      "carrying": 7929,
      "breathe": 7930,
      "communic": 7931,
      "scottish": 7932,
      "adequately": 7933,
      "immediate": 7934,
      "immediately": 7935,
      "eerie": 7936,
      "tempting": 7937,
      "shifting": 7938,
      "neatly": 7939,
      "conveys": 7940,
      "spanish": 7941,
      "ignored": 7942,
      "accurately": 7943,
      "freaky": 7944,
      "puzzle": 7945,
      "puzzling": 7946,
      "sensibilities": 7947,
      "extravaganza": 7948,
      "episodic": 7949,
      "economical": 7950,
      "smack": 7951,
      "snake": 7952,
      "inexplicably": 7953,
      "ennial": 7954,
      "learned": 7955,
      "locales": 7956,
      "nettelbeck": 7957,
      "interviews": 7958,
      "deliberately": 7959,
      "destruction": 7960,
      "destructive": 7961,
      "symbolic": 7962,
      "contemplative": 7963,
      "distinctly": 7964,
      "duty": 7965,
      "repellent": 7966,
      "stumble": 7967,
      "church": 7968,
      "unbearable": 7969,
      "unbearably": 7970,
      "consuming": 7971,
      "discussion": 7972,
      "environment": 7973,
      "vietnamese": 7974,
      "fundamentals": 7975,
      "3000": 7976,
      "huston": 7977,
      "janice": 7978,
      "lunacy": 7979,
      "insecure": 7980,
      "incessant": 7981,
      "anguish": 7982,
      "rejected": 7983,
      "arresting": 7984,
      "separate": 7985,
      "ravishing": 7986,
      "loyalty": 7987,
      "concoction": 7988,
      "illustrates": 7989,
      "optimism": 7990,
      "accident": 7991,
      "clinical": 7992,
      "undermines": 7993,
      "gibson": 7994,
      "columbine": 7995,
      "contradictory": 7996,
      "phenomenal": 7997,
      "israeli": 7998,
      "wwii": 7999,
      "stroke": 8000,
      "betrayal": 8001,
      "rabbit": 8002,
      "shoddy": 8003,
      "dopey": 8004,
      "condescending": 8005,
      "gothic": 8006,
      "compulsively": 8007,
      "discern": 8008,
      "interpretation": 8009,
      "newcomer": 8010,
      "resourceful": 8011,
      "glorified": 8012,
      "confessions": 8013,
      "convictions": 8014,
      "illuminating": 8015,
      "obligatory": 8016,
      "excruciating": 8017,
      "neighborhood": 8018,
      "fontaine": 8019,
      "kieslowski": 8020,
      "infantile": 8021,
      "infuriating": 8022,
      "enlightening": 8023,
      "staggeringly": 8024,
      "veteran": 8025,
      "radical": 8026,
      "conspiracy": 8027,
      "persuasive": 8028,
      "astounding": 8029,
      "traffic": 8030,
      "clueless": 8031,
      "compensate": 8032,
      "colored": 8033,
      "cohesive": 8034,
      "hospital": 8035,
      "beloved": 8036,
      "dawson": 8037,
      "appetite": 8038,
      "sensitivity": 8039,
      "griffith": 8040,
      "ferrara": 8041,
      "sizzle": 8042,
      "twey": 8043,
      "anomie": 8044,
      "ancient": 8045,
      "argentine": 8046,
      "lyricism": 8047,
      "league": 8048,
      "adroit": 8049,
      "exasper": 8050,
      "conspic": 8051,
      "scotland": 8052,
      "protect": 8053,
      "method": 8054,
      "blatant": 8055,
      "farcical": 8056,
      "scherfig": 8057,
      "yesterday": 8058,
      "penetrating": 8059,
      "punctuated": 8060,
      "christopher": 8061,
      "thornberrys": 8062,
      "besson": 8063,
      "brendan": 8064,
      "coffee": 8065,
      "hedon": 8066,
      "hundred": 8067,
      "jennifer": 8068,
      "kafka": 8069,
      "lofty": 8070,
      "nachtwey": 8071,
      "pessim": 8072,
      "swashbuck": 8073,
      "villeneuve": 8074,
      "yiddish": 8075,
      "innuen": 8076,
      "informative": 8077,
      "invigorating": 8078,
      "anemic": 8079,
      "recipe": 8080,
      "rebellion": 8081,
      "enjoying": 8082,
      "albeit": 8083,
      "streets": 8084,
      "leguizamo": 8085,
      "shainberg": 8086,
      "diggs": 8087,
      "outlandish": 8088,
      "odyssey": 8089,
      "applaud": 8090,
      "charlotte": 8091,
      "muccino": 8092,
      "insipid": 8093,
      "impenetrable": 8094,
      "aficionados": 8095,
      "acknowled": 8096,
      "chooses": 8097,
      "chekhov": 8098,
      "margarit": 8099,
      "reluctant": 8100,
      "gyllenhaal": 8101,
      "basketball": 8102,
      "clayburgh": 8103,
      "gratuitous": 8104,
      "16": 8105,
      "3d": 8106,
      "45": 8107,
      "40s": 8108,
      "50s": 8109,
      "65": 8110,
      "84": 8111,
      "85": 8112,
      "86": 8113,
      "88": 8114,
      "</": 8115,
      "ais": 8116,
      "ake": 8117,
      "aper": 8118,
      "ahol": 8119,
      "bic": 8120,
      "bom": 8121,
      "bam": 8122,
      "bick": 8123,
      "bass": 8124,
      "bark": 8125,
      "baf": 8126,
      "bible": 8127,
      "cq": 8128,
      "cel": 8129,
      "cac": 8130,
      "cated": 8131,
      "caf": 8132,
      "cash": 8133,
      "catt": 8134,
      "cener": 8135,
      "callow": 8136,
      "cinder": 8137,
      "dor": 8138,
      "dun": 8139,
      "dold": 8140,
      "ema": 8141,
      "eating": 8142,
      "easter": 8143,
      "fs": 8144,
      "fart": 8145,
      "fus": 8146,
      "fty": 8147,
      "flies": 8148,
      "fuss": 8149,
      "gad": 8150,
      "gall": 8151,
      "glow": 8152,
      "gage": 8153,
      "gically": 8154,
      "gond": 8155,
      "gilli": 8156,
      "hh": 8157,
      "hman": 8158,
      "hta": 8159,
      "hudlin": 8160,
      "iat": 8161,
      "ido": 8162,
      "iph": 8163,
      "ibility": 8164,
      "jaded": 8165,
      "kir": 8166,
      "knot": 8167,
      "kish": 8168,
      "kings": 8169,
      "kos": 8170,
      "lis": 8171,
      "lone": 8172,
      "lest": 8173,
      "lend": 8174,
      "lens": 8175,
      "lars": 8176,
      "lull": 8177,
      "lili": 8178,
      "lists": 8179,
      "mand": 8180,
      "mir": 8181,
      "mate": 8182,
      "mme": 8183,
      "mick": 8184,
      "mash": 8185,
      "mouse": 8186,
      "nan": 8187,
      "nash": 8188,
      "nitz": 8189,
      "ois": 8190,
      "oce": 8191,
      "oge": 8192,
      "oter": 8193,
      "owe": 8194,
      "pent": 8195,
      "pum": 8196,
      "phe": 8197,
      "pony": 8198,
      "punk": 8199,
      "pino": 8200,
      "rer": 8201,
      "rion": 8202,
      "rant": 8203,
      "rus": 8204,
      "rhe": 8205,
      "rts": 8206,
      "rud": 8207,
      "ratt": 8208,
      "rural": 8209,
      "rase": 8210,
      "ronic": 8211,
      "sme": 8212,
      "sau": 8213,
      "squir": 8214,
      "swed": 8215,
      "sunk": 8216,
      "sung": 8217,
      "sword": 8218,
      "té": 8219,
      "tan": 8220,
      "tall": 8221,
      "tins": 8222,
      "tical": 8223,
      "tensions": 8224,
      "uk": 8225,
      "ule": 8226,
      "upro": 8227,
      "uries": 8228,
      "vre": 8229,
      "von": 8230,
      "vist": 8231,
      "vance": 8232,
      "ware": 8233,
      "wary": 8234,
      "wire": 8235,
      "winter": 8236,
      "wang": 8237,
      "wrest": 8238,
      "wrap": 8239,
      "wander": 8240,
      "wkish": 8241,
      "xta": 8242,
      "xploitation": 8243,
      "ye": 8244,
      "yr": 8245,
      "yel": 8246,
      "yvan": 8247,
      "yiel": 8248,
      "yjes": 8249,
      "zha": 8250,
      "zhu": 8251,
      "ziness": 8252,
      "zomb": 8253,
      "âte": 8254,
      "én": 8255,
      "thon": 8256,
      "inn": 8257,
      "infin": 8258,
      "inconsist": 8259,
      "inadver": 8260,
      "anc": 8261,
      "anig": 8262,
      "angen": 8263,
      "erile": 8264,
      "erot": 8265,
      "erably": 8266,
      "theories": 8267,
      "thearted": 8268,
      "thetically": 8269,
      "resu": 8270,
      "recon": 8271,
      "reck": 8272,
      "reef": 8273,
      "rebel": 8274,
      "restra": 8275,
      "revision": 8276,
      "retains": 8277,
      "research": 8278,
      "returning": 8279,
      "retool": 8280,
      "recalls": 8281,
      "rehears": 8282,
      "ena": 8283,
      "enlo": 8284,
      "enact": 8285,
      "encing": 8286,
      "encount": 8287,
      "ennes": 8288,
      "enanig": 8289,
      "atty": 8290,
      "attack": 8291,
      "atroc": 8292,
      "isy": 8293,
      "isly": 8294,
      "isingly": 8295,
      "itar": 8296,
      "itment": 8297,
      "itions": 8298,
      "esse": 8299,
      "espect": 8300,
      "orts": 8301,
      "orwell": 8302,
      "orchest": 8303,
      "orgasm": 8304,
      "ala": 8305,
      "aly": 8306,
      "aled": 8307,
      "alter": 8308,
      "alfred": 8309,
      "andre": 8310,
      "andrew": 8311,
      "oft": 8312,
      "arl": 8313,
      "arat": 8314,
      "arious": 8315,
      "argu": 8316,
      "arbit": 8317,
      "arms": 8318,
      "ararat": 8319,
      "stan": 8320,
      "stit": 8321,
      "stam": 8322,
      "strom": 8323,
      "stance": 8324,
      "stately": 8325,
      "stages": 8326,
      "tol": 8327,
      "toes": 8328,
      "tomor": 8329,
      "edit": 8330,
      "edits": 8331,
      "edition": 8332,
      "ilable": 8333,
      "ilated": 8334,
      "icz": 8335,
      "icable": 8336,
      "iceless": 8337,
      "aser": 8338,
      "asing": 8339,
      "asph": 8340,
      "leav": 8341,
      "leaks": 8342,
      "omed": 8343,
      "chal": 8344,
      "chet": 8345,
      "chment": 8346,
      "chip": 8347,
      "chair": 8348,
      "chokes": 8349,
      "châte": 8350,
      "mob": 8351,
      "moto": 8352,
      "moir": 8353,
      "mock": 8354,
      "mocking": 8355,
      "eling": 8356,
      "elli": 8357,
      "elinsky": 8358,
      "entr": 8359,
      "seeds": 8360,
      "beer": 8361,
      "beard": 8362,
      "beating": 8363,
      "befud": 8364,
      "beij": 8365,
      "macul": 8366,
      "mawkish": 8367,
      "uno": 8368,
      "unmis": 8369,
      "unmemorable": 8370,
      "unsurprising": 8371,
      "unremarkable": 8372,
      "unhappy": 8373,
      "uninvolving": 8374,
      "unmention": 8375,
      "unwiel": 8376,
      "unhurried": 8377,
      "vez": 8378,
      "races": 8379,
      "rapp": 8380,
      "rauc": 8381,
      "dean": 8382,
      "dear": 8383,
      "dete": 8384,
      "degra": 8385,
      "decor": 8386,
      "devol": 8387,
      "deterior": 8388,
      "forg": 8389,
      "ghthearted": 8390,
      "lily": 8391,
      "liman": 8392,
      "liment": 8393,
      "liff": 8394,
      "liot": 8395,
      "liang": 8396,
      "liven": 8397,
      "liking": 8398,
      "lighter": 8399,
      "lighthearted": 8400,
      "logged": 8401,
      "lohman": 8402,
      "whod": 8403,
      "whine": 8404,
      "whip": 8405,
      "aba": 8406,
      "abc": 8407,
      "abby": 8408,
      "verdad": 8409,
      "imi": 8410,
      "imen": 8411,
      "imit": 8412,
      "imes": 8413,
      "immacul": 8414,
      "rooge": 8415,
      "ulence": 8416,
      "ulously": 8417,
      "nod": 8418,
      "nose": 8419,
      "nolan": 8420,
      "noisse": 8421,
      "coma": 8422,
      "compo": 8423,
      "comically": 8424,
      "suits": 8425,
      "sucked": 8426,
      "suitable": 8427,
      "sugary": 8428,
      "suicide": 8429,
      "amour": 8430,
      "adul": 8431,
      "adding": 8432,
      "advised": 8433,
      "rig": 8434,
      "river": 8435,
      "shut": 8436,
      "shell": 8437,
      "shack": 8438,
      "shred": 8439,
      "shatter": 8440,
      "shafer": 8441,
      "shenanig": 8442,
      "diary": 8443,
      "divide": 8444,
      "dizz": 8445,
      "outright": 8446,
      "outline": 8447,
      "lathan": 8448,
      "laud": 8449,
      "laisse": 8450,
      "geared": 8451,
      "activ": 8452,
      "irresponsible": 8453,
      "irrelevant": 8454,
      "feed": 8455,
      "femme": 8456,
      "terry": 8457,
      "exit": 8458,
      "extr": 8459,
      "expla": 8460,
      "exposed": 8461,
      "exudes": 8462,
      "exposes": 8463,
      "dover": 8464,
      "doze": 8465,
      "dogged": 8466,
      "poo": 8467,
      "polo": 8468,
      "poten": 8469,
      "popping": 8470,
      "neth": 8471,
      "pee": 8472,
      "pets": 8473,
      "connoisse": 8474,
      "alluring": 8475,
      "esta": 8476,
      "estim": 8477,
      "oddest": 8478,
      "manic": 8479,
      "scrooge": 8480,
      "perm": 8481,
      "perpet": 8482,
      "pertin": 8483,
      "tag": 8484,
      "tape": 8485,
      "tapping": 8486,
      "soar": 8487,
      "illness": 8488,
      "ember": 8489,
      "quint": 8490,
      "quet": 8491,
      "quie": 8492,
      "queness": 8493,
      "quasi": 8494,
      "ayas": 8495,
      "goo": 8496,
      "govern": 8497,
      "romances": 8498,
      "antes": 8499,
      "urs": 8500,
      "urity": 8501,
      "urance": 8502,
      "uristic": 8503,
      "istent": 8504,
      "istine": 8505,
      "fulfilling": 8506,
      "prey": 8507,
      "premis": 8508,
      "prejud": 8509,
      "hele": 8510,
      "heist": 8511,
      "hefty": 8512,
      "byatt": 8513,
      "weig": 8514,
      "weary": 8515,
      "weaver": 8516,
      "proved": 8517,
      "proced": 8518,
      "provo": 8519,
      "timer": 8520,
      "timid": 8521,
      "iding": 8522,
      "idget": 8523,
      "apon": 8524,
      "spa": 8525,
      "sporting": 8526,
      "spiced": 8527,
      "sprightly": 8528,
      "ellar": 8529,
      "iff": 8530,
      "ifies": 8531,
      "chard": 8532,
      "charge": 8533,
      "charitable": 8534,
      "moretti": 8535,
      "endor": 8536,
      "enduring": 8537,
      "endurance": 8538,
      "owes": 8539,
      "igu": 8540,
      "igby": 8541,
      "agit": 8542,
      "agingly": 8543,
      "inting": 8544,
      "intact": 8545,
      "indler": 8546,
      "upbeat": 8547,
      "updating": 8548,
      "astic": 8549,
      "astute": 8550,
      "boost": 8551,
      "bodily": 8552,
      "trum": 8553,
      "trilo": 8554,
      "oky": 8555,
      "okay": 8556,
      "heritage": 8557,
      "mely": 8558,
      "mehta": 8559,
      "meyjes": 8560,
      "memoir": 8561,
      "ards": 8562,
      "storylines": 8563,
      "augh": 8564,
      "accu": 8565,
      "acute": 8566,
      "ación": 8567,
      "directly": 8568,
      "directions": 8569,
      "placing": 8570,
      "ptic": 8571,
      "ett": 8572,
      "mura": 8573,
      "mush": 8574,
      "mugging": 8575,
      "trace": 8576,
      "epps": 8577,
      "epics": 8578,
      "epiph": 8579,
      "clou": 8580,
      "clancy": 8581,
      "guest": 8582,
      "compare": 8583,
      "compendi": 8584,
      "compliment": 8585,
      "overrun": 8586,
      "overwritten": 8587,
      "overshadow": 8588,
      "overproduced": 8589,
      "overbearing": 8590,
      "gooding": 8591,
      "goodwill": 8592,
      "goodness": 8593,
      "phon": 8594,
      "phrase": 8595,
      "matched": 8596,
      "ffle": 8597,
      "workplace": 8598,
      "workshop": 8599,
      "woven": 8600,
      "inson": 8601,
      "assy": 8602,
      "assayas": 8603,
      "cogent": 8604,
      "cooper": 8605,
      "coaster": 8606,
      "desired": 8607,
      "fade": 8608,
      "faults": 8609,
      "pron": 8610,
      "pryor": 8611,
      "pruri": 8612,
      "pristine": 8613,
      "discor": 8614,
      "dispar": 8615,
      "disarming": 8616,
      "earned": 8617,
      "paign": 8618,
      "paean": 8619,
      "brits": 8620,
      "brash": 8621,
      "brana": 8622,
      "talks": 8623,
      "flound": 8624,
      "flame": 8625,
      "flatt": 8626,
      "plods": 8627,
      "welles": 8628,
      "serry": 8629,
      "bering": 8630,
      "strate": 8631,
      "strangen": 8632,
      "minus": 8633,
      "surf": 8634,
      "blon": 8635,
      "everywhere": 8636,
      "makeup": 8637,
      "otes": 8638,
      "interes": 8639,
      "intermin": 8640,
      "realm": 8641,
      "realization": 8642,
      "frequent": 8643,
      "frenetic": 8644,
      "grass": 8645,
      "grub": 8646,
      "grisly": 8647,
      "screams": 8648,
      "ppingly": 8649,
      "dude": 8650,
      "duck": 8651,
      "durable": 8652,
      "afters": 8653,
      "gray": 8654,
      "graham": 8655,
      "jeong": 8656,
      "centuries": 8657,
      "magnetic": 8658,
      "maggie": 8659,
      "myst": 8660,
      "hos": 8661,
      "triple": 8662,
      "newton": 8663,
      "themed": 8664,
      "linger": 8665,
      "lingers": 8666,
      "stered": 8667,
      "syrup": 8668,
      "underwritten": 8669,
      "underbelly": 8670,
      "underestim": 8671,
      "warner": 8672,
      "warfare": 8673,
      "merits": 8674,
      "resent": 8675,
      "england": 8676,
      "engagingly": 8677,
      "turgid": 8678,
      "mistaken": 8679,
      "miscalcul": 8680,
      "misguided": 8681,
      "smash": 8682,
      "smiling": 8683,
      "sminsky": 8684,
      "showgirls": 8685,
      "greatly": 8686,
      "twohy": 8687,
      "characterized": 8688,
      "plotline": 8689,
      "mond": 8690,
      "mono": 8691,
      "monte": 8692,
      "monstr": 8693,
      "stillborn": 8694,
      "cumbers": 8695,
      "colm": 8696,
      "colon": 8697,
      "colum": 8698,
      "atters": 8699,
      "holly": 8700,
      "holland": 8701,
      "truck": 8702,
      "carol": 8703,
      "carnation": 8704,
      "fraser": 8705,
      "joys": 8706,
      "joyful": 8707,
      "scenic": 8708,
      "farm": 8709,
      "hardy": 8710,
      "nerves": 8711,
      "rowling": 8712,
      "backstage": 8713,
      "backdrops": 8714,
      "auteu": 8715,
      "styles": 8716,
      "chees": 8717,
      "cheated": 8718,
      "scripts": 8719,
      "laughably": 8720,
      "porno": 8721,
      "ports": 8722,
      "cyber": 8723,
      "cuteness": 8724,
      "vently": 8725,
      "scripting": 8726,
      "scripted": 8727,
      "formal": 8728,
      "formed": 8729,
      "capra": 8730,
      "satin": 8731,
      "bush": 8732,
      "buzz": 8733,
      "bros": 8734,
      "enjoyment": 8735,
      "mib": 8736,
      "miike": 8737,
      "tedium": 8738,
      "closure": 8739,
      "arris": 8740,
      "related": 8741,
      "anticipated": 8742,
      "craig": 8743,
      "cracy": 8744,
      "craven": 8745,
      "powered": 8746,
      "medical": 8747,
      "meditative": 8748,
      "policy": 8749,
      "generations": 8750,
      "rung": 8751,
      "singular": 8752,
      "horrors": 8753,
      "swear": 8754,
      "fiennes": 8755,
      "distress": 8756,
      "mord": 8757,
      "morph": 8758,
      "morris": 8759,
      "morbid": 8760,
      "produces": 8761,
      "borstal": 8762,
      "sonny": 8763,
      "sail": 8764,
      "paran": 8765,
      "paris": 8766,
      "passer": 8767,
      "passages": 8768,
      "histrion": 8769,
      "flailing": 8770,
      "classy": 8771,
      "classical": 8772,
      "spective": 8773,
      "denied": 8774,
      "denzel": 8775,
      "cuar": 8776,
      "alos": 8777,
      "leather": 8778,
      "consolation": 8779,
      "hadn": 8780,
      "expecting": 8781,
      "drew": 8782,
      "drey": 8783,
      "veneer": 8784,
      "election": 8785,
      "rue": 8786,
      "animat": 8787,
      "starred": 8788,
      "1960s": 8789,
      "county": 8790,
      "childlike": 8791,
      "graphs": 8792,
      "graphically": 8793,
      "schepis": 8794,
      "schnitz": 8795,
      "setup": 8796,
      "bravery": 8797,
      "brawn": 8798,
      "excited": 8799,
      "baran": 8800,
      "barri": 8801,
      "bargain": 8802,
      "musicians": 8803,
      "winners": 8804,
      "hyster": 8805,
      "superstar": 8806,
      "rifkin": 8807,
      "glu": 8808,
      "glas": 8809,
      "glaring": 8810,
      "glamour": 8811,
      "portraying": 8812,
      "dullest": 8813,
      "puerile": 8814,
      "deepest": 8815,
      "bloated": 8816,
      "energ": 8817,
      "slam": 8818,
      "slum": 8819,
      "fallen": 8820,
      "helmer": 8821,
      "sadistic": 8822,
      "saddled": 8823,
      "psych": 8824,
      "psychop": 8825,
      "waves": 8826,
      "wahl": 8827,
      "inescapable": 8828,
      "depra": 8829,
      "depicts": 8830,
      "riddled": 8831,
      "explode": 8832,
      "exploits": 8833,
      "narrator": 8834,
      "probing": 8835,
      "burr": 8836,
      "burst": 8837,
      "burning": 8838,
      "burden": 8839,
      "profane": 8840,
      "folly": 8841,
      "tons": 8842,
      "tonight": 8843,
      "operates": 8844,
      "smartest": 8845,
      "fanatic": 8846,
      "luke": 8847,
      "void": 8848,
      "equals": 8849,
      "affable": 8850,
      "curse": 8851,
      "curity": 8852,
      "students": 8853,
      "breakdown": 8854,
      "promisingly": 8855,
      "garcia": 8856,
      "moderately": 8857,
      "decides": 8858,
      "sophie": 8859,
      "destiny": 8860,
      "universe": 8861,
      "impressions": 8862,
      "consideration": 8863,
      "considerably": 8864,
      "hopeless": 8865,
      "lette": 8866,
      "letdown": 8867,
      "zzle": 8868,
      "intentionally": 8869,
      "stress": 8870,
      "provoc": 8871,
      "johnson": 8872,
      "richness": 8873,
      "heroic": 8874,
      "wildlife": 8875,
      "earnhart": 8876,
      "subtext": 8877,
      "contrivance": 8878,
      "muster": 8879,
      "ringu": 8880,
      "complexities": 8881,
      "bielinsky": 8882,
      "fires": 8883,
      "driver": 8884,
      "driving": 8885,
      "swagger": 8886,
      "register": 8887,
      "rollicking": 8888,
      "flattering": 8889,
      "flatulence": 8890,
      "alongside": 8891,
      "beats": 8892,
      "scarlet": 8893,
      "scariest": 8894,
      "deserving": 8895,
      "importantly": 8896,
      "signpost": 8897,
      "confusion": 8898,
      "calm": 8899,
      "kills": 8900,
      "seldom": 8901,
      "slightest": 8902,
      "michele": 8903,
      "severely": 8904,
      "cular": 8905,
      "fatale": 8906,
      "masoch": 8907,
      "settle": 8908,
      "settings": 8909,
      "settled": 8910,
      "focusing": 8911,
      "focuses": 8912,
      "douglas": 8913,
      "imamura": 8914,
      "patron": 8915,
      "purport": 8916,
      "creepiness": 8917,
      "grandson": 8918,
      "fervently": 8919,
      "stopped": 8920,
      "uttering": 8921,
      "developments": 8922,
      "conceptual": 8923,
      "symme": 8924,
      "hilariously": 8925,
      "julia": 8926,
      "juxta": 8927,
      "mala": 8928,
      "malbaf": 8929,
      "malcolm": 8930,
      "devito": 8931,
      "devotion": 8932,
      "posturing": 8933,
      "postmodern": 8934,
      "believed": 8935,
      "tropes": 8936,
      "wastes": 8937,
      "onymous": 8938,
      "transgress": 8939,
      "nicole": 8940,
      "futile": 8941,
      "futuristic": 8942,
      "hitler": 8943,
      "liners": 8944,
      "pulpy": 8945,
      "instit": 8946,
      "instance": 8947,
      "drown": 8948,
      "drowns": 8949,
      "drowned": 8950,
      "waterlogged": 8951,
      "blaxploitation": 8952,
      "flee": 8953,
      "nuclear": 8954,
      "forcefully": 8955,
      "positions": 8956,
      "crossed": 8957,
      "miracul": 8958,
      "miramax": 8959,
      "praised": 8960,
      "steps": 8961,
      "moods": 8962,
      "naturalism": 8963,
      "gai": 8964,
      "gazing": 8965,
      "stolid": 8966,
      "roberts": 8967,
      "sociop": 8968,
      "idiot": 8969,
      "salt": 8970,
      "salma": 8971,
      "testud": 8972,
      "testimony": 8973,
      "blooded": 8974,
      "panic": 8975,
      "reminding": 8976,
      "procession": 8977,
      "tediously": 8978,
      "succeeded": 8979,
      "hammer": 8980,
      "palatable": 8981,
      "artistry": 8982,
      "questionable": 8983,
      "forgettably": 8984,
      "dime": 8985,
      "dimension": 8986,
      "kenneth": 8987,
      "punching": 8988,
      "fearless": 8989,
      "slapdash": 8990,
      "celebrated": 8991,
      "celebratory": 8992,
      "indians": 8993,
      "divertid": 8994,
      "accompany": 8995,
      "assume": 8996,
      "absorbed": 8997,
      "precision": 8998,
      "franklin": 8999,
      "possibilities": 9000,
      "fields": 9001,
      "lengthy": 9002,
      "robinson": 9003,
      "expressions": 9004,
      "conventions": 9005,
      "disturbingly": 9006,
      "mcdowell": 9007,
      "session": 9008,
      "sessions": 9009,
      "reached": 9010,
      "goofball": 9011,
      "sparks": 9012,
      "sparkles": 9013,
      "continuity": 9014,
      "entertains": 9015,
      "sophistication": 9016,
      "2000": 9017,
      "clips": 9018,
      "reliance": 9019,
      "shares": 9020,
      "shakes": 9021,
      "shaking": 9022,
      "cristo": 9023,
      "struggles": 9024,
      "circus": 9025,
      "ethics": 9026,
      "jerking": 9027,
      "jerker": 9028,
      "jersey": 9029,
      "escaped": 9030,
      "superficially": 9031,
      "recommendation": 9032,
      "bags": 9033,
      "baggage": 9034,
      "jazz": 9035,
      "competit": 9036,
      "usibility": 9037,
      "uniquely": 9038,
      "friendships": 9039,
      "accomplishes": 9040,
      "manipulation": 9041,
      "tuned": 9042,
      "tunney": 9043,
      "commerce": 9044,
      "derived": 9045,
      "realistically": 9046,
      "broadway": 9047,
      "virtue": 9048,
      "awkwardness": 9049,
      "expands": 9050,
      "expanded": 9051,
      "marvelously": 9052,
      "intellectually": 9053,
      "studios": 9054,
      "elegance": 9055,
      "shadowy": 9056,
      "dangerously": 9057,
      "nicks": 9058,
      "recovery": 9059,
      "unapolo": 9060,
      "ramp": 9061,
      "counterparts": 9062,
      "languorous": 9063,
      "description": 9064,
      "finger": 9065,
      "fingers": 9066,
      "flop": 9067,
      "floating": 9068,
      "sickly": 9069,
      "reduce": 9070,
      "reduced": 9071,
      "obsessive": 9072,
      "obsessions": 9073,
      "affectionate": 9074,
      "birds": 9075,
      "cardboard": 9076,
      "falters": 9077,
      "frighteningly": 9078,
      "glimpses": 9079,
      "kosminsky": 9080,
      "rums": 9081,
      "vsky": 9082,
      "resemble": 9083,
      "alternate": 9084,
      "devote": 9085,
      "automatically": 9086,
      "autobiographical": 9087,
      "pushed": 9088,
      "absurdly": 9089,
      "ridiculousness": 9090,
      "camar": 9091,
      "campaign": 9092,
      "risky": 9093,
      "risks": 9094,
      "tiene": 9095,
      "tiempo": 9096,
      "modestly": 9097,
      "liberating": 9098,
      "layer": 9099,
      "tackling": 9100,
      "survival": 9101,
      "objectivity": 9102,
      "cinematographer": 9103,
      "eccentricities": 9104,
      "embarrassing": 9105,
      "embarrassed": 9106,
      "sunday": 9107,
      "stirs": 9108,
      "scrut": 9109,
      "artistically": 9110,
      "compromise": 9111,
      "compromised": 9112,
      "resolution": 9113,
      "tiresomely": 9114,
      "jacob": 9115,
      "vardalos": 9116,
      "chaos": 9117,
      "terrorism": 9118,
      "protagonists": 9119,
      "package": 9120,
      "packaged": 9121,
      "referential": 9122,
      "significance": 9123,
      "significantly": 9124,
      "banality": 9125,
      "billy": 9126,
      "location": 9127,
      "functions": 9128,
      "traditions": 9129,
      "football": 9130,
      "footnote": 9131,
      "rendering": 9132,
      "possesses": 9133,
      "possessed": 9134,
      "professionalism": 9135,
      "villains": 9136,
      "villainous": 9137,
      "amateurishly": 9138,
      "thirteen": 9139,
      "improvis": 9140,
      "suspecting": 9141,
      "embracing": 9142,
      "spellbind": 9143,
      "boredom": 9144,
      "brush": 9145,
      "crackle": 9146,
      "appearance": 9147,
      "appropriately": 9148,
      "transformed": 9149,
      "practice": 9150,
      "analytical": 9151,
      "recogniz": 9152,
      "bartlett": 9153,
      "blowing": 9154,
      "cros": 9155,
      "crocod": 9156,
      "randall": 9157,
      "wattage": 9158,
      "eloquently": 9159,
      "hayek": 9160,
      "proceeds": 9161,
      "overwhelm": 9162,
      "insultingly": 9163,
      "distinguish": 9164,
      "darned": 9165,
      "jolly": 9166,
      "jolting": 9167,
      "jumbo": 9168,
      "jumps": 9169,
      "torture": 9170,
      "texture": 9171,
      "influenced": 9172,
      "deception": 9173,
      "conditioning": 9174,
      "provided": 9175,
      "boxing": 9176,
      "tearjerker": 9177,
      "foolish": 9178,
      "collectively": 9179,
      "sensuality": 9180,
      "recycling": 9181,
      "aids": 9182,
      "frozen": 9183,
      "globe": 9184,
      "gloomy": 9185,
      "harrison": 9186,
      "london": 9187,
      "ratliff": 9188,
[...]
